{
  "version": "1.0",
  "truncation": null,
  "padding": {
    "strategy": "BatchLongest",
    "direction": "Right",
    "pad_to_multiple_of": null,
    "pad_id": 3,
    "pad_type_id": 0,
    "pad_token": "[PAD]"
  },
  "added_tokens": [
    {
      "id": 0,
      "content": "[UNK]",
      "single_word": false,
      "lstrip": false,
      "rstrip": false,
      "normalized": false,
      "special": true
    },
    {
      "id": 1,
      "content": "[CLS]",
      "single_word": false,
      "lstrip": false,
      "rstrip": false,
      "normalized": false,
      "special": true
    },
    {
      "id": 2,
      "content": "[SEP]",
      "single_word": false,
      "lstrip": false,
      "rstrip": false,
      "normalized": false,
      "special": true
    },
    {
      "id": 3,
      "content": "[PAD]",
      "single_word": false,
      "lstrip": false,
      "rstrip": false,
      "normalized": false,
      "special": true
    },
    {
      "id": 4,
      "content": "[MASK]",
      "single_word": false,
      "lstrip": false,
      "rstrip": false,
      "normalized": false,
      "special": true
    }
  ],
  "normalizer": {
    "type": "BertNormalizer",
    "clean_text": true,
    "handle_chinese_chars": true,
    "strip_accents": false,
    "lowercase": true
  },
  "pre_tokenizer": {
    "type": "Whitespace"
  },
  "post_processor": {
    "type": "TemplateProcessing",
    "single": [
      {
        "SpecialToken": {
          "id": "[CLS]",
          "type_id": 0
        }
      },
      {
        "Sequence": {
          "id": "A",
          "type_id": 0
        }
      },
      {
        "SpecialToken": {
          "id": "[SEP]",
          "type_id": 0
        }
      }
    ],
    "pair": [
      {
        "SpecialToken": {
          "id": "[CLS]",
          "type_id": 0
        }
      },
      {
        "Sequence": {
          "id": "A",
          "type_id": 0
        }
      },
      {
        "SpecialToken": {
          "id": "[SEP]",
          "type_id": 0
        }
      },
      {
        "Sequence": {
          "id": "B",
          "type_id": 1
        }
      },
      {
        "SpecialToken": {
          "id": "[SEP]",
          "type_id": 1
        }
      }
    ],
    "special_tokens": {
      "[CLS]": {
        "id": "[CLS]",
        "ids": [
          1
        ],
        "tokens": [
          "[CLS]"
        ]
      },
      "[SEP]": {
        "id": "[SEP]",
        "ids": [
          2
        ],
        "tokens": [
          "[SEP]"
        ]
      }
    }
  },
  "decoder": {
    "type": "WordPiece",
    "prefix": "##",
    "cleanup": true
  },
  "model": {
    "type": "WordPiece",
    "unk_token": "[UNK]",
    "continuing_subword_prefix": "##",
    "max_input_chars_per_word": 100,
    "vocab": {
      "[UNK]": 0,
      "[CLS]": 1,
      "[SEP]": 2,
      "[PAD]": 3,
      "[MASK]": 4,
      "!": 5,
      "\"": 6,
      "#": 7,
      "$": 8,
      "%": 9,
      "&": 10,
      "'": 11,
      "(": 12,
      ")": 13,
      "*": 14,
      "+": 15,
      ",": 16,
      "-": 17,
      ".": 18,
      "/": 19,
      "0": 20,
      "1": 21,
      "2": 22,
      "3": 23,
      "4": 24,
      "5": 25,
      "6": 26,
      "7": 27,
      "8": 28,
      "9": 29,
      ":": 30,
      ";": 31,
      "<": 32,
      "=": 33,
      ">": 34,
      "?": 35,
      "@": 36,
      "[": 37,
      "\\": 38,
      "]": 39,
      "^": 40,
      "_": 41,
      "`": 42,
      "a": 43,
      "b": 44,
      "c": 45,
      "d": 46,
      "e": 47,
      "f": 48,
      "g": 49,
      "h": 50,
      "i": 51,
      "j": 52,
      "k": 53,
      "l": 54,
      "m": 55,
      "n": 56,
      "o": 57,
      "p": 58,
      "q": 59,
      "r": 60,
      "s": 61,
      "t": 62,
      "u": 63,
      "v": 64,
      "w": 65,
      "x": 66,
      "y": 67,
      "z": 68,
      "{": 69,
      "|": 70,
      "}": 71,
      "~": 72,
      "¡": 73,
      "¢": 74,
      "£": 75,
      "¤": 76,
      "¥": 77,
      "¦": 78,
      "§": 79,
      "¨": 80,
      "©": 81,
      "ª": 82,
      "«": 83,
      "¬": 84,
      "®": 85,
      "¯": 86,
      "°": 87,
      "±": 88,
      "²": 89,
      "³": 90,
      "´": 91,
      "µ": 92,
      "¶": 93,
      "·": 94,
      "¸": 95,
      "¹": 96,
      "º": 97,
      "»": 98,
      "¼": 99,
      "½": 100,
      "¾": 101,
      "¿": 102,
      "×": 103,
      "ß": 104,
      "à": 105,
      "á": 106,
      "â": 107,
      "ã": 108,
      "ä": 109,
      "å": 110,
      "æ": 111,
      "ç": 112,
      "è": 113,
      "é": 114,
      "ê": 115,
      "ë": 116,
      "ì": 117,
      "í": 118,
      "î": 119,
      "ï": 120,
      "ð": 121,
      "ñ": 122,
      "ò": 123,
      "ó": 124,
      "ô": 125,
      "õ": 126,
      "ö": 127,
      "÷": 128,
      "ø": 129,
      "ù": 130,
      "ú": 131,
      "û": 132,
      "ü": 133,
      "ý": 134,
      "þ": 135,
      "ÿ": 136,
      "ā": 137,
      "ă": 138,
      "ą": 139,
      "ć": 140,
      "ĉ": 141,
      "ċ": 142,
      "č": 143,
      "ď": 144,
      "đ": 145,
      "ē": 146,
      "ĕ": 147,
      "ė": 148,
      "ę": 149,
      "ě": 150,
      "ĝ": 151,
      "ğ": 152,
      "ģ": 153,
      "ĥ": 154,
      "ħ": 155,
      "ĩ": 156,
      "ī": 157,
      "ĭ": 158,
      "į": 159,
      "ı": 160,
      "ĳ": 161,
      "ĵ": 162,
      "ķ": 163,
      "ĸ": 164,
      "ĺ": 165,
      "ļ": 166,
      "ľ": 167,
      "ŀ": 168,
      "ł": 169,
      "ń": 170,
      "ņ": 171,
      "ň": 172,
      "ŉ": 173,
      "ŋ": 174,
      "ō": 175,
      "ŏ": 176,
      "ő": 177,
      "œ": 178,
      "ŕ": 179,
      "ŗ": 180,
      "ř": 181,
      "ś": 182,
      "ŝ": 183,
      "ş": 184,
      "š": 185,
      "ţ": 186,
      "ť": 187,
      "ŧ": 188,
      "ũ": 189,
      "ū": 190,
      "ŭ": 191,
      "ů": 192,
      "ű": 193,
      "ų": 194,
      "ŵ": 195,
      "ŷ": 196,
      "ź": 197,
      "ż": 198,
      "ž": 199,
      "ƀ": 200,
      "ƃ": 201,
      "ƅ": 202,
      "ƈ": 203,
      "ƌ": 204,
      "ƍ": 205,
      "ƒ": 206,
      "ƕ": 207,
      "ƙ": 208,
      "ƚ": 209,
      "ƛ": 210,
      "ƞ": 211,
      "ơ": 212,
      "ƣ": 213,
      "ƥ": 214,
      "ƨ": 215,
      "ƫ": 216,
      "ƭ": 217,
      "ư": 218,
      "ƴ": 219,
      "ƶ": 220,
      "ƹ": 221,
      "ƺ": 222,
      "ƻ": 223,
      "ƽ": 224,
      "ƾ": 225,
      "ƿ": 226,
      "ǀ": 227,
      "ǁ": 228,
      "ǂ": 229,
      "ǃ": 230,
      "ǆ": 231,
      "ǉ": 232,
      "ǌ": 233,
      "ǎ": 234,
      "ǐ": 235,
      "ǒ": 236,
      "ǔ": 237,
      "ǖ": 238,
      "ǘ": 239,
      "ǚ": 240,
      "ǜ": 241,
      "ǝ": 242,
      "ǟ": 243,
      "ǡ": 244,
      "ǣ": 245,
      "ǥ": 246,
      "ǧ": 247,
      "ǩ": 248,
      "ǫ": 249,
      "ǭ": 250,
      "ǯ": 251,
      "ǰ": 252,
      "ǳ": 253,
      "ǵ": 254,
      "ǹ": 255,
      "ǻ": 256,
      "ǽ": 257,
      "ǿ": 258,
      "ȁ": 259,
      "ȃ": 260,
      "ȅ": 261,
      "ȇ": 262,
      "ȉ": 263,
      "ȋ": 264,
      "ȍ": 265,
      "ȏ": 266,
      "ȑ": 267,
      "ȓ": 268,
      "ȕ": 269,
      "ȗ": 270,
      "ș": 271,
      "ț": 272,
      "ȟ": 273,
      "ȡ": 274,
      "ȣ": 275,
      "ȥ": 276,
      "ȧ": 277,
      "ȫ": 278,
      "ȭ": 279,
      "ȯ": 280,
      "ȱ": 281,
      "ȳ": 282,
      "ȴ": 283,
      "ȵ": 284,
      "ȶ": 285,
      "ȷ": 286,
      "ȹ": 287,
      "ȼ": 288,
      "ȿ": 289,
      "ɀ": 290,
      "ɂ": 291,
      "ɇ": 292,
      "ɉ": 293,
      "ɋ": 294,
      "ɍ": 295,
      "ɏ": 296,
      "ɐ": 297,
      "ɑ": 298,
      "ɒ": 299,
      "ɓ": 300,
      "ɔ": 301,
      "ɕ": 302,
      "ɖ": 303,
      "ɗ": 304,
      "ɘ": 305,
      "ə": 306,
      "ɚ": 307,
      "ɛ": 308,
      "ɜ": 309,
      "ɝ": 310,
      "ɞ": 311,
      "ɟ": 312,
      "ɠ": 313,
      "ɡ": 314,
      "ɢ": 315,
      "ɣ": 316,
      "ɤ": 317,
      "ɥ": 318,
      "ɦ": 319,
      "ɧ": 320,
      "ɨ": 321,
      "ɩ": 322,
      "ɪ": 323,
      "ɫ": 324,
      "ɬ": 325,
      "ɭ": 326,
      "ɮ": 327,
      "ɯ": 328,
      "ɰ": 329,
      "ɱ": 330,
      "ɲ": 331,
      "ɳ": 332,
      "ɴ": 333,
      "ɵ": 334,
      "ɶ": 335,
      "ɷ": 336,
      "ɸ": 337,
      "ɺ": 338,
      "ɻ": 339,
      "ɼ": 340,
      "ɽ": 341,
      "ɾ": 342,
      "ɿ": 343,
      "ʀ": 344,
      "ʁ": 345,
      "ʂ": 346,
      "ʃ": 347,
      "ʅ": 348,
      "ʆ": 349,
      "ʈ": 350,
      "ʉ": 351,
      "ʊ": 352,
      "ʋ": 353,
      "ʌ": 354,
      "ʍ": 355,
      "ʎ": 356,
      "ʏ": 357,
      "ʑ": 358,
      "ʒ": 359,
      "ʔ": 360,
      "ʕ": 361,
      "ʖ": 362,
      "ʗ": 363,
      "ʙ": 364,
      "ʚ": 365,
      "ʛ": 366,
      "ʜ": 367,
      "ʝ": 368,
      "ʞ": 369,
      "ʟ": 370,
      "ʠ": 371,
      "ʡ": 372,
      "ʢ": 373,
      "ʣ": 374,
      "ʤ": 375,
      "ʥ": 376,
      "ʦ": 377,
      "ʧ": 378,
      "ʨ": 379,
      "ʩ": 380,
      "ʪ": 381,
      "ʫ": 382,
      "ʬ": 383,
      "ʭ": 384,
      "ʮ": 385,
      "ʯ": 386,
      "ʰ": 387,
      "ʱ": 388,
      "ʲ": 389,
      "ʳ": 390,
      "ʴ": 391,
      "ʵ": 392,
      "ʶ": 393,
      "ʷ": 394,
      "ʸ": 395,
      "ʹ": 396,
      "ʺ": 397,
      "ʻ": 398,
      "ʼ": 399,
      "ʽ": 400,
      "ʾ": 401,
      "ʿ": 402,
      "ˀ": 403,
      "ˁ": 404,
      "˃": 405,
      "˄": 406,
      "˅": 407,
      "ˆ": 408,
      "ˇ": 409,
      "ˈ": 410,
      "ˉ": 411,
      "ˊ": 412,
      "ˋ": 413,
      "ˌ": 414,
      "ˍ": 415,
      "ˎ": 416,
      "ˏ": 417,
      "ː": 418,
      "˒": 419,
      "˓": 420,
      "˕": 421,
      "˖": 422,
      "˗": 423,
      "˘": 424,
      "˙": 425,
      "˚": 426,
      "˛": 427,
      "˜": 428,
      "˝": 429,
      "˞": 430,
      "ˠ": 431,
      "ˡ": 432,
      "ˣ": 433,
      "ˤ": 434,
      "˥": 435,
      "˦": 436,
      "˧": 437,
      "˨": 438,
      "˪": 439,
      "˫": 440,
      "ˬ": 441,
      "˭": 442,
      "ˮ": 443,
      "˯": 444,
      "˰": 445,
      "˱": 446,
      "˲": 447,
      "˳": 448,
      "˴": 449,
      "˵": 450,
      "˶": 451,
      "˷": 452,
      "˸": 453,
      "˹": 454,
      "˺": 455,
      "˻": 456,
      "˼": 457,
      "˽": 458,
      "˾": 459,
      "˿": 460,
      "̀": 461,
      "́": 462,
      "̃": 463,
      "̄": 464,
      "̅": 465,
      "̆": 466,
      "̇": 467,
      "̉": 468,
      "̊": 469,
      "̋": 470,
      "̌": 471,
      "̍": 472,
      "̎": 473,
      "̏": 474,
      "̑": 475,
      "̒": 476,
      "̓": 477,
      "̔": 478,
      "̖": 479,
      "̗": 480,
      "̘": 481,
      "̚": 482,
      "̛": 483,
      "̜": 484,
      "̝": 485,
      "̞": 486,
      "̟": 487,
      "̠": 488,
      "̡": 489,
      "̢": 490,
      "̣": 491,
      "̤": 492,
      "̥": 493,
      "̧": 494,
      "̩": 495,
      "̪": 496,
      "̫": 497,
      "̬": 498,
      "̭": 499,
      "̮": 500,
      "̯": 501,
      "̰": 502,
      "̱": 503,
      "̲": 504,
      "̳": 505,
      "̴": 506,
      "̵": 507,
      "̶": 508,
      "̷": 509,
      "̸": 510,
      "̹": 511,
      "̺": 512,
      "̻": 513,
      "̼": 514,
      "̾": 515,
      "̿": 516,
      "̀": 517,
      "́": 518,
      "͂": 519,
      "̓": 520,
      "̈́": 521,
      "ͅ": 522,
      "͇": 523,
      "͈": 524,
      "͉": 525,
      "͊": 526,
      "͋": 527,
      "͌": 528,
      "͍": 529,
      "͎": 530,
      "͏": 531,
      "͐": 532,
      "͑": 533,
      "͒": 534,
      "͓": 535,
      "͔": 536,
      "͕": 537,
      "͖": 538,
      "͗": 539,
      "͘": 540,
      "͙": 541,
      "͚": 542,
      "͛": 543,
      "͜": 544,
      "͝": 545,
      "͞": 546,
      "͟": 547,
      "͠": 548,
      "͡": 549,
      "ͣ": 550,
      "ͤ": 551,
      "ͥ": 552,
      "ͦ": 553,
      "ͧ": 554,
      "ͨ": 555,
      "ͩ": 556,
      "ͪ": 557,
      "ͫ": 558,
      "ͬ": 559,
      "ͭ": 560,
      "ͯ": 561,
      "ͱ": 562,
      "ͳ": 563,
      "͵": 564,
      "ͷ": 565,
      "͸": 566,
      "͹": 567,
      "ͺ": 568,
      "ͻ": 569,
      "ͼ": 570,
      "ͽ": 571,
      "΀": 572,
      "΂": 573,
      "΃": 574,
      "΅": 575,
      "·": 576,
      "΍": 577,
      "ΐ": 578,
      "΢": 579,
      "ά": 580,
      "έ": 581,
      "ή": 582,
      "ί": 583,
      "ΰ": 584,
      "α": 585,
      "β": 586,
      "γ": 587,
      "δ": 588,
      "ε": 589,
      "ζ": 590,
      "η": 591,
      "θ": 592,
      "ι": 593,
      "κ": 594,
      "λ": 595,
      "μ": 596,
      "ν": 597,
      "ξ": 598,
      "ο": 599,
      "π": 600,
      "ρ": 601,
      "ς": 602,
      "σ": 603,
      "τ": 604,
      "υ": 605,
      "φ": 606,
      "χ": 607,
      "ψ": 608,
      "ω": 609,
      "ϊ": 610,
      "ϋ": 611,
      "ό": 612,
      "ύ": 613,
      "ώ": 614,
      "ϐ": 615,
      "ϑ": 616,
      "ϒ": 617,
      "ϔ": 618,
      "ϖ": 619,
      "ϗ": 620,
      "ϙ": 621,
      "ϛ": 622,
      "ϝ": 623,
      "ϟ": 624,
      "ϣ": 625,
      "ϥ": 626,
      "ϧ": 627,
      "ϩ": 628,
      "ϫ": 629,
      "ϭ": 630,
      "ϯ": 631,
      "ϱ": 632,
      "ϲ": 633,
      "ϳ": 634,
      "ϵ": 635,
      "϶": 636,
      "ϸ": 637,
      "ϻ": 638,
      "ϼ": 639,
      "а": 640,
      "б": 641,
      "в": 642,
      "г": 643,
      "д": 644,
      "е": 645,
      "ж": 646,
      "з": 647,
      "и": 648,
      "й": 649,
      "к": 650,
      "л": 651,
      "м": 652,
      "н": 653,
      "о": 654,
      "п": 655,
      "р": 656,
      "с": 657,
      "т": 658,
      "у": 659,
      "ф": 660,
      "х": 661,
      "ц": 662,
      "ч": 663,
      "ш": 664,
      "щ": 665,
      "ъ": 666,
      "ы": 667,
      "ь": 668,
      "э": 669,
      "ю": 670,
      "я": 671,
      "ѐ": 672,
      "ё": 673,
      "ђ": 674,
      "ѓ": 675,
      "є": 676,
      "ѕ": 677,
      "і": 678,
      "ї": 679,
      "ј": 680,
      "љ": 681,
      "њ": 682,
      "ћ": 683,
      "ќ": 684,
      "ѝ": 685,
      "ў": 686,
      "џ": 687,
      "ѡ": 688,
      "ѣ": 689,
      "ѥ": 690,
      "ѧ": 691,
      "ѩ": 692,
      "ѫ": 693,
      "ѭ": 694,
      "ѯ": 695,
      "ѱ": 696,
      "ѳ": 697,
      "ѵ": 698,
      "ѷ": 699,
      "ѹ": 700,
      "ѻ": 701,
      "ѽ": 702,
      "ѿ": 703,
      "ҁ": 704,
      "҂": 705,
      "҃": 706,
      "҄": 707,
      "҆": 708,
      "҇": 709,
      "҈": 710,
      "҉": 711,
      "ҋ": 712,
      "ҍ": 713,
      "ҏ": 714,
      "ґ": 715,
      "ғ": 716,
      "ҕ": 717,
      "җ": 718,
      "ҙ": 719,
      "қ": 720,
      "ҝ": 721,
      "ҟ": 722,
      "ҡ": 723,
      "ң": 724,
      "ҥ": 725,
      "ҧ": 726,
      "ҩ": 727,
      "ҫ": 728,
      "ҭ": 729,
      "ү": 730,
      "ұ": 731,
      "ҳ": 732,
      "ҵ": 733,
      "ҷ": 734,
      "ҹ": 735,
      "һ": 736,
      "ҽ": 737,
      "ҿ": 738,
      "ӂ": 739,
      "ӄ": 740,
      "ӆ": 741,
      "ӈ": 742,
      "ӊ": 743,
      "ӌ": 744,
      "ӎ": 745,
      "ӏ": 746,
      "ӑ": 747,
      "ӓ": 748,
      "ӕ": 749,
      "ӗ": 750,
      "ә": 751,
      "ӛ": 752,
      "ӝ": 753,
      "ӟ": 754,
      "ӡ": 755,
      "ӣ": 756,
      "ӥ": 757,
      "ӧ": 758,
      "ө": 759,
      "ӫ": 760,
      "ӭ": 761,
      "ӯ": 762,
      "ӱ": 763,
      "ӳ": 764,
      "ӵ": 765,
      "ӷ": 766,
      "ӹ": 767,
      "ӻ": 768,
      "ӽ": 769,
      "ӿ": 770,
      "ԁ": 771,
      "ԃ": 772,
      "ԅ": 773,
      "ԇ": 774,
      "ԉ": 775,
      "ԋ": 776,
      "ԍ": 777,
      "ԏ": 778,
      "ԑ": 779,
      "ԓ": 780,
      "ԕ": 781,
      "ԗ": 782,
      "ԙ": 783,
      "ԛ": 784,
      "ԝ": 785,
      "ԟ": 786,
      "ԡ": 787,
      "ԣ": 788,
      "ԥ": 789,
      "ԧ": 790,
      "ԩ": 791,
      "ԫ": 792,
      "ԭ": 793,
      "ԯ": 794,
      "԰": 795,
      "՗": 796,
      "՘": 797,
      "ՙ": 798,
      "՚": 799,
      "՛": 800,
      "՜": 801,
      "՝": 802,
      "՞": 803,
      "՟": 804,
      "ա": 805,
      "բ": 806,
      "գ": 807,
      "դ": 808,
      "ե": 809,
      "զ": 810,
      "է": 811,
      "ը": 812,
      "թ": 813,
      "ժ": 814,
      "ի": 815,
      "լ": 816,
      "խ": 817,
      "ծ": 818,
      "կ": 819,
      "հ": 820,
      "ձ": 821,
      "ղ": 822,
      "ճ": 823,
      "մ": 824,
      "յ": 825,
      "ն": 826,
      "շ": 827,
      "ո": 828,
      "չ": 829,
      "պ": 830,
      "ջ": 831,
      "ռ": 832,
      "ս": 833,
      "վ": 834,
      "տ": 835,
      "ր": 836,
      "ց": 837,
      "ւ": 838,
      "փ": 839,
      "ք": 840,
      "օ": 841,
      "ֆ": 842,
      "ֈ": 843,
      "։": 844,
      "֌": 845,
      "֍": 846,
      "֎": 847,
      "֏": 848,
      "֐": 849,
      "֑": 850,
      "֒": 851,
      "֓": 852,
      "֔": 853,
      "֕": 854,
      "֖": 855,
      "֗": 856,
      "֚": 857,
      "֛": 858,
      "֜": 859,
      "֝": 860,
      "֠": 861,
      "֡": 862,
      "֣": 863,
      "֦": 864,
      "֧": 865,
      "֨": 866,
      "֪": 867,
      "֫": 868,
      "֬": 869,
      "֭": 870,
      "֮": 871,
      "֯": 872,
      "ְ": 873,
      "ֱ": 874,
      "ֲ": 875,
      "ֳ": 876,
      "ִ": 877,
      "ֵ": 878,
      "ֶ": 879,
      "ַ": 880,
      "ָ": 881,
      "ֹ": 882,
      "ּ": 883,
      "ֽ": 884,
      "־": 885,
      "ֿ": 886,
      "׀": 887,
      "ׁ": 888,
      "ׂ": 889,
      "׃": 890,
      "ׄ": 891,
      "ׅ": 892,
      "׆": 893,
      "ׇ": 894,
      "׊": 895,
      "׋": 896,
      "׌": 897,
      "׍": 898,
      "׎": 899,
      "א": 900,
      "ב": 901,
      "ג": 902,
      "ד": 903,
      "ה": 904,
      "ו": 905,
      "ז": 906,
      "ח": 907,
      "ט": 908,
      "י": 909,
      "ך": 910,
      "כ": 911,
      "ל": 912,
      "ם": 913,
      "מ": 914,
      "ן": 915,
      "נ": 916,
      "ס": 917,
      "ע": 918,
      "ף": 919,
      "פ": 920,
      "ץ": 921,
      "צ": 922,
      "ק": 923,
      "ר": 924,
      "ש": 925,
      "ת": 926,
      "׫": 927,
      "׬": 928,
      "׭": 929,
      "׮": 930,
      "ױ": 931,
      "ײ": 932,
      "׳": 933,
      "״": 934,
      "׵": 935,
      "׶": 936,
      "׷": 937,
      "׸": 938,
      "׹": 939,
      "׼": 940,
      "׽": 941,
      "׾": 942,
      "׿": 943,
      "؆": 944,
      "؇": 945,
      "؉": 946,
      "؊": 947,
      "؋": 948,
      "،": 949,
      "؍": 950,
      "؎": 951,
      "ؑ": 952,
      "ؓ": 953,
      "ؔ": 954,
      "ؕ": 955,
      "ؖ": 956,
      "ؘ": 957,
      "ؙ": 958,
      "؛": 959,
      "؝": 960,
      "؞": 961,
      "؟": 962,
      "ؠ": 963,
      "ء": 964,
      "آ": 965,
      "أ": 966,
      "ؤ": 967,
      "إ": 968,
      "ئ": 969,
      "ا": 970,
      "ب": 971,
      "ة": 972,
      "ت": 973,
      "ث": 974,
      "ج": 975,
      "ح": 976,
      "خ": 977,
      "د": 978,
      "ذ": 979,
      "ر": 980,
      "ز": 981,
      "س": 982,
      "ش": 983,
      "ص": 984,
      "ض": 985,
      "ط": 986,
      "ظ": 987,
      "ع": 988,
      "غ": 989,
      "ػ": 990,
      "ؼ": 991,
      "ؾ": 992,
      "ؿ": 993,
      "ـ": 994,
      "ف": 995,
      "ق": 996,
      "ك": 997,
      "ل": 998,
      "م": 999,
      "ن": 1000,
      "ه": 1001,
      "و": 1002,
      "ى": 1003,
      "ي": 1004,
      "ً": 1005,
      "ٌ": 1006,
      "َ": 1007,
      "ُ": 1008,
      "ِ": 1009,
      "ّ": 1010,
      "ْ": 1011,
      "ٔ": 1012,
      "ٕ": 1013,
      "ٖ": 1014,
      "ٗ": 1015,
      "٘": 1016,
      "ٙ": 1017,
      "ٚ": 1018,
      "ٛ": 1019,
      "ٜ": 1020,
      "ٝ": 1021,
      "ٞ": 1022,
      "ٟ": 1023,
      "٠": 1024,
      "١": 1025,
      "٢": 1026,
      "٣": 1027,
      "٥": 1028,
      "٦": 1029,
      "٧": 1030,
      "٨": 1031,
      "٩": 1032,
      "٪": 1033,
      "٫": 1034,
      "٬": 1035,
      "٭": 1036,
      "ٮ": 1037,
      "ٰ": 1038,
      "ٱ": 1039,
      "ٲ": 1040,
      "ٳ": 1041,
      "ٴ": 1042,
      "ٵ": 1043,
      "ٶ": 1044,
      "ٷ": 1045,
      "ٸ": 1046,
      "ٹ": 1047,
      "ٺ": 1048,
      "ٻ": 1049,
      "ټ": 1050,
      "ٽ": 1051,
      "پ": 1052,
      "ٿ": 1053,
      "ڀ": 1054,
      "ځ": 1055,
      "ڂ": 1056,
      "ڄ": 1057,
      "څ": 1058,
      "چ": 1059,
      "ڇ": 1060,
      "ڈ": 1061,
      "ډ": 1062,
      "ڊ": 1063,
      "ڌ": 1064,
      "ڍ": 1065,
      "ڎ": 1066,
      "ڐ": 1067,
      "ڑ": 1068,
      "ڒ": 1069,
      "ړ": 1070,
      "ڔ": 1071,
      "ڕ": 1072,
      "ږ": 1073,
      "ڗ": 1074,
      "ژ": 1075,
      "ڙ": 1076,
      "ښ": 1077,
      "ڝ": 1078,
      "ڞ": 1079,
      "ڟ": 1080,
      "ڠ": 1081,
      "ڡ": 1082,
      "ڢ": 1083,
      "ڣ": 1084,
      "ڤ": 1085,
      "ڥ": 1086,
      "ڦ": 1087,
      "ڨ": 1088,
      "ک": 1089,
      "ڪ": 1090,
      "ګ": 1091,
      "ڬ": 1092,
      "ڮ": 1093,
      "گ": 1094,
      "ڰ": 1095,
      "ڱ": 1096,
      "ڲ": 1097,
      "ڳ": 1098,
      "ڴ": 1099,
      "ڵ": 1100,
      "ڶ": 1101,
      "ڷ": 1102,
      "ڸ": 1103,
      "ڹ": 1104,
      "ں": 1105,
      "ڻ": 1106,
      "ڽ": 1107,
      "ھ": 1108,
      "ڿ": 1109,
      "ۀ": 1110,
      "ہ": 1111,
      "ۂ": 1112,
      "ۃ": 1113,
      "ۄ": 1114,
      "ۆ": 1115,
      "ۇ": 1116,
      "ۈ": 1117,
      "ۉ": 1118,
      "ۊ": 1119,
      "ۋ": 1120,
      "ی": 1121,
      "ۍ": 1122,
      "ێ": 1123,
      "ۏ": 1124,
      "ې": 1125,
      "ۑ": 1126,
      "ے": 1127,
      "ۓ": 1128,
      "۔": 1129,
      "ە": 1130,
      "ۖ": 1131,
      "ۗ": 1132,
      "ۘ": 1133,
      "ۙ": 1134,
      "ۚ": 1135,
      "ۛ": 1136,
      "ۜ": 1137,
      "۞": 1138,
      "۟": 1139,
      "۠": 1140,
      "ۡ": 1141,
      "ۢ": 1142,
      "ۣ": 1143,
      "ۤ": 1144,
      "ۥ": 1145,
      "ۦ": 1146,
      "ۧ": 1147,
      "ۨ": 1148,
      "۩": 1149,
      "۪": 1150,
      "۫": 1151,
      "۬": 1152,
      "ۭ": 1153,
      "ۮ": 1154,
      "ۯ": 1155,
      "۰": 1156,
      "۱": 1157,
      "۲": 1158,
      "۳": 1159,
      "۴": 1160,
      "۵": 1161,
      "۶": 1162,
      "۷": 1163,
      "۸": 1164,
      "۹": 1165,
      "ۺ": 1166,
      "ۻ": 1167,
      "ۼ": 1168,
      "۾": 1169,
      "ۿ": 1170,
      "܀": 1171,
      "܁": 1172,
      "܂": 1173,
      "܃": 1174,
      "܄": 1175,
      "܅": 1176,
      "܆": 1177,
      "܇": 1178,
      "܈": 1179,
      "܊": 1180,
      "܋": 1181,
      "܌": 1182,
      "܍": 1183,
      "܎": 1184,
      "ܐ": 1185,
      "ܑ": 1186,
      "ܒ": 1187,
      "ܓ": 1188,
      "ܔ": 1189,
      "ܕ": 1190,
      "ܖ": 1191,
      "ܗ": 1192,
      "ܘ": 1193,
      "ܙ": 1194,
      "ܛ": 1195,
      "ܜ": 1196,
      "ܝ": 1197,
      "ܞ": 1198,
      "ܟ": 1199,
      "ܠ": 1200,
      "ܡ": 1201,
      "ܢ": 1202,
      "ܣ": 1203,
      "ܥ": 1204,
      "ܦ": 1205,
      "ܧ": 1206,
      "ܨ": 1207,
      "ܩ": 1208,
      "ܪ": 1209,
      "ܫ": 1210,
      "ܬ": 1211,
      "ܭ": 1212,
      "ܮ": 1213,
      "ܰ": 1214,
      "ܱ": 1215,
      "ܲ": 1216,
      "ܳ": 1217,
      "ܴ": 1218,
      "ܵ": 1219,
      "ܶ": 1220,
      "ܷ": 1221,
      "ܸ": 1222,
      "ܹ": 1223,
      "ܺ": 1224,
      "ܻ": 1225,
      "ܼ": 1226,
      "ܽ": 1227,
      "ܾ": 1228,
      "ܿ": 1229,
      "݀": 1230,
      "݁": 1231,
      "݂": 1232,
      "݃": 1233,
      "݄": 1234,
      "݅": 1235,
      "݆": 1236,
      "݇": 1237,
      "݈": 1238,
      "݊": 1239,
      "݋": 1240,
      "݌": 1241,
      "ݍ": 1242,
      "ݎ": 1243,
      "ݐ": 1244,
      "ݑ": 1245,
      "ݒ": 1246,
      "ݓ": 1247,
      "ݔ": 1248,
      "ݕ": 1249,
      "ݖ": 1250,
      "ݘ": 1251,
      "ݙ": 1252,
      "ݚ": 1253,
      "ݛ": 1254,
      "ݜ": 1255,
      "ݝ": 1256,
      "ݞ": 1257,
      "ݡ": 1258,
      "ݢ": 1259,
      "ݣ": 1260,
      "ݤ": 1261,
      "ݥ": 1262,
      "ݦ": 1263,
      "ݧ": 1264,
      "ݨ": 1265,
      "ݩ": 1266,
      "ݪ": 1267,
      "ݫ": 1268,
      "ݬ": 1269,
      "ݭ": 1270,
      "ݮ": 1271,
      "ݯ": 1272,
      "ݰ": 1273,
      "ݱ": 1274,
      "ݲ": 1275,
      "ݳ": 1276,
      "ݴ": 1277,
      "ݵ": 1278,
      "ݶ": 1279,
      "ݷ": 1280,
      "ݸ": 1281,
      "ݹ": 1282,
      "ݺ": 1283,
      "ݻ": 1284,
      "ݼ": 1285,
      "ݽ": 1286,
      "ݾ": 1287,
      "ހ": 1288,
      "ށ": 1289,
      "ނ": 1290,
      "ރ": 1291,
      "ބ": 1292,
      "ޅ": 1293,
      "ކ": 1294,
      "ވ": 1295,
      "ފ": 1296,
      "ދ": 1297,
      "ތ": 1298,
      "ލ": 1299,
      "ގ": 1300,
      "ޏ": 1301,
      "ސ": 1302,
      "ޑ": 1303,
      "ޒ": 1304,
      "ޓ": 1305,
      "ޔ": 1306,
      "ޕ": 1307,
      "ޖ": 1308,
      "ޗ": 1309,
      "ޘ": 1310,
      "ޙ": 1311,
      "ޛ": 1312,
      "ޜ": 1313,
      "ޝ": 1314,
      "ޞ": 1315,
      "ޟ": 1316,
      "ޠ": 1317,
      "ޡ": 1318,
      "ޢ": 1319,
      "ޣ": 1320,
      "ޤ": 1321,
      "ޥ": 1322,
      "ަ": 1323,
      "ާ": 1324,
      "ި": 1325,
      "ީ": 1326,
      "ު": 1327,
      "ޫ": 1328,
      "ެ": 1329,
      "ޭ": 1330,
      "ޮ": 1331,
      "ޯ": 1332,
      "ް": 1333,
      "ޱ": 1334,
      "޲": 1335,
      "޳": 1336,
      "޴": 1337,
      "޵": 1338,
      "޶": 1339,
      "޷": 1340,
      "޸": 1341,
      "޹": 1342,
      "޺": 1343,
      "޻": 1344,
      "޽": 1345,
      "޾": 1346,
      "޿": 1347,
      "߀": 1348,
      "߁": 1349,
      "߂": 1350,
      "߃": 1351,
      "߄": 1352,
      "߆": 1353,
      "߇": 1354,
      "߈": 1355,
      "߉": 1356,
      "ߊ": 1357,
      "ߋ": 1358,
      "ߌ": 1359,
      "ߍ": 1360,
      "ߎ": 1361,
      "ߏ": 1362,
      "ߐ": 1363,
      "ߑ": 1364,
      "ߒ": 1365,
      "ߓ": 1366,
      "ߔ": 1367,
      "ߖ": 1368,
      "ߘ": 1369,
      "ߙ": 1370,
      "ߚ": 1371,
      "ߛ": 1372,
      "ߜ": 1373,
      "ߞ": 1374,
      "ߠ": 1375,
      "ߣ": 1376,
      "ߤ": 1377,
      "ߥ": 1378,
      "ߦ": 1379,
      "ߧ": 1380,
      "ߨ": 1381,
      "߫": 1382,
      "߬": 1383,
      "߮": 1384,
      "߯": 1385,
      "߰": 1386,
      "߱": 1387,
      "߲": 1388,
      "߳": 1389,
      "ߴ": 1390,
      "ߵ": 1391,
      "߶": 1392,
      "߷": 1393,
      "߸": 1394,
      "߹": 1395,
      "ߺ": 1396,
      "߻": 1397,
      "߼": 1398,
      "߽": 1399,
      "߾": 1400,
      "߿": 1401,
      "ࡡ": 1402,
      "ࢎ": 1403,
      "ँ": 1404,
      "ं": 1405,
      "ः": 1406,
      "ऄ": 1407,
      "अ": 1408,
      "आ": 1409,
      "इ": 1410,
      "ई": 1411,
      "उ": 1412,
      "ऊ": 1413,
      "ऋ": 1414,
      "ऌ": 1415,
      "ऍ": 1416,
      "ऎ": 1417,
      "ए": 1418,
      "ऐ": 1419,
      "ऑ": 1420,
      "ऒ": 1421,
      "ओ": 1422,
      "औ": 1423,
      "क": 1424,
      "ख": 1425,
      "ग": 1426,
      "घ": 1427,
      "ङ": 1428,
      "च": 1429,
      "छ": 1430,
      "ज": 1431,
      "झ": 1432,
      "ञ": 1433,
      "ट": 1434,
      "ठ": 1435,
      "ड": 1436,
      "ढ": 1437,
      "ण": 1438,
      "त": 1439,
      "थ": 1440,
      "द": 1441,
      "ध": 1442,
      "न": 1443,
      "ऩ": 1444,
      "प": 1445,
      "फ": 1446,
      "ब": 1447,
      "भ": 1448,
      "म": 1449,
      "य": 1450,
      "र": 1451,
      "ऱ": 1452,
      "ल": 1453,
      "ळ": 1454,
      "ऴ": 1455,
      "व": 1456,
      "श": 1457,
      "ष": 1458,
      "स": 1459,
      "ह": 1460,
      "़": 1461,
      "ऽ": 1462,
      "ा": 1463,
      "ि": 1464,
      "ी": 1465,
      "ु": 1466,
      "ू": 1467,
      "ृ": 1468,
      "ॄ": 1469,
      "ॅ": 1470,
      "ॆ": 1471,
      "े": 1472,
      "ै": 1473,
      "ॉ": 1474,
      "ॊ": 1475,
      "ो": 1476,
      "ौ": 1477,
      "्": 1478,
      "ॐ": 1479,
      "॑": 1480,
      "॒": 1481,
      "॓": 1482,
      "॔": 1483,
      "क़": 1484,
      "ख़": 1485,
      "ग़": 1486,
      "ज़": 1487,
      "ड़": 1488,
      "ढ़": 1489,
      "फ़": 1490,
      "य़": 1491,
      "ॠ": 1492,
      "ॡ": 1493,
      "ॢ": 1494,
      "ॣ": 1495,
      "।": 1496,
      "॥": 1497,
      "०": 1498,
      "१": 1499,
      "२": 1500,
      "३": 1501,
      "४": 1502,
      "५": 1503,
      "६": 1504,
      "७": 1505,
      "८": 1506,
      "९": 1507,
      "॰": 1508,
      "ॴ": 1509,
      "ॽ": 1510,
      "ঁ": 1511,
      "ং": 1512,
      "ঃ": 1513,
      "অ": 1514,
      "আ": 1515,
      "ই": 1516,
      "উ": 1517,
      "এ": 1518,
      "ও": 1519,
      "ক": 1520,
      "খ": 1521,
      "গ": 1522,
      "ঘ": 1523,
      "ঙ": 1524,
      "চ": 1525,
      "ছ": 1526,
      "জ": 1527,
      "ঝ": 1528,
      "ট": 1529,
      "ঠ": 1530,
      "ড": 1531,
      "ঢ": 1532,
      "ণ": 1533,
      "ত": 1534,
      "থ": 1535,
      "দ": 1536,
      "ধ": 1537,
      "ন": 1538,
      "প": 1539,
      "ফ": 1540,
      "ব": 1541,
      "ভ": 1542,
      "ম": 1543,
      "য": 1544,
      "র": 1545,
      "ল": 1546,
      "শ": 1547,
      "ষ": 1548,
      "স": 1549,
      "হ": 1550,
      "া": 1551,
      "ি": 1552,
      "ী": 1553,
      "ু": 1554,
      "ূ": 1555,
      "ৃ": 1556,
      "ে": 1557,
      "ৈ": 1558,
      "ো": 1559,
      "্": 1560,
      "ড়": 1561,
      "য়": 1562,
      "১": 1563,
      "৩": 1564,
      "৬": 1565,
      "৭": 1566,
      "ৰ": 1567,
      "ਂ": 1568,
      "ਅ": 1569,
      "ਆ": 1570,
      "ਇ": 1571,
      "ਈ": 1572,
      "ਉ": 1573,
      "ਔ": 1574,
      "ਕ": 1575,
      "ਖ": 1576,
      "ਗ": 1577,
      "ਘ": 1578,
      "ਚ": 1579,
      "ਛ": 1580,
      "ਜ": 1581,
      "ਝ": 1582,
      "ਟ": 1583,
      "ਠ": 1584,
      "ਡ": 1585,
      "ਢ": 1586,
      "ਣ": 1587,
      "ਤ": 1588,
      "ਥ": 1589,
      "ਦ": 1590,
      "ਧ": 1591,
      "ਨ": 1592,
      "ਪ": 1593,
      "ਫ": 1594,
      "ਬ": 1595,
      "ਭ": 1596,
      "ਮ": 1597,
      "ਯ": 1598,
      "ਰ": 1599,
      "ਲ": 1600,
      "ਵ": 1601,
      "ਸ਼": 1602,
      "ਸ": 1603,
      "ਹ": 1604,
      "਼": 1605,
      "ਾ": 1606,
      "ਿ": 1607,
      "ੀ": 1608,
      "ੁ": 1609,
      "ੂ": 1610,
      "ੇ": 1611,
      "ੈ": 1612,
      "ੋ": 1613,
      "ੌ": 1614,
      "੍": 1615,
      "ਜ਼": 1616,
      "ੜ": 1617,
      "ੰ": 1618,
      "ੱ": 1619,
      "ં": 1620,
      "અ": 1621,
      "ઇ": 1622,
      "એ": 1623,
      "ઓ": 1624,
      "ક": 1625,
      "ગ": 1626,
      "ચ": 1627,
      "છ": 1628,
      "જ": 1629,
      "ઝ": 1630,
      "ત": 1631,
      "દ": 1632,
      "ન": 1633,
      "પ": 1634,
      "ફ": 1635,
      "બ": 1636,
      "મ": 1637,
      "ય": 1638,
      "ર": 1639,
      "લ": 1640,
      "વ": 1641,
      "શ": 1642,
      "સ": 1643,
      "હ": 1644,
      "ા": 1645,
      "િ": 1646,
      "ી": 1647,
      "ુ": 1648,
      "ે": 1649,
      "ો": 1650,
      "ૌ": 1651,
      "્": 1652,
      "ୋ": 1653,
      "அ": 1654,
      "எ": 1655,
      "க": 1656,
      "஗": 1657,
      "ங": 1658,
      "ச": 1659,
      "ட": 1660,
      "த": 1661,
      "ந": 1662,
      "ன": 1663,
      "ப": 1664,
      "ம": 1665,
      "ய": 1666,
      "ர": 1667,
      "ற": 1668,
      "ள": 1669,
      "ழ": 1670,
      "வ": 1671,
      "ஸ": 1672,
      "ா": 1673,
      "ி": 1674,
      "ீ": 1675,
      "ு": 1676,
      "ெ": 1677,
      "ை": 1678,
      "்": 1679,
      "ం": 1680,
      "ఓ": 1681,
      "గ": 1682,
      "ణ": 1683,
      "త": 1684,
      "ల": 1685,
      "఼": 1686,
      "ా": 1687,
      "ు": 1688,
      "ె": 1689,
      "ಕ": 1690,
      "ಗ": 1691,
      "ಡ": 1692,
      "ಣ": 1693,
      "ನ": 1694,
      "ಬ": 1695,
      "ರ": 1696,
      "ಳ": 1697,
      "ವ": 1698,
      "ಶ": 1699,
      "ೆ": 1700,
      "ೊ": 1701,
      "್": 1702,
      "ം": 1703,
      "അ": 1704,
      "ഇ": 1705,
      "ഉ": 1706,
      "എ": 1707,
      "ഏ": 1708,
      "ഐ": 1709,
      "ഒ": 1710,
      "ക": 1711,
      "ഖ": 1712,
      "ഗ": 1713,
      "ഘ": 1714,
      "ങ": 1715,
      "ച": 1716,
      "ജ": 1717,
      "ഞ": 1718,
      "ട": 1719,
      "ഡ": 1720,
      "ണ": 1721,
      "ത": 1722,
      "ഥ": 1723,
      "ദ": 1724,
      "ധ": 1725,
      "ന": 1726,
      "പ": 1727,
      "ഫ": 1728,
      "ബ": 1729,
      "ഭ": 1730,
      "മ": 1731,
      "യ": 1732,
      "ര": 1733,
      "റ": 1734,
      "ല": 1735,
      "ള": 1736,
      "ഴ": 1737,
      "വ": 1738,
      "ശ": 1739,
      "ഷ": 1740,
      "സ": 1741,
      "ഹ": 1742,
      "ാ": 1743,
      "ി": 1744,
      "ീ": 1745,
      "ു": 1746,
      "ൂ": 1747,
      "ൃ": 1748,
      "െ": 1749,
      "േ": 1750,
      "ൈ": 1751,
      "ൊ": 1752,
      "ോ": 1753,
      "്": 1754,
      "൒": 1755,
      "൓": 1756,
      "ൢ": 1757,
      "ൻ": 1758,
      "ർ": 1759,
      "ൽ": 1760,
      "ൾ": 1761,
      "ං": 1762,
      "ථ": 1763,
      "ල": 1764,
      "ස": 1765,
      "හ": 1766,
      "ි": 1767,
      "ෘ": 1768,
      "ก": 1769,
      "ข": 1770,
      "ค": 1771,
      "ง": 1772,
      "จ": 1773,
      "ฉ": 1774,
      "ช": 1775,
      "ซ": 1776,
      "ญ": 1777,
      "ฒ": 1778,
      "ณ": 1779,
      "ด": 1780,
      "ต": 1781,
      "ถ": 1782,
      "ท": 1783,
      "ธ": 1784,
      "น": 1785,
      "บ": 1786,
      "ป": 1787,
      "ผ": 1788,
      "พ": 1789,
      "ฟ": 1790,
      "ภ": 1791,
      "ม": 1792,
      "ย": 1793,
      "ร": 1794,
      "ล": 1795,
      "ว": 1796,
      "ศ": 1797,
      "ษ": 1798,
      "ส": 1799,
      "ห": 1800,
      "อ": 1801,
      "ฮ": 1802,
      "ะ": 1803,
      "ั": 1804,
      "า": 1805,
      "ำ": 1806,
      "ิ": 1807,
      "ี": 1808,
      "ึ": 1809,
      "ื": 1810,
      "ุ": 1811,
      "ู": 1812,
      "เ": 1813,
      "แ": 1814,
      "โ": 1815,
      "ใ": 1816,
      "ไ": 1817,
      "ๆ": 1818,
      "็": 1819,
      "่": 1820,
      "้": 1821,
      "๊": 1822,
      "์": 1823,
      "๛": 1824,
      "ພ": 1825,
      "ລ": 1826,
      "ວ": 1827,
      "ສ": 1828,
      "ຯ": 1829,
      "າ": 1830,
      "་": 1831,
      "།": 1832,
      "༺": 1833,
      "༻": 1834,
      "ཁ": 1835,
      "ག": 1836,
      "ང": 1837,
      "ཆ": 1838,
      "ཏ": 1839,
      "ད": 1840,
      "ན": 1841,
      "པ": 1842,
      "བ": 1843,
      "མ": 1844,
      "འ": 1845,
      "ར": 1846,
      "ལ": 1847,
      "ཤ": 1848,
      "ས": 1849,
      "ི": 1850,
      "ུ": 1851,
      "ེ": 1852,
      "ོ": 1853,
      "ཾ": 1854,
      "ྒ": 1855,
      "ྟ": 1856,
      "ྤ": 1857,
      "ྩ": 1858,
      "ྱ": 1859,
      "ྴ": 1860,
      "ྷ": 1861,
      "စ": 1862,
      "ဗ": 1863,
      "မ": 1864,
      "ာ": 1865,
      "႗": 1866,
      "ა": 1867,
      "ბ": 1868,
      "გ": 1869,
      "დ": 1870,
      "ე": 1871,
      "ვ": 1872,
      "ზ": 1873,
      "თ": 1874,
      "ი": 1875,
      "კ": 1876,
      "ლ": 1877,
      "მ": 1878,
      "ნ": 1879,
      "ო": 1880,
      "პ": 1881,
      "რ": 1882,
      "ს": 1883,
      "ტ": 1884,
      "უ": 1885,
      "ფ": 1886,
      "ქ": 1887,
      "ღ": 1888,
      "ყ": 1889,
      "შ": 1890,
      "ჩ": 1891,
      "ც": 1892,
      "ძ": 1893,
      "წ": 1894,
      "ჭ": 1895,
      "ხ": 1896,
      "ჯ": 1897,
      "ჰ": 1898,
      "ჹ": 1899,
      "ᄋ": 1900,
      "ᄶ": 1901,
      "ᇎ": 1902,
      "ᇟ": 1903,
      "ᇡ": 1904,
      "ማ": 1905,
      "ር": 1906,
      "ቢ": 1907,
      "ብ": 1908,
      "ቧ": 1909,
      "ኛ": 1910,
      "አ": 1911,
      "ዛ": 1912,
      "ዢ": 1913,
      "ጛ": 1914,
      "ᎆ": 1915,
      "᎟": 1916,
      "ᑀ": 1917,
      "ᖳ": 1918,
      "ᚔ": 1919,
      "᝚": 1920,
      "ᝢ": 1921,
      "ᝳ": 1922,
      "ក": 1923,
      "ខ": 1924,
      "គ": 1925,
      "ង": 1926,
      "ច": 1927,
      "ឆ": 1928,
      "ជ": 1929,
      "ឈ": 1930,
      "ញ": 1931,
      "ដ": 1932,
      "ណ": 1933,
      "ត": 1934,
      "ថ": 1935,
      "ទ": 1936,
      "ធ": 1937,
      "ន": 1938,
      "ប": 1939,
      "ផ": 1940,
      "ព": 1941,
      "ភ": 1942,
      "ម": 1943,
      "យ": 1944,
      "រ": 1945,
      "ល": 1946,
      "វ": 1947,
      "ស": 1948,
      "ហ": 1949,
      "ឡ": 1950,
      "អ": 1951,
      "ឬ": 1952,
      "ឯ": 1953,
      "ឲ": 1954,
      "ា": 1955,
      "ិ": 1956,
      "ី": 1957,
      "ឹ": 1958,
      "ុ": 1959,
      "ូ": 1960,
      "ួ": 1961,
      "ើ": 1962,
      "ៀ": 1963,
      "េ": 1964,
      "ែ": 1965,
      "ៃ": 1966,
      "ោ": 1967,
      "ៅ": 1968,
      "ំ": 1969,
      "ះ": 1970,
      "ៈ": 1971,
      "៉": 1972,
      "៊": 1973,
      "់": 1974,
      "៌": 1975,
      "៍": 1976,
      "៏": 1977,
      "័": 1978,
      "្": 1979,
      "។": 1980,
      "៕": 1981,
      "០": 1982,
      "១": 1983,
      "២": 1984,
      "៥": 1985,
      "៨": 1986,
      "ᠽ": 1987,
      "ᡬ": 1988,
      "ᡱ": 1989,
      "᡻": 1990,
      "᢬": 1991,
      "ᤀ": 1992,
      "ᤁ": 1993,
      "ᤃ": 1994,
      "ᤅ": 1995,
      "ᤆ": 1996,
      "ᤋ": 1997,
      "ᤍ": 1998,
      "ᤏ": 1999,
      "ᤐ": 2000,
      "ᤒ": 2001,
      "ᤓ": 2002,
      "ᤔ": 2003,
      "ᤕ": 2004,
      "ᤖ": 2005,
      "ᤗ": 2006,
      "ᤘ": 2007,
      "ᤛ": 2008,
      "ᤜ": 2009,
      "ᤠ": 2010,
      "ᤡ": 2011,
      "ᤢ": 2012,
      "ᤣ": 2013,
      "ᤤ": 2014,
      "ᤥ": 2015,
      "ᤧ": 2016,
      "ᤩ": 2017,
      "ᤪ": 2018,
      "ᤰ": 2019,
      "ᤱ": 2020,
      "ᤴ": 2021,
      "ᤵ": 2022,
      "ᤶ": 2023,
      "ᤷ": 2024,
      "᤻": 2025,
      "ᨵ": 2026,
      "᪰": 2027,
      "᫞": 2028,
      "᭴": 2029,
      "᮱": 2030,
      "ᱱ": 2031,
      "ᵤ": 2032,
      "ᵻ": 2033,
      "ᶣ": 2034,
      "ᷠ": 2035,
      "᷺": 2036,
      "ḍ": 2037,
      "ḿ": 2038,
      "ṃ": 2039,
      "ṅ": 2040,
      "ṇ": 2041,
      "ṏ": 2042,
      "ṛ": 2043,
      "ṣ": 2044,
      "ṭ": 2045,
      "ṵ": 2046,
      "ạ": 2047,
      "ả": 2048,
      "ấ": 2049,
      "ầ": 2050,
      "ẩ": 2051,
      "ẫ": 2052,
      "ậ": 2053,
      "ắ": 2054,
      "ằ": 2055,
      "ẵ": 2056,
      "ặ": 2057,
      "ẹ": 2058,
      "ẻ": 2059,
      "ẽ": 2060,
      "ế": 2061,
      "ề": 2062,
      "ể": 2063,
      "ệ": 2064,
      "ỉ": 2065,
      "ị": 2066,
      "ọ": 2067,
      "ỏ": 2068,
      "ố": 2069,
      "ồ": 2070,
      "ổ": 2071,
      "ỗ": 2072,
      "ộ": 2073,
      "ớ": 2074,
      "ờ": 2075,
      "ở": 2076,
      "ỡ": 2077,
      "ợ": 2078,
      "ụ": 2079,
      "ủ": 2080,
      "ứ": 2081,
      "ừ": 2082,
      "ử": 2083,
      "ữ": 2084,
      "ự": 2085,
      "ỳ": 2086,
      "ỷ": 2087,
      "ỹ": 2088,
      "ἀ": 2089,
      "ἆ": 2090,
      "὆": 2091,
      "῟": 2092,
      "‐": 2093,
      "‑": 2094,
      "‒": 2095,
      "–": 2096,
      "—": 2097,
      "―": 2098,
      "‘": 2099,
      "’": 2100,
      "‚": 2101,
      "‛": 2102,
      "“": 2103,
      "”": 2104,
      "„": 2105,
      "†": 2106,
      "‡": 2107,
      "•": 2108,
      "‣": 2109,
      "…": 2110,
      "‰": 2111,
      "′": 2112,
      "″": 2113,
      "‸": 2114,
      "‹": 2115,
      "›": 2116,
      "※": 2117,
      "⁄": 2118,
      "₋": 2119,
      "ₒ": 2120,
      "€": 2121,
      "₹": 2122,
      "⃣": 2123,
      "℃": 2124,
      "ℑ": 2125,
      "№": 2126,
      "™": 2127,
      "ℷ": 2128,
      "←": 2129,
      "↑": 2130,
      "→": 2131,
      "↓": 2132,
      "↩": 2133,
      "↹": 2134,
      "⇄": 2135,
      "⇐": 2136,
      "⇒": 2137,
      "⇨": 2138,
      "∀": 2139,
      "∆": 2140,
      "∇": 2141,
      "∏": 2142,
      "−": 2143,
      "∕": 2144,
      "∘": 2145,
      "∙": 2146,
      "√": 2147,
      "∛": 2148,
      "∞": 2149,
      "≈": 2150,
      "≠": 2151,
      "≡": 2152,
      "≢": 2153,
      "≤": 2154,
      "≧": 2155,
      "⊗": 2156,
      "⋅": 2157,
      "⋆": 2158,
      "⋲": 2159,
      "⋳": 2160,
      "⎼": 2161,
      "④": 2162,
      "⑸": 2163,
      "⑻": 2164,
      "⒖": 2165,
      "⓵": 2166,
      "─": 2167,
      "│": 2168,
      "┌": 2169,
      "┍": 2170,
      "╘": 2171,
      "╟": 2172,
      "╨": 2173,
      "╪": 2174,
      "▀": 2175,
      "■": 2176,
      "□": 2177,
      "▪": 2178,
      "▲": 2179,
      "▶": 2180,
      "▷": 2181,
      "►": 2182,
      "▼": 2183,
      "◀": 2184,
      "◄": 2185,
      "◆": 2186,
      "◊": 2187,
      "◌": 2188,
      "◎": 2189,
      "●": 2190,
      "☀": 2191,
      "★": 2192,
      "☆": 2193,
      "☎": 2194,
      "☑": 2195,
      "☔": 2196,
      "☺": 2197,
      "☻": 2198,
      "♂": 2199,
      "♔": 2200,
      "♠": 2201,
      "♡": 2202,
      "♢": 2203,
      "♣": 2204,
      "♥": 2205,
      "♦": 2206,
      "♪": 2207,
      "♫": 2208,
      "♯": 2209,
      "⚠": 2210,
      "⚽": 2211,
      "⛭": 2212,
      "⛹": 2213,
      "✅": 2214,
      "✉": 2215,
      "✊": 2216,
      "✋": 2217,
      "✌": 2218,
      "✍": 2219,
      "✏": 2220,
      "✓": 2221,
      "✔": 2222,
      "✖": 2223,
      "✨": 2224,
      "✴": 2225,
      "❆": 2226,
      "❣": 2227,
      "❤": 2228,
      "❶": 2229,
      "❷": 2230,
      "❸": 2231,
      "❹": 2232,
      "❺": 2233,
      "➡": 2234,
      "➥": 2235,
      "➧": 2236,
      "⟲": 2237,
      "⟳": 2238,
      "⤡": 2239,
      "⦁": 2240,
      "⦮": 2241,
      "⧟": 2242,
      "⨯": 2243,
      "⨿": 2244,
      "⩌": 2245,
      "⫎": 2246,
      "⫴": 2247,
      "⬇": 2248,
      "⭕": 2249,
      "⮅": 2250,
      "ⱦ": 2251,
      "ⲁ": 2252,
      "ⲏ": 2253,
      "ⲓ": 2254,
      "ⲕ": 2255,
      "ⲣ": 2256,
      "ⲫ": 2257,
      "ⳁ": 2258,
      "ⴚ": 2259,
      "ⶬ": 2260,
      "ⷂ": 2261,
      "ⷙ": 2262,
      "ⷲ": 2263,
      "⺈": 2264,
      "、": 2265,
      "。": 2266,
      "々": 2267,
      "《": 2268,
      "》": 2269,
      "「": 2270,
      "」": 2271,
      "『": 2272,
      "』": 2273,
      "【": 2274,
      "】": 2275,
      "〜": 2276,
      "〝": 2277,
      "〟": 2278,
      "぀": 2279,
      "ぁ": 2280,
      "あ": 2281,
      "ぃ": 2282,
      "い": 2283,
      "う": 2284,
      "え": 2285,
      "お": 2286,
      "か": 2287,
      "が": 2288,
      "き": 2289,
      "ぎ": 2290,
      "く": 2291,
      "ぐ": 2292,
      "け": 2293,
      "げ": 2294,
      "こ": 2295,
      "ご": 2296,
      "さ": 2297,
      "ざ": 2298,
      "し": 2299,
      "じ": 2300,
      "す": 2301,
      "ず": 2302,
      "せ": 2303,
      "ぜ": 2304,
      "そ": 2305,
      "ぞ": 2306,
      "た": 2307,
      "だ": 2308,
      "ち": 2309,
      "っ": 2310,
      "つ": 2311,
      "づ": 2312,
      "て": 2313,
      "で": 2314,
      "と": 2315,
      "ど": 2316,
      "な": 2317,
      "に": 2318,
      "ぬ": 2319,
      "ね": 2320,
      "の": 2321,
      "は": 2322,
      "ば": 2323,
      "ぱ": 2324,
      "ひ": 2325,
      "び": 2326,
      "ぴ": 2327,
      "ふ": 2328,
      "ぶ": 2329,
      "へ": 2330,
      "べ": 2331,
      "ほ": 2332,
      "ぼ": 2333,
      "ま": 2334,
      "み": 2335,
      "む": 2336,
      "め": 2337,
      "も": 2338,
      "ゃ": 2339,
      "や": 2340,
      "ゅ": 2341,
      "ゆ": 2342,
      "ょ": 2343,
      "よ": 2344,
      "ら": 2345,
      "り": 2346,
      "る": 2347,
      "れ": 2348,
      "ろ": 2349,
      "わ": 2350,
      "を": 2351,
      "ん": 2352,
      "ァ": 2353,
      "ア": 2354,
      "ィ": 2355,
      "イ": 2356,
      "ウ": 2357,
      "ェ": 2358,
      "エ": 2359,
      "ォ": 2360,
      "オ": 2361,
      "カ": 2362,
      "ガ": 2363,
      "キ": 2364,
      "ギ": 2365,
      "ク": 2366,
      "グ": 2367,
      "ケ": 2368,
      "ゲ": 2369,
      "コ": 2370,
      "ゴ": 2371,
      "サ": 2372,
      "ザ": 2373,
      "シ": 2374,
      "ジ": 2375,
      "ス": 2376,
      "ズ": 2377,
      "セ": 2378,
      "ゼ": 2379,
      "ソ": 2380,
      "タ": 2381,
      "ダ": 2382,
      "チ": 2383,
      "ッ": 2384,
      "ツ": 2385,
      "テ": 2386,
      "デ": 2387,
      "ト": 2388,
      "ド": 2389,
      "ナ": 2390,
      "ニ": 2391,
      "ネ": 2392,
      "ノ": 2393,
      "ハ": 2394,
      "バ": 2395,
      "パ": 2396,
      "ヒ": 2397,
      "ビ": 2398,
      "ピ": 2399,
      "フ": 2400,
      "ブ": 2401,
      "プ": 2402,
      "ヘ": 2403,
      "ベ": 2404,
      "ペ": 2405,
      "ホ": 2406,
      "ボ": 2407,
      "ポ": 2408,
      "マ": 2409,
      "ミ": 2410,
      "ム": 2411,
      "メ": 2412,
      "モ": 2413,
      "ャ": 2414,
      "ヤ": 2415,
      "ュ": 2416,
      "ユ": 2417,
      "ョ": 2418,
      "ヨ": 2419,
      "ラ": 2420,
      "リ": 2421,
      "ル": 2422,
      "レ": 2423,
      "ロ": 2424,
      "ワ": 2425,
      "ン": 2426,
      "ヴ": 2427,
      "ヶ": 2428,
      "・": 2429,
      "ー": 2430,
      "ヾ": 2431,
      "ㄚ": 2432,
      "ㄩ": 2433,
      "ㅎ": 2434,
      "㉠": 2435,
      "㍅": 2436,
      "㍕": 2437,
      "㍺": 2438,
      "㎡": 2439,
      "㖒": 2440,
      "㗣": 2441,
      "㗦": 2442,
      "㛌": 2443,
      "㝔": 2444,
      "㝞": 2445,
      "㠷": 2446,
      "㡑": 2447,
      "㢘": 2448,
      "㢙": 2449,
      "㣁": 2450,
      "㣙": 2451,
      "㤱": 2452,
      "㥏": 2453,
      "㧌": 2454,
      "㩪": 2455,
      "㰝": 2456,
      "㰶": 2457,
      "㻖": 2458,
      "㽳": 2459,
      "㽾": 2460,
      "䁛": 2461,
      "䈻": 2462,
      "䉉": 2463,
      "䊚": 2464,
      "䋉": 2465,
      "䍻": 2466,
      "䒛": 2467,
      "䒵": 2468,
      "䓭": 2469,
      "䖥": 2470,
      "䗚": 2471,
      "䗬": 2472,
      "䙑": 2473,
      "䙥": 2474,
      "䚩": 2475,
      "䠭": 2476,
      "䡛": 2477,
      "䢕": 2478,
      "䢩": 2479,
      "䣒": 2480,
      "䣰": 2481,
      "䣷": 2482,
      "䧂": 2483,
      "䪩": 2484,
      "䫿": 2485,
      "䭯": 2486,
      "䯻": 2487,
      "䰟": 2488,
      "䳧": 2489,
      "䶅": 2490,
      "䶾": 2491,
      "一": 2492,
      "丁": 2493,
      "七": 2494,
      "万": 2495,
      "丈": 2496,
      "三": 2497,
      "上": 2498,
      "下": 2499,
      "不": 2500,
      "与": 2501,
      "专": 2502,
      "且": 2503,
      "世": 2504,
      "业": 2505,
      "东": 2506,
      "丝": 2507,
      "丟": 2508,
      "両": 2509,
      "两": 2510,
      "严": 2511,
      "並": 2512,
      "个": 2513,
      "中": 2514,
      "丰": 2515,
      "临": 2516,
      "丵": 2517,
      "丸": 2518,
      "丹": 2519,
      "为": 2520,
      "主": 2521,
      "丽": 2522,
      "举": 2523,
      "久": 2524,
      "么": 2525,
      "义": 2526,
      "之": 2527,
      "乎": 2528,
      "乐": 2529,
      "乔": 2530,
      "乗": 2531,
      "九": 2532,
      "也": 2533,
      "习": 2534,
      "乡": 2535,
      "书": 2536,
      "买": 2537,
      "乳": 2538,
      "乾": 2539,
      "了": 2540,
      "予": 2541,
      "争": 2542,
      "事": 2543,
      "二": 2544,
      "于": 2545,
      "云": 2546,
      "互": 2547,
      "五": 2548,
      "井": 2549,
      "亚": 2550,
      "些": 2551,
      "亡": 2552,
      "交": 2553,
      "产": 2554,
      "享": 2555,
      "京": 2556,
      "亮": 2557,
      "亲": 2558,
      "人": 2559,
      "亿": 2560,
      "什": 2561,
      "仁": 2562,
      "仅": 2563,
      "今": 2564,
      "介": 2565,
      "仍": 2566,
      "从": 2567,
      "仏": 2568,
      "仓": 2569,
      "仔": 2570,
      "仕": 2571,
      "他": 2572,
      "付": 2573,
      "仙": 2574,
      "代": 2575,
      "令": 2576,
      "以": 2577,
      "仪": 2578,
      "们": 2579,
      "仰": 2580,
      "件": 2581,
      "价": 2582,
      "任": 2583,
      "份": 2584,
      "仿": 2585,
      "企": 2586,
      "伏": 2587,
      "伐": 2588,
      "休": 2589,
      "众": 2590,
      "伙": 2591,
      "会": 2592,
      "伝": 2593,
      "传": 2594,
      "伤": 2595,
      "伪": 2596,
      "伯": 2597,
      "伴": 2598,
      "伸": 2599,
      "伺": 2600,
      "似": 2601,
      "佀": 2602,
      "但": 2603,
      "位": 2604,
      "低": 2605,
      "住": 2606,
      "佐": 2607,
      "体": 2608,
      "何": 2609,
      "余": 2610,
      "佛": 2611,
      "作": 2612,
      "你": 2613,
      "佥": 2614,
      "使": 2615,
      "侃": 2616,
      "來": 2617,
      "例": 2618,
      "供": 2619,
      "依": 2620,
      "価": 2621,
      "侧": 2622,
      "侯": 2623,
      "侵": 2624,
      "便": 2625,
      "係": 2626,
      "促": 2627,
      "俊": 2628,
      "俗": 2629,
      "保": 2630,
      "信": 2631,
      "修": 2632,
      "俯": 2633,
      "倉": 2634,
      "個": 2635,
      "倍": 2636,
      "們": 2637,
      "倒": 2638,
      "候": 2639,
      "借": 2640,
      "値": 2641,
      "债": 2642,
      "值": 2643,
      "倾": 2644,
      "假": 2645,
      "偏": 2646,
      "做": 2647,
      "停": 2648,
      "健": 2649,
      "側": 2650,
      "偶": 2651,
      "偷": 2652,
      "備": 2653,
      "傜": 2654,
      "储": 2655,
      "催": 2656,
      "傲": 2657,
      "傳": 2658,
      "僅": 2659,
      "働": 2660,
      "像": 2661,
      "儀": 2662,
      "億": 2663,
      "優": 2664,
      "儯": 2665,
      "儲": 2666,
      "儿": 2667,
      "允": 2668,
      "元": 2669,
      "兄": 2670,
      "充": 2671,
      "先": 2672,
      "光": 2673,
      "克": 2674,
      "免": 2675,
      "児": 2676,
      "兔": 2677,
      "兜": 2678,
      "入": 2679,
      "內": 2680,
      "全": 2681,
      "兩": 2682,
      "八": 2683,
      "公": 2684,
      "六": 2685,
      "兰": 2686,
      "共": 2687,
      "关": 2688,
      "兴": 2689,
      "兵": 2690,
      "其": 2691,
      "具": 2692,
      "典": 2693,
      "养": 2694,
      "内": 2695,
      "円": 2696,
      "冊": 2697,
      "册": 2698,
      "再": 2699,
      "冕": 2700,
      "写": 2701,
      "军": 2702,
      "农": 2703,
      "冠": 2704,
      "冤": 2705,
      "冥": 2706,
      "冬": 2707,
      "冲": 2708,
      "决": 2709,
      "况": 2710,
      "冶": 2711,
      "冷": 2712,
      "净": 2713,
      "凄": 2714,
      "准": 2715,
      "凋": 2716,
      "减": 2717,
      "凝": 2718,
      "几": 2719,
      "凡": 2720,
      "処": 2721,
      "凭": 2722,
      "凹": 2723,
      "出": 2724,
      "击": 2725,
      "函": 2726,
      "刂": 2727,
      "分": 2728,
      "切": 2729,
      "刊": 2730,
      "划": 2731,
      "列": 2732,
      "刘": 2733,
      "则": 2734,
      "刚": 2735,
      "创": 2736,
      "初": 2737,
      "删": 2738,
      "判": 2739,
      "別": 2740,
      "利": 2741,
      "别": 2742,
      "刮": 2743,
      "到": 2744,
      "制": 2745,
      "刷": 2746,
      "刻": 2747,
      "剂": 2748,
      "則": 2749,
      "削": 2750,
      "前": 2751,
      "剧": 2752,
      "剩": 2753,
      "副": 2754,
      "剰": 2755,
      "割": 2756,
      "創": 2757,
      "劇": 2758,
      "劉": 2759,
      "劑": 2760,
      "劒": 2761,
      "力": 2762,
      "劝": 2763,
      "办": 2764,
      "功": 2765,
      "加": 2766,
      "务": 2767,
      "动": 2768,
      "助": 2769,
      "努": 2770,
      "劲": 2771,
      "労": 2772,
      "効": 2773,
      "势": 2774,
      "勇": 2775,
      "勉": 2776,
      "勋": 2777,
      "勒": 2778,
      "動": 2779,
      "務": 2780,
      "募": 2781,
      "勤": 2782,
      "勲": 2783,
      "勺": 2784,
      "勾": 2785,
      "勿": 2786,
      "包": 2787,
      "化": 2788,
      "北": 2789,
      "匙": 2790,
      "区": 2791,
      "医": 2792,
      "區": 2793,
      "十": 2794,
      "千": 2795,
      "升": 2796,
      "午": 2797,
      "卉": 2798,
      "半": 2799,
      "华": 2800,
      "协": 2801,
      "卓": 2802,
      "協": 2803,
      "单": 2804,
      "卖": 2805,
      "南": 2806,
      "単": 2807,
      "博": 2808,
      "卜": 2809,
      "占": 2810,
      "卡": 2811,
      "卫": 2812,
      "印": 2813,
      "危": 2814,
      "即": 2815,
      "却": 2816,
      "卵": 2817,
      "厂": 2818,
      "历": 2819,
      "压": 2820,
      "厘": 2821,
      "厚": 2822,
      "原": 2823,
      "厥": 2824,
      "厨": 2825,
      "厳": 2826,
      "去": 2827,
      "参": 2828,
      "又": 2829,
      "及": 2830,
      "友": 2831,
      "双": 2832,
      "反": 2833,
      "収": 2834,
      "发": 2835,
      "取": 2836,
      "受": 2837,
      "变": 2838,
      "口": 2839,
      "古": 2840,
      "句": 2841,
      "另": 2842,
      "只": 2843,
      "叫": 2844,
      "可": 2845,
      "台": 2846,
      "史": 2847,
      "右": 2848,
      "叶": 2849,
      "号": 2850,
      "司": 2851,
      "吃": 2852,
      "各": 2853,
      "合": 2854,
      "吉": 2855,
      "同": 2856,
      "名": 2857,
      "后": 2858,
      "向": 2859,
      "吗": 2860,
      "君": 2861,
      "吞": 2862,
      "否": 2863,
      "吧": 2864,
      "含": 2865,
      "听": 2866,
      "启": 2867,
      "吴": 2868,
      "吸": 2869,
      "吹": 2870,
      "吾": 2871,
      "呀": 2872,
      "呆": 2873,
      "呈": 2874,
      "告": 2875,
      "呎": 2876,
      "员": 2877,
      "呢": 2878,
      "周": 2879,
      "味": 2880,
      "呵": 2881,
      "呼": 2882,
      "命": 2883,
      "和": 2884,
      "咨": 2885,
      "咬": 2886,
      "咽": 2887,
      "品": 2888,
      "哈": 2889,
      "响": 2890,
      "哔": 2891,
      "員": 2892,
      "哩": 2893,
      "哪": 2894,
      "哲": 2895,
      "哺": 2896,
      "哽": 2897,
      "唆": 2898,
      "唐": 2899,
      "唔": 2900,
      "唯": 2901,
      "唱": 2902,
      "唷": 2903,
      "商": 2904,
      "啊": 2905,
      "問": 2906,
      "啦": 2907,
      "啪": 2908,
      "喂": 2909,
      "善": 2910,
      "喍": 2911,
      "喜": 2912,
      "喪": 2913,
      "営": 2914,
      "喺": 2915,
      "嗤": 2916,
      "嗯": 2917,
      "嗷": 2918,
      "嘉": 2919,
      "嘞": 2920,
      "嘴": 2921,
      "器": 2922,
      "噼": 2923,
      "四": 2924,
      "回": 2925,
      "因": 2926,
      "团": 2927,
      "园": 2928,
      "困": 2929,
      "囲": 2930,
      "図": 2931,
      "围": 2932,
      "固": 2933,
      "国": 2934,
      "图": 2935,
      "圄": 2936,
      "圆": 2937,
      "圈": 2938,
      "國": 2939,
      "圍": 2940,
      "園": 2941,
      "團": 2942,
      "土": 2943,
      "圣": 2944,
      "在": 2945,
      "地": 2946,
      "圳": 2947,
      "场": 2948,
      "圼": 2949,
      "址": 2950,
      "坂": 2951,
      "均": 2952,
      "坈": 2953,
      "坊": 2954,
      "块": 2955,
      "坚": 2956,
      "坛": 2957,
      "坡": 2958,
      "坪": 2959,
      "垂": 2960,
      "型": 2961,
      "垲": 2962,
      "垻": 2963,
      "城": 2964,
      "域": 2965,
      "培": 2966,
      "基": 2967,
      "埼": 2968,
      "堀": 2969,
      "堂": 2970,
      "堪": 2971,
      "堯": 2972,
      "報": 2973,
      "場": 2974,
      "堵": 2975,
      "堹": 2976,
      "堻": 2977,
      "塑": 2978,
      "塔": 2979,
      "塞": 2980,
      "填": 2981,
      "塾": 2982,
      "境": 2983,
      "墅": 2984,
      "墓": 2985,
      "増": 2986,
      "墜": 2987,
      "增": 2988,
      "墠": 2989,
      "壁": 2990,
      "壇": 2991,
      "壊": 2992,
      "壤": 2993,
      "士": 2994,
      "壮": 2995,
      "声": 2996,
      "売": 2997,
      "壶": 2998,
      "处": 2999,
      "备": 3000,
      "変": 3001,
      "复": 3002,
      "夏": 3003,
      "夕": 3004,
      "外": 3005,
      "多": 3006,
      "夜": 3007,
      "够": 3008,
      "夠": 3009,
      "大": 3010,
      "天": 3011,
      "太": 3012,
      "夫": 3013,
      "央": 3014,
      "失": 3015,
      "头": 3016,
      "夺": 3017,
      "奇": 3018,
      "奈": 3019,
      "奉": 3020,
      "奋": 3021,
      "契": 3022,
      "奖": 3023,
      "套": 3024,
      "奣": 3025,
      "奧": 3026,
      "女": 3027,
      "奴": 3028,
      "奶": 3029,
      "她": 3030,
      "好": 3031,
      "如": 3032,
      "妄": 3033,
      "妆": 3034,
      "妈": 3035,
      "妊": 3036,
      "妙": 3037,
      "妨": 3038,
      "妹": 3039,
      "妻": 3040,
      "姆": 3041,
      "姉": 3042,
      "始": 3043,
      "姐": 3044,
      "委": 3045,
      "姜": 3046,
      "威": 3047,
      "娘": 3048,
      "娜": 3049,
      "娩": 3050,
      "娱": 3051,
      "娴": 3052,
      "婚": 3053,
      "婦": 3054,
      "婲": 3055,
      "婷": 3056,
      "媒": 3057,
      "媛": 3058,
      "媲": 3059,
      "嫌": 3060,
      "嫎": 3061,
      "嫓": 3062,
      "嫲": 3063,
      "嬉": 3064,
      "孊": 3065,
      "子": 3066,
      "孔": 3067,
      "孕": 3068,
      "字": 3069,
      "存": 3070,
      "孙": 3071,
      "孝": 3072,
      "孞": 3073,
      "孟": 3074,
      "季": 3075,
      "孤": 3076,
      "学": 3077,
      "孫": 3078,
      "宁": 3079,
      "它": 3080,
      "宅": 3081,
      "宇": 3082,
      "守": 3083,
      "安": 3084,
      "宋": 3085,
      "完": 3086,
      "宏": 3087,
      "宗": 3088,
      "官": 3089,
      "宙": 3090,
      "定": 3091,
      "宝": 3092,
      "实": 3093,
      "実": 3094,
      "宠": 3095,
      "审": 3096,
      "客": 3097,
      "宣": 3098,
      "室": 3099,
      "宪": 3100,
      "宫": 3101,
      "宮": 3102,
      "宰": 3103,
      "害": 3104,
      "宵": 3105,
      "家": 3106,
      "容": 3107,
      "宿": 3108,
      "寂": 3109,
      "寄": 3110,
      "寅": 3111,
      "密": 3112,
      "富": 3113,
      "寝": 3114,
      "察": 3115,
      "實": 3116,
      "寧": 3117,
      "審": 3118,
      "对": 3119,
      "寺": 3120,
      "导": 3121,
      "対": 3122,
      "寿": 3123,
      "専": 3124,
      "射": 3125,
      "将": 3126,
      "專": 3127,
      "尊": 3128,
      "尋": 3129,
      "對": 3130,
      "導": 3131,
      "小": 3132,
      "少": 3133,
      "尔": 3134,
      "尖": 3135,
      "尚": 3136,
      "尤": 3137,
      "尬": 3138,
      "尭": 3139,
      "就": 3140,
      "尴": 3141,
      "尸": 3142,
      "尺": 3143,
      "尼": 3144,
      "尽": 3145,
      "尿": 3146,
      "局": 3147,
      "层": 3148,
      "居": 3149,
      "屈": 3150,
      "届": 3151,
      "屋": 3152,
      "展": 3153,
      "属": 3154,
      "履": 3155,
      "山": 3156,
      "屽": 3157,
      "岁": 3158,
      "岐": 3159,
      "岗": 3160,
      "岛": 3161,
      "岡": 3162,
      "岩": 3163,
      "岳": 3164,
      "岸": 3165,
      "峰": 3166,
      "島": 3167,
      "峻": 3168,
      "崎": 3169,
      "崦": 3170,
      "崽": 3171,
      "嵕": 3172,
      "嵪": 3173,
      "嶗": 3174,
      "嶽": 3175,
      "巅": 3176,
      "巌": 3177,
      "川": 3178,
      "州": 3179,
      "巡": 3180,
      "工": 3181,
      "左": 3182,
      "巧": 3183,
      "巨": 3184,
      "差": 3185,
      "己": 3186,
      "已": 3187,
      "巴": 3188,
      "巻": 3189,
      "币": 3190,
      "市": 3191,
      "布": 3192,
      "师": 3193,
      "希": 3194,
      "帐": 3195,
      "帕": 3196,
      "帝": 3197,
      "带": 3198,
      "師": 3199,
      "席": 3200,
      "帮": 3201,
      "帰": 3202,
      "帶": 3203,
      "常": 3204,
      "帽": 3205,
      "幅": 3206,
      "幊": 3207,
      "幕": 3208,
      "幡": 3209,
      "干": 3210,
      "平": 3211,
      "年": 3212,
      "并": 3213,
      "幸": 3214,
      "幹": 3215,
      "幼": 3216,
      "幽": 3217,
      "广": 3218,
      "庁": 3219,
      "広": 3220,
      "庄": 3221,
      "庆": 3222,
      "庉": 3223,
      "床": 3224,
      "序": 3225,
      "应": 3226,
      "底": 3227,
      "庖": 3228,
      "店": 3229,
      "府": 3230,
      "废": 3231,
      "度": 3232,
      "座": 3233,
      "庫": 3234,
      "庭": 3235,
      "康": 3236,
      "廃": 3237,
      "廉": 3238,
      "廊": 3239,
      "廣": 3240,
      "廳": 3241,
      "延": 3242,
      "建": 3243,
      "开": 3244,
      "弁": 3245,
      "异": 3246,
      "弃": 3247,
      "弄": 3248,
      "式": 3249,
      "引": 3250,
      "弛": 3251,
      "弟": 3252,
      "张": 3253,
      "弥": 3254,
      "弱": 3255,
      "張": 3256,
      "強": 3257,
      "弹": 3258,
      "强": 3259,
      "弾": 3260,
      "归": 3261,
      "当": 3262,
      "录": 3263,
      "形": 3264,
      "彦": 3265,
      "彩": 3266,
      "彫": 3267,
      "彰": 3268,
      "影": 3269,
      "役": 3270,
      "彻": 3271,
      "彼": 3272,
      "往": 3273,
      "征": 3274,
      "待": 3275,
      "很": 3276,
      "律": 3277,
      "後": 3278,
      "従": 3279,
      "得": 3280,
      "御": 3281,
      "復": 3282,
      "微": 3283,
      "徳": 3284,
      "德": 3285,
      "徽": 3286,
      "心": 3287,
      "必": 3288,
      "忌": 3289,
      "志": 3290,
      "忙": 3291,
      "応": 3292,
      "忠": 3293,
      "忧": 3294,
      "快": 3295,
      "念": 3296,
      "忽": 3297,
      "怀": 3298,
      "态": 3299,
      "怎": 3300,
      "怕": 3301,
      "怖": 3302,
      "思": 3303,
      "急": 3304,
      "性": 3305,
      "怪": 3306,
      "总": 3307,
      "恋": 3308,
      "恐": 3309,
      "恒": 3310,
      "恥": 3311,
      "恨": 3312,
      "恩": 3313,
      "息": 3314,
      "恶": 3315,
      "悉": 3316,
      "悔": 3317,
      "悚": 3318,
      "悟": 3319,
      "患": 3320,
      "您": 3321,
      "悩": 3322,
      "悪": 3323,
      "悲": 3324,
      "悷": 3325,
      "情": 3326,
      "惊": 3327,
      "惑": 3328,
      "惚": 3329,
      "惠": 3330,
      "惧": 3331,
      "惯": 3332,
      "想": 3333,
      "惹": 3334,
      "愁": 3335,
      "意": 3336,
      "愕": 3337,
      "愛": 3338,
      "感": 3339,
      "愿": 3340,
      "態": 3341,
      "慢": 3342,
      "慧": 3343,
      "慮": 3344,
      "憑": 3345,
      "憨": 3346,
      "懂": 3347,
      "應": 3348,
      "懲": 3349,
      "懸": 3350,
      "戏": 3351,
      "成": 3352,
      "我": 3353,
      "戒": 3354,
      "或": 3355,
      "战": 3356,
      "戦": 3357,
      "截": 3358,
      "戯": 3359,
      "戴": 3360,
      "戶": 3361,
      "户": 3362,
      "戸": 3363,
      "戻": 3364,
      "房": 3365,
      "所": 3366,
      "手": 3367,
      "才": 3368,
      "扑": 3369,
      "扒": 3370,
      "打": 3371,
      "払": 3372,
      "托": 3373,
      "扣": 3374,
      "执": 3375,
      "扩": 3376,
      "扬": 3377,
      "扮": 3378,
      "扰": 3379,
      "扱": 3380,
      "扶": 3381,
      "批": 3382,
      "找": 3383,
      "承": 3384,
      "技": 3385,
      "把": 3386,
      "抑": 3387,
      "投": 3388,
      "抗": 3389,
      "折": 3390,
      "抛": 3391,
      "抜": 3392,
      "択": 3393,
      "抠": 3394,
      "抢": 3395,
      "护": 3396,
      "报": 3397,
      "抬": 3398,
      "抱": 3399,
      "抵": 3400,
      "押": 3401,
      "抽": 3402,
      "担": 3403,
      "拆": 3404,
      "拉": 3405,
      "拍": 3406,
      "拔": 3407,
      "拘": 3408,
      "招": 3409,
      "拜": 3410,
      "拝": 3411,
      "拟": 3412,
      "拠": 3413,
      "拡": 3414,
      "拥": 3415,
      "括": 3416,
      "拱": 3417,
      "拳": 3418,
      "拶": 3419,
      "拼": 3420,
      "拾": 3421,
      "拿": 3422,
      "挀": 3423,
      "持": 3424,
      "指": 3425,
      "按": 3426,
      "挑": 3427,
      "挙": 3428,
      "挝": 3429,
      "挨": 3430,
      "挩": 3431,
      "挪": 3432,
      "振": 3433,
      "挺": 3434,
      "捂": 3435,
      "捊": 3436,
      "捏": 3437,
      "捐": 3438,
      "捕": 3439,
      "捞": 3440,
      "换": 3441,
      "捧": 3442,
      "据": 3443,
      "捷": 3444,
      "授": 3445,
      "掉": 3446,
      "掌": 3447,
      "掏": 3448,
      "排": 3449,
      "採": 3450,
      "探": 3451,
      "接": 3452,
      "控": 3453,
      "推": 3454,
      "措": 3455,
      "揎": 3456,
      "描": 3457,
      "提": 3458,
      "插": 3459,
      "握": 3460,
      "揭": 3461,
      "援": 3462,
      "搏": 3463,
      "搜": 3464,
      "搭": 3465,
      "携": 3466,
      "摄": 3467,
      "摆": 3468,
      "摇": 3469,
      "摊": 3470,
      "摔": 3471,
      "摘": 3472,
      "摩": 3473,
      "摸": 3474,
      "撂": 3475,
      "撑": 3476,
      "撕": 3477,
      "播": 3478,
      "撮": 3479,
      "撰": 3480,
      "擅": 3481,
      "擇": 3482,
      "操": 3483,
      "擔": 3484,
      "據": 3485,
      "擴": 3486,
      "攝": 3487,
      "攫": 3488,
      "支": 3489,
      "收": 3490,
      "改": 3491,
      "攻": 3492,
      "放": 3493,
      "政": 3494,
      "故": 3495,
      "效": 3496,
      "敌": 3497,
      "敏": 3498,
      "救": 3499,
      "教": 3500,
      "敢": 3501,
      "散": 3502,
      "敦": 3503,
      "数": 3504,
      "敲": 3505,
      "整": 3506,
      "敵": 3507,
      "敷": 3508,
      "數": 3509,
      "文": 3510,
      "斎": 3511,
      "斑": 3512,
      "斓": 3513,
      "斗": 3514,
      "料": 3515,
      "斜": 3516,
      "断": 3517,
      "斯": 3518,
      "新": 3519,
      "方": 3520,
      "於": 3521,
      "施": 3522,
      "旅": 3523,
      "旋": 3524,
      "族": 3525,
      "无": 3526,
      "既": 3527,
      "日": 3528,
      "早": 3529,
      "旭": 3530,
      "旱": 3531,
      "时": 3532,
      "旺": 3533,
      "昂": 3534,
      "昊": 3535,
      "昌": 3536,
      "明": 3537,
      "易": 3538,
      "星": 3539,
      "映": 3540,
      "春": 3541,
      "昧": 3542,
      "昨": 3543,
      "昭": 3544,
      "是": 3545,
      "昼": 3546,
      "显": 3547,
      "時": 3548,
      "晋": 3549,
      "晙": 3550,
      "晚": 3551,
      "晦": 3552,
      "普": 3553,
      "景": 3554,
      "晴": 3555,
      "智": 3556,
      "暂": 3557,
      "暖": 3558,
      "暗": 3559,
      "暧": 3560,
      "暫": 3561,
      "曜": 3562,
      "曲": 3563,
      "更": 3564,
      "書": 3565,
      "曾": 3566,
      "替": 3567,
      "最": 3568,
      "會": 3569,
      "月": 3570,
      "有": 3571,
      "朋": 3572,
      "服": 3573,
      "朕": 3574,
      "望": 3575,
      "朝": 3576,
      "期": 3577,
      "木": 3578,
      "未": 3579,
      "末": 3580,
      "本": 3581,
      "术": 3582,
      "朱": 3583,
      "朴": 3584,
      "朵": 3585,
      "机": 3586,
      "杀": 3587,
      "杂": 3588,
      "权": 3589,
      "杉": 3590,
      "李": 3591,
      "材": 3592,
      "村": 3593,
      "杜": 3594,
      "束": 3595,
      "杠": 3596,
      "条": 3597,
      "杣": 3598,
      "来": 3599,
      "杨": 3600,
      "杭": 3601,
      "杯": 3602,
      "東": 3603,
      "松": 3604,
      "板": 3605,
      "极": 3606,
      "构": 3607,
      "析": 3608,
      "林": 3609,
      "果": 3610,
      "枡": 3611,
      "架": 3612,
      "柄": 3613,
      "某": 3614,
      "查": 3615,
      "柯": 3616,
      "柱": 3617,
      "柹": 3618,
      "査": 3619,
      "栃": 3620,
      "栅": 3621,
      "标": 3622,
      "树": 3623,
      "栓": 3624,
      "栗": 3625,
      "校": 3626,
      "株": 3627,
      "样": 3628,
      "核": 3629,
      "根": 3630,
      "格": 3631,
      "栽": 3632,
      "桃": 3633,
      "案": 3634,
      "桌": 3635,
      "桑": 3636,
      "档": 3637,
      "桨": 3638,
      "梁": 3639,
      "梡": 3640,
      "梤": 3641,
      "梦": 3642,
      "梨": 3643,
      "梯": 3644,
      "械": 3645,
      "检": 3646,
      "棉": 3647,
      "棚": 3648,
      "森": 3649,
      "棱": 3650,
      "椅": 3651,
      "植": 3652,
      "椎": 3653,
      "検": 3654,
      "楈": 3655,
      "楚": 3656,
      "業": 3657,
      "楯": 3658,
      "極": 3659,
      "楼": 3660,
      "楽": 3661,
      "概": 3662,
      "榮": 3663,
      "榺": 3664,
      "構": 3665,
      "槐": 3666,
      "様": 3667,
      "樓": 3668,
      "標": 3669,
      "樟": 3670,
      "模": 3671,
      "権": 3672,
      "橋": 3673,
      "橘": 3674,
      "機": 3675,
      "檭": 3676,
      "櫿": 3677,
      "欠": 3678,
      "次": 3679,
      "欢": 3680,
      "欣": 3681,
      "欥": 3682,
      "欧": 3683,
      "欫": 3684,
      "欲": 3685,
      "欵": 3686,
      "欺": 3687,
      "款": 3688,
      "歇": 3689,
      "歉": 3690,
      "歌": 3691,
      "止": 3692,
      "正": 3693,
      "此": 3694,
      "步": 3695,
      "武": 3696,
      "歧": 3697,
      "歩": 3698,
      "歬": 3699,
      "歳": 3700,
      "歴": 3701,
      "歷": 3702,
      "死": 3703,
      "残": 3704,
      "段": 3705,
      "殿": 3706,
      "母": 3707,
      "毎": 3708,
      "每": 3709,
      "比": 3710,
      "毕": 3711,
      "毛": 3712,
      "毫": 3713,
      "氏": 3714,
      "民": 3715,
      "氓": 3716,
      "气": 3717,
      "気": 3718,
      "氟": 3719,
      "氣": 3720,
      "水": 3721,
      "永": 3722,
      "汁": 3723,
      "求": 3724,
      "汇": 3725,
      "汉": 3726,
      "汋": 3727,
      "江": 3728,
      "決": 3729,
      "汽": 3730,
      "沃": 3731,
      "沈": 3732,
      "沉": 3733,
      "沒": 3734,
      "沖": 3735,
      "沙": 3736,
      "沟": 3737,
      "没": 3738,
      "沢": 3739,
      "沦": 3740,
      "沬": 3741,
      "河": 3742,
      "油": 3743,
      "治": 3744,
      "沿": 3745,
      "況": 3746,
      "泉": 3747,
      "泊": 3748,
      "泌": 3749,
      "法": 3750,
      "泡": 3751,
      "波": 3752,
      "泥": 3753,
      "注": 3754,
      "泪": 3755,
      "泯": 3756,
      "泰": 3757,
      "泵": 3758,
      "泸": 3759,
      "洋": 3760,
      "洒": 3761,
      "洛": 3762,
      "洞": 3763,
      "津": 3764,
      "洲": 3765,
      "洹": 3766,
      "活": 3767,
      "派": 3768,
      "流": 3769,
      "济": 3770,
      "浕": 3771,
      "浙": 3772,
      "浜": 3773,
      "浣": 3774,
      "浪": 3775,
      "浮": 3776,
      "海": 3777,
      "涂": 3778,
      "消": 3779,
      "涉": 3780,
      "涌": 3781,
      "涝": 3782,
      "涢": 3783,
      "涨": 3784,
      "液": 3785,
      "涵": 3786,
      "淀": 3787,
      "淇": 3788,
      "淡": 3789,
      "深": 3790,
      "混": 3791,
      "添": 3792,
      "淽": 3793,
      "清": 3794,
      "済": 3795,
      "渉": 3796,
      "渊": 3797,
      "渍": 3798,
      "渔": 3799,
      "減": 3800,
      "渤": 3801,
      "渥": 3802,
      "温": 3803,
      "港": 3804,
      "游": 3805,
      "湖": 3806,
      "湛": 3807,
      "湾": 3808,
      "湿": 3809,
      "満": 3810,
      "溅": 3811,
      "源": 3812,
      "準": 3813,
      "溯": 3814,
      "溼": 3815,
      "滅": 3816,
      "滋": 3817,
      "滞": 3818,
      "满": 3819,
      "滨": 3820,
      "演": 3821,
      "漢": 3822,
      "漫": 3823,
      "漸": 3824,
      "潟": 3825,
      "潮": 3826,
      "潹": 3827,
      "澡": 3828,
      "澥": 3829,
      "澳": 3830,
      "激": 3831,
      "濟": 3832,
      "灑": 3833,
      "火": 3834,
      "灯": 3835,
      "灰": 3836,
      "灵": 3837,
      "灿": 3838,
      "炉": 3839,
      "炣": 3840,
      "炯": 3841,
      "点": 3842,
      "為": 3843,
      "炼": 3844,
      "烂": 3845,
      "烈": 3846,
      "烌": 3847,
      "烟": 3848,
      "烠": 3849,
      "烧": 3850,
      "热": 3851,
      "無": 3852,
      "焦": 3853,
      "焲": 3854,
      "然": 3855,
      "焼": 3856,
      "煌": 3857,
      "照": 3858,
      "熊": 3859,
      "熟": 3860,
      "熱": 3861,
      "燕": 3862,
      "燚": 3863,
      "營": 3864,
      "燥": 3865,
      "爆": 3866,
      "爱": 3867,
      "父": 3868,
      "牆": 3869,
      "片": 3870,
      "版": 3871,
      "牌": 3872,
      "牙": 3873,
      "牛": 3874,
      "牧": 3875,
      "物": 3876,
      "特": 3877,
      "犁": 3878,
      "犬": 3879,
      "状": 3880,
      "狀": 3881,
      "狂": 3882,
      "狗": 3883,
      "独": 3884,
      "狭": 3885,
      "猜": 3886,
      "猪": 3887,
      "猫": 3888,
      "献": 3889,
      "獅": 3890,
      "玄": 3891,
      "率": 3892,
      "玉": 3893,
      "王": 3894,
      "玗": 3895,
      "玩": 3896,
      "玫": 3897,
      "环": 3898,
      "现": 3899,
      "玻": 3900,
      "珂": 3901,
      "珠": 3902,
      "珫": 3903,
      "現": 3904,
      "球": 3905,
      "理": 3906,
      "琉": 3907,
      "瑞": 3908,
      "瑰": 3909,
      "璃": 3910,
      "環": 3911,
      "瓦": 3912,
      "瓴": 3913,
      "瓶": 3914,
      "甆": 3915,
      "甍": 3916,
      "甒": 3917,
      "甘": 3918,
      "甚": 3919,
      "生": 3920,
      "產": 3921,
      "産": 3922,
      "用": 3923,
      "甩": 3924,
      "田": 3925,
      "由": 3926,
      "申": 3927,
      "电": 3928,
      "男": 3929,
      "町": 3930,
      "画": 3931,
      "界": 3932,
      "畑": 3933,
      "留": 3934,
      "畝": 3935,
      "略": 3936,
      "番": 3937,
      "異": 3938,
      "畳": 3939,
      "當": 3940,
      "疃": 3941,
      "疆": 3942,
      "疑": 3943,
      "疗": 3944,
      "疫": 3945,
      "疲": 3946,
      "疶": 3947,
      "疼": 3948,
      "疾": 3949,
      "病": 3950,
      "痖": 3951,
      "痛": 3952,
      "痩": 3953,
      "痶": 3954,
      "痿": 3955,
      "瘠": 3956,
      "瘯": 3957,
      "療": 3958,
      "癌": 3959,
      "発": 3960,
      "登": 3961,
      "發": 3962,
      "白": 3963,
      "百": 3964,
      "的": 3965,
      "皆": 3966,
      "皇": 3967,
      "皮": 3968,
      "皱": 3969,
      "盂": 3970,
      "盆": 3971,
      "益": 3972,
      "盏": 3973,
      "盐": 3974,
      "监": 3975,
      "盒": 3976,
      "盖": 3977,
      "盘": 3978,
      "盛": 3979,
      "監": 3980,
      "盧": 3981,
      "目": 3982,
      "直": 3983,
      "盵": 3984,
      "相": 3985,
      "眉": 3986,
      "看": 3987,
      "県": 3988,
      "眕": 3989,
      "真": 3990,
      "眠": 3991,
      "眨": 3992,
      "眼": 3993,
      "眾": 3994,
      "着": 3995,
      "睄": 3996,
      "睛": 3997,
      "督": 3998,
      "瞟": 3999,
      "瞩": 4000,
      "瞪": 4001,
      "瞬": 4002,
      "瞱": 4003,
      "矢": 4004,
      "知": 4005,
      "短": 4006,
      "石": 4007,
      "矿": 4008,
      "码": 4009,
      "砂": 4010,
      "研": 4011,
      "破": 4012,
      "础": 4013,
      "硅": 4014,
      "硕": 4015,
      "硬": 4016,
      "确": 4017,
      "碍": 4018,
      "碎": 4019,
      "碗": 4020,
      "碳": 4021,
      "確": 4022,
      "磁": 4023,
      "磅": 4024,
      "磨": 4025,
      "礎": 4026,
      "礴": 4027,
      "示": 4028,
      "礼": 4029,
      "社": 4030,
      "祈": 4031,
      "祉": 4032,
      "祖": 4033,
      "祝": 4034,
      "神": 4035,
      "祠": 4036,
      "祥": 4037,
      "票": 4038,
      "祭": 4039,
      "祺": 4040,
      "禁": 4041,
      "福": 4042,
      "离": 4043,
      "秀": 4044,
      "私": 4045,
      "秉": 4046,
      "秋": 4047,
      "种": 4048,
      "科": 4049,
      "秒": 4050,
      "秘": 4051,
      "租": 4052,
      "秤": 4053,
      "秩": 4054,
      "积": 4055,
      "称": 4056,
      "秲": 4057,
      "移": 4058,
      "程": 4059,
      "稍": 4060,
      "税": 4061,
      "種": 4062,
      "積": 4063,
      "穫": 4064,
      "究": 4065,
      "穷": 4066,
      "空": 4067,
      "穿": 4068,
      "突": 4069,
      "窝": 4070,
      "窟": 4071,
      "立": 4072,
      "站": 4073,
      "竞": 4074,
      "竟": 4075,
      "章": 4076,
      "童": 4077,
      "竭": 4078,
      "端": 4079,
      "竳": 4080,
      "競": 4081,
      "竹": 4082,
      "竿": 4083,
      "笑": 4084,
      "笛": 4085,
      "第": 4086,
      "筆": 4087,
      "等": 4088,
      "筋": 4089,
      "答": 4090,
      "策": 4091,
      "签": 4092,
      "简": 4093,
      "箋": 4094,
      "算": 4095,
      "管": 4096,
      "箬": 4097,
      "箭": 4098,
      "箱": 4099,
      "節": 4100,
      "範": 4101,
      "篇": 4102,
      "築": 4103,
      "篷": 4104,
      "簡": 4105,
      "籍": 4106,
      "米": 4107,
      "籸": 4108,
      "类": 4109,
      "粉": 4110,
      "粋": 4111,
      "粒": 4112,
      "粕": 4113,
      "粟": 4114,
      "粤": 4115,
      "粧": 4116,
      "精": 4117,
      "糇": 4118,
      "糸": 4119,
      "系": 4120,
      "紀": 4121,
      "約": 4122,
      "納": 4123,
      "純": 4124,
      "級": 4125,
      "素": 4126,
      "紡": 4127,
      "索": 4128,
      "紧": 4129,
      "細": 4130,
      "紹": 4131,
      "終": 4132,
      "組": 4133,
      "経": 4134,
      "結": 4135,
      "絞": 4136,
      "給": 4137,
      "統": 4138,
      "絶": 4139,
      "經": 4140,
      "継": 4141,
      "続": 4142,
      "綠": 4143,
      "網": 4144,
      "綿": 4145,
      "緊": 4146,
      "総": 4147,
      "線": 4148,
      "編": 4149,
      "練": 4150,
      "縄": 4151,
      "縔": 4152,
      "縮": 4153,
      "繁": 4154,
      "織": 4155,
      "繞": 4156,
      "繡": 4157,
      "繰": 4158,
      "續": 4159,
      "纏": 4160,
      "纠": 4161,
      "红": 4162,
      "纤": 4163,
      "约": 4164,
      "级": 4165,
      "纪": 4166,
      "纯": 4167,
      "纳": 4168,
      "纸": 4169,
      "纺": 4170,
      "线": 4171,
      "练": 4172,
      "组": 4173,
      "绅": 4174,
      "细": 4175,
      "织": 4176,
      "绍": 4177,
      "经": 4178,
      "结": 4179,
      "绘": 4180,
      "给": 4181,
      "络": 4182,
      "绝": 4183,
      "统": 4184,
      "绣": 4185,
      "继": 4186,
      "绩": 4187,
      "续": 4188,
      "绳": 4189,
      "维": 4190,
      "绵": 4191,
      "绸": 4192,
      "综": 4193,
      "绿": 4194,
      "缈": 4195,
      "缓": 4196,
      "缘": 4197,
      "缚": 4198,
      "缥": 4199,
      "缩": 4200,
      "网": 4201,
      "罠": 4202,
      "罩": 4203,
      "置": 4204,
      "罰": 4205,
      "羁": 4206,
      "羊": 4207,
      "美": 4208,
      "群": 4209,
      "義": 4210,
      "羽": 4211,
      "習": 4212,
      "翼": 4213,
      "老": 4214,
      "考": 4215,
      "者": 4216,
      "而": 4217,
      "耍": 4218,
      "耐": 4219,
      "耳": 4220,
      "耼": 4221,
      "聊": 4222,
      "联": 4223,
      "聖": 4224,
      "聘": 4225,
      "聚": 4226,
      "聞": 4227,
      "聪": 4228,
      "職": 4229,
      "聾": 4230,
      "肃": 4231,
      "肉": 4232,
      "肌": 4233,
      "肖": 4234,
      "肝": 4235,
      "肟": 4236,
      "股": 4237,
      "肥": 4238,
      "肩": 4239,
      "肪": 4240,
      "肯": 4241,
      "育": 4242,
      "肺": 4243,
      "肾": 4244,
      "背": 4245,
      "胜": 4246,
      "胞": 4247,
      "胡": 4248,
      "胶": 4249,
      "胸": 4250,
      "能": 4251,
      "脂": 4252,
      "脉": 4253,
      "脐": 4254,
      "脑": 4255,
      "脚": 4256,
      "脱": 4257,
      "脳": 4258,
      "脸": 4259,
      "腊": 4260,
      "腐": 4261,
      "腕": 4262,
      "腰": 4263,
      "腳": 4264,
      "腺": 4265,
      "腾": 4266,
      "腿": 4267,
      "膜": 4268,
      "膨": 4269,
      "膺": 4270,
      "臓": 4271,
      "臣": 4272,
      "臨": 4273,
      "自": 4274,
      "臭": 4275,
      "至": 4276,
      "致": 4277,
      "舆": 4278,
      "與": 4279,
      "興": 4280,
      "舉": 4281,
      "舌": 4282,
      "舒": 4283,
      "舗": 4284,
      "舞": 4285,
      "舟": 4286,
      "航": 4287,
      "般": 4288,
      "船": 4289,
      "艕": 4290,
      "艗": 4291,
      "艤": 4292,
      "良": 4293,
      "色": 4294,
      "艳": 4295,
      "艺": 4296,
      "艾": 4297,
      "节": 4298,
      "芝": 4299,
      "花": 4300,
      "芸": 4301,
      "芽": 4302,
      "苍": 4303,
      "苏": 4304,
      "苗": 4305,
      "若": 4306,
      "苦": 4307,
      "英": 4308,
      "苹": 4309,
      "范": 4310,
      "茧": 4311,
      "茨": 4312,
      "茶": 4313,
      "草": 4314,
      "荎": 4315,
      "荐": 4316,
      "荒": 4317,
      "荣": 4318,
      "药": 4319,
      "荷": 4320,
      "莅": 4321,
      "莉": 4322,
      "莞": 4323,
      "莦": 4324,
      "莱": 4325,
      "获": 4326,
      "菌": 4327,
      "菜": 4328,
      "華": 4329,
      "菲": 4330,
      "萄": 4331,
      "萝": 4332,
      "营": 4333,
      "萨": 4334,
      "落": 4335,
      "葉": 4336,
      "著": 4337,
      "葡": 4338,
      "葬": 4339,
      "蒂": 4340,
      "蒙": 4341,
      "蒲": 4342,
      "蓋": 4343,
      "蓎": 4344,
      "蓝": 4345,
      "蓮": 4346,
      "蔡": 4347,
      "蔵": 4348,
      "蕉": 4349,
      "薄": 4350,
      "薢": 4351,
      "薪": 4352,
      "藉": 4353,
      "藏": 4354,
      "藵": 4355,
      "蘭": 4356,
      "虎": 4357,
      "虐": 4358,
      "虑": 4359,
      "處": 4360,
      "虚": 4361,
      "號": 4362,
      "虽": 4363,
      "蚀": 4364,
      "蚁": 4365,
      "蚊": 4366,
      "蛋": 4367,
      "蜂": 4368,
      "蜜": 4369,
      "蜯": 4370,
      "融": 4371,
      "螕": 4372,
      "螺": 4373,
      "血": 4374,
      "衃": 4375,
      "衆": 4376,
      "行": 4377,
      "術": 4378,
      "街": 4379,
      "衡": 4380,
      "衣": 4381,
      "表": 4382,
      "衰": 4383,
      "袖": 4384,
      "袜": 4385,
      "被": 4386,
      "裂": 4387,
      "装": 4388,
      "裏": 4389,
      "裔": 4390,
      "裕": 4391,
      "補": 4392,
      "裤": 4393,
      "裹": 4394,
      "製": 4395,
      "複": 4396,
      "褍": 4397,
      "襃": 4398,
      "西": 4399,
      "要": 4400,
      "覆": 4401,
      "覇": 4402,
      "覉": 4403,
      "見": 4404,
      "規": 4405,
      "視": 4406,
      "覚": 4407,
      "覦": 4408,
      "覧": 4409,
      "覩": 4410,
      "親": 4411,
      "覮": 4412,
      "観": 4413,
      "觀": 4414,
      "见": 4415,
      "观": 4416,
      "规": 4417,
      "视": 4418,
      "觉": 4419,
      "角": 4420,
      "觕": 4421,
      "解": 4422,
      "言": 4423,
      "計": 4424,
      "訊": 4425,
      "託": 4426,
      "記": 4427,
      "訪": 4428,
      "設": 4429,
      "診": 4430,
      "証": 4431,
      "詐": 4432,
      "評": 4433,
      "試": 4434,
      "詩": 4435,
      "話": 4436,
      "詳": 4437,
      "誇": 4438,
      "認": 4439,
      "誕": 4440,
      "語": 4441,
      "說": 4442,
      "説": 4443,
      "読": 4444,
      "誰": 4445,
      "課": 4446,
      "談": 4447,
      "請": 4448,
      "論": 4449,
      "諚": 4450,
      "諷": 4451,
      "諸": 4452,
      "講": 4453,
      "謝": 4454,
      "證": 4455,
      "譏": 4456,
      "識": 4457,
      "警": 4458,
      "議": 4459,
      "護": 4460,
      "讓": 4461,
      "讗": 4462,
      "计": 4463,
      "订": 4464,
      "认": 4465,
      "讦": 4466,
      "讨": 4467,
      "让": 4468,
      "议": 4469,
      "讯": 4470,
      "记": 4471,
      "讲": 4472,
      "许": 4473,
      "论": 4474,
      "设": 4475,
      "访": 4476,
      "证": 4477,
      "评": 4478,
      "识": 4479,
      "诉": 4480,
      "诊": 4481,
      "译": 4482,
      "试": 4483,
      "话": 4484,
      "诞": 4485,
      "询": 4486,
      "诣": 4487,
      "该": 4488,
      "详": 4489,
      "语": 4490,
      "误": 4491,
      "说": 4492,
      "请": 4493,
      "诺": 4494,
      "读": 4495,
      "课": 4496,
      "谁": 4497,
      "调": 4498,
      "谈": 4499,
      "谓": 4500,
      "谜": 4501,
      "谷": 4502,
      "豆": 4503,
      "豊": 4504,
      "豐": 4505,
      "豚": 4506,
      "象": 4507,
      "豪": 4508,
      "貌": 4509,
      "財": 4510,
      "貨": 4511,
      "販": 4512,
      "貴": 4513,
      "買": 4514,
      "貸": 4515,
      "費": 4516,
      "賀": 4517,
      "賃": 4518,
      "資": 4519,
      "賞": 4520,
      "賢": 4521,
      "賤": 4522,
      "質": 4523,
      "購": 4524,
      "贈": 4525,
      "贊": 4526,
      "贝": 4527,
      "负": 4528,
      "贡": 4529,
      "财": 4530,
      "责": 4531,
      "贤": 4532,
      "败": 4533,
      "货": 4534,
      "质": 4535,
      "贫": 4536,
      "贬": 4537,
      "购": 4538,
      "贯": 4539,
      "贴": 4540,
      "贵": 4541,
      "贷": 4542,
      "贸": 4543,
      "费": 4544,
      "赁": 4545,
      "资": 4546,
      "赋": 4547,
      "赌": 4548,
      "赏": 4549,
      "赖": 4550,
      "赛": 4551,
      "赞": 4552,
      "赢": 4553,
      "赥": 4554,
      "走": 4555,
      "赶": 4556,
      "起": 4557,
      "超": 4558,
      "越": 4559,
      "趋": 4560,
      "趣": 4561,
      "趧": 4562,
      "趱": 4563,
      "跌": 4564,
      "距": 4565,
      "跟": 4566,
      "跤": 4567,
      "跨": 4568,
      "路": 4569,
      "跳": 4570,
      "践": 4571,
      "踑": 4572,
      "踘": 4573,
      "踢": 4574,
      "踩": 4575,
      "踪": 4576,
      "踹": 4577,
      "蹭": 4578,
      "身": 4579,
      "車": 4580,
      "軌": 4581,
      "転": 4582,
      "軽": 4583,
      "較": 4584,
      "載": 4585,
      "輕": 4586,
      "輡": 4587,
      "輩": 4588,
      "輻": 4589,
      "輼": 4590,
      "輿": 4591,
      "车": 4592,
      "轩": 4593,
      "转": 4594,
      "软": 4595,
      "轻": 4596,
      "载": 4597,
      "较": 4598,
      "辉": 4599,
      "输": 4600,
      "辖": 4601,
      "辠": 4602,
      "辥": 4603,
      "辦": 4604,
      "辨": 4605,
      "辰": 4606,
      "边": 4607,
      "込": 4608,
      "辽": 4609,
      "达": 4610,
      "迂": 4611,
      "迅": 4612,
      "过": 4613,
      "迎": 4614,
      "运": 4615,
      "近": 4616,
      "返": 4617,
      "还": 4618,
      "这": 4619,
      "进": 4620,
      "远": 4621,
      "连": 4622,
      "迫": 4623,
      "迭": 4624,
      "述": 4625,
      "迷": 4626,
      "追": 4627,
      "退": 4628,
      "送": 4629,
      "适": 4630,
      "逆": 4631,
      "选": 4632,
      "逊": 4633,
      "透": 4634,
      "逐": 4635,
      "递": 4636,
      "途": 4637,
      "這": 4638,
      "通": 4639,
      "速": 4640,
      "造": 4641,
      "連": 4642,
      "週": 4643,
      "進": 4644,
      "逼": 4645,
      "逾": 4646,
      "遂": 4647,
      "遇": 4648,
      "遊": 4649,
      "運": 4650,
      "過": 4651,
      "道": 4652,
      "達": 4653,
      "違": 4654,
      "遖": 4655,
      "遠": 4656,
      "遥": 4657,
      "適": 4658,
      "遭": 4659,
      "選": 4660,
      "遺": 4661,
      "邀": 4662,
      "那": 4663,
      "邦": 4664,
      "邪": 4665,
      "邮": 4666,
      "邸": 4667,
      "郁": 4668,
      "郎": 4669,
      "郑": 4670,
      "郡": 4671,
      "部": 4672,
      "郵": 4673,
      "都": 4674,
      "配": 4675,
      "酒": 4676,
      "酢": 4677,
      "酵": 4678,
      "酶": 4679,
      "酸": 4680,
      "酿": 4681,
      "醋": 4682,
      "醒": 4683,
      "采": 4684,
      "释": 4685,
      "里": 4686,
      "重": 4687,
      "野": 4688,
      "量": 4689,
      "金": 4690,
      "釚": 4691,
      "針": 4692,
      "鉄": 4693,
      "鉓": 4694,
      "鉛": 4695,
      "鉴": 4696,
      "銀": 4697,
      "銢": 4698,
      "銭": 4699,
      "錄": 4700,
      "録": 4701,
      "鏏": 4702,
      "鏹": 4703,
      "钟": 4704,
      "钥": 4705,
      "钨": 4706,
      "钮": 4707,
      "铁": 4708,
      "铃": 4709,
      "铜": 4710,
      "铬": 4711,
      "铭": 4712,
      "银": 4713,
      "链": 4714,
      "销": 4715,
      "锅": 4716,
      "锈": 4717,
      "锏": 4718,
      "错": 4719,
      "锤": 4720,
      "锦": 4721,
      "锰": 4722,
      "锻": 4723,
      "镀": 4724,
      "镍": 4725,
      "镜": 4726,
      "長": 4727,
      "长": 4728,
      "門": 4729,
      "閉": 4730,
      "開": 4731,
      "間": 4732,
      "関": 4733,
      "閲": 4734,
      "闊": 4735,
      "闚": 4736,
      "關": 4737,
      "门": 4738,
      "问": 4739,
      "闲": 4740,
      "间": 4741,
      "闹": 4742,
      "闻": 4743,
      "阅": 4744,
      "阐": 4745,
      "阜": 4746,
      "队": 4747,
      "阤": 4748,
      "阪": 4749,
      "防": 4750,
      "阳": 4751,
      "阴": 4752,
      "阶": 4753,
      "阿": 4754,
      "附": 4755,
      "际": 4756,
      "陆": 4757,
      "降": 4758,
      "限": 4759,
      "陕": 4760,
      "陘": 4761,
      "陛": 4762,
      "院": 4763,
      "除": 4764,
      "陥": 4765,
      "险": 4766,
      "陰": 4767,
      "陶": 4768,
      "陷": 4769,
      "陸": 4770,
      "隅": 4771,
      "隆": 4772,
      "隊": 4773,
      "階": 4774,
      "随": 4775,
      "隐": 4776,
      "隔": 4777,
      "際": 4778,
      "障": 4779,
      "隢": 4780,
      "隣": 4781,
      "隧": 4782,
      "險": 4783,
      "难": 4784,
      "雄": 4785,
      "雅": 4786,
      "集": 4787,
      "雇": 4788,
      "雑": 4789,
      "雖": 4790,
      "離": 4791,
      "難": 4792,
      "雪": 4793,
      "雷": 4794,
      "電": 4795,
      "雾": 4796,
      "需": 4797,
      "霉": 4798,
      "霊": 4799,
      "霍": 4800,
      "霤": 4801,
      "露": 4802,
      "霸": 4803,
      "霼": 4804,
      "青": 4805,
      "靓": 4806,
      "靖": 4807,
      "静": 4808,
      "非": 4809,
      "靠": 4810,
      "面": 4811,
      "革": 4812,
      "靴": 4813,
      "靺": 4814,
      "靼": 4815,
      "鞋": 4816,
      "鞨": 4817,
      "鞭": 4818,
      "韓": 4819,
      "韩": 4820,
      "音": 4821,
      "頂": 4822,
      "順": 4823,
      "須": 4824,
      "預": 4825,
      "頓": 4826,
      "領": 4827,
      "頭": 4828,
      "頼": 4829,
      "題": 4830,
      "額": 4831,
      "顔": 4832,
      "願": 4833,
      "類": 4834,
      "顧": 4835,
      "页": 4836,
      "顶": 4837,
      "项": 4838,
      "顺": 4839,
      "须": 4840,
      "顾": 4841,
      "颁": 4842,
      "预": 4843,
      "领": 4844,
      "颈": 4845,
      "频": 4846,
      "颗": 4847,
      "题": 4848,
      "風": 4849,
      "风": 4850,
      "飞": 4851,
      "食": 4852,
      "飣": 4853,
      "飯": 4854,
      "飲": 4855,
      "飽": 4856,
      "飾": 4857,
      "餅": 4858,
      "養": 4859,
      "餐": 4860,
      "館": 4861,
      "饙": 4862,
      "饭": 4863,
      "饰": 4864,
      "馆": 4865,
      "首": 4866,
      "香": 4867,
      "馩": 4868,
      "馬": 4869,
      "駄": 4870,
      "駅": 4871,
      "駆": 4872,
      "駐": 4873,
      "駙": 4874,
      "騒": 4875,
      "験": 4876,
      "驚": 4877,
      "驩": 4878,
      "马": 4879,
      "驭": 4880,
      "驶": 4881,
      "驾": 4882,
      "验": 4883,
      "骏": 4884,
      "骗": 4885,
      "骟": 4886,
      "骷": 4887,
      "髅": 4888,
      "體": 4889,
      "高": 4890,
      "鬆": 4891,
      "鬡": 4892,
      "鬼": 4893,
      "魂": 4894,
      "魅": 4895,
      "魔": 4896,
      "魚": 4897,
      "鮡": 4898,
      "鮨": 4899,
      "鱠": 4900,
      "鲁": 4901,
      "鲜": 4902,
      "鲾": 4903,
      "鳥": 4904,
      "鳴": 4905,
      "鴈": 4906,
      "鴚": 4907,
      "鴱": 4908,
      "鵍": 4909,
      "鵗": 4910,
      "鶏": 4911,
      "鶡": 4912,
      "鶴": 4913,
      "鷣": 4914,
      "鸭": 4915,
      "鸿": 4916,
      "鹰": 4917,
      "鹹": 4918,
      "鹿": 4919,
      "麗": 4920,
      "麺": 4921,
      "麼": 4922,
      "黄": 4923,
      "黉": 4924,
      "黎": 4925,
      "黑": 4926,
      "黒": 4927,
      "黖": 4928,
      "默": 4929,
      "點": 4930,
      "黨": 4931,
      "鼠": 4932,
      "齢": 4933,
      "龍": 4934,
      "龙": 4935,
      "龠": 4936,
      "鿎": 4937,
      "ꁝ": 4938,
      "ꁰ": 4939,
      "ꅕ": 4940,
      "ꅵ": 4941,
      "ꆷ": 4942,
      "ꇯ": 4943,
      "ꊒ": 4944,
      "ꊣ": 4945,
      "ꊳ": 4946,
      "ꋗ": 4947,
      "ꋩ": 4948,
      "ꌍ": 4949,
      "ꌱ": 4950,
      "ꍣ": 4951,
      "ꍱ": 4952,
      "ꍽ": 4953,
      "ꑝ": 4954,
      "ꑿ": 4955,
      "ꕄ": 4956,
      "ꕊ": 4957,
      "ꗿ": 4958,
      "ꚁ": 4959,
      "ꚹ": 4960,
      "ꞗ": 4961,
      "ꠒ": 4962,
      "ꡝ": 4963,
      "꣕": 4964,
      "ꣳ": 4965,
      "ꦖ": 4966,
      "ꦱ": 4967,
      "꧜": 4968,
      "꨾": 4969,
      "ꩵ": 4970,
      "ꭝ": 4971,
      "ꭷ": 4972,
      "ꭹ": 4973,
      "꯫": 4974,
      "꯬": 4975,
      "꯭": 4976,
      "가": 4977,
      "간": 4978,
      "감": 4979,
      "강": 4980,
      "같": 4981,
      "개": 4982,
      "갥": 4983,
      "걯": 4984,
      "거": 4985,
      "건": 4986,
      "걸": 4987,
      "것": 4988,
      "게": 4989,
      "겠": 4990,
      "겨": 4991,
      "격": 4992,
      "견": 4993,
      "겹": 4994,
      "경": 4995,
      "계": 4996,
      "고": 4997,
      "공": 4998,
      "과": 4999,
      "관": 5000,
      "괎": 5001,
      "광": 5002,
      "교": 5003,
      "굝": 5004,
      "구": 5005,
      "국": 5006,
      "굼": 5007,
      "궁": 5008,
      "권": 5009,
      "귀": 5010,
      "그": 5011,
      "극": 5012,
      "근": 5013,
      "글": 5014,
      "긂": 5015,
      "금": 5016,
      "급": 5017,
      "긝": 5018,
      "기": 5019,
      "김": 5020,
      "까": 5021,
      "꺂": 5022,
      "껴": 5023,
      "꼭": 5024,
      "뀐": 5025,
      "나": 5026,
      "난": 5027,
      "낣": 5028,
      "남": 5029,
      "납": 5030,
      "낭": 5031,
      "내": 5032,
      "너": 5033,
      "넉": 5034,
      "넓": 5035,
      "네": 5036,
      "넥": 5037,
      "녀": 5038,
      "년": 5039,
      "노": 5040,
      "놆": 5041,
      "뇄": 5042,
      "느": 5043,
      "는": 5044,
      "늘": 5045,
      "능": 5046,
      "니": 5047,
      "닝": 5048,
      "다": 5049,
      "닦": 5050,
      "단": 5051,
      "닩": 5052,
      "담": 5053,
      "답": 5054,
      "당": 5055,
      "대": 5056,
      "덌": 5057,
      "더": 5058,
      "뎒": 5059,
      "뎾": 5060,
      "도": 5061,
      "독": 5062,
      "동": 5063,
      "되": 5064,
      "된": 5065,
      "됩": 5066,
      "둇": 5067,
      "두": 5068,
      "뒣": 5069,
      "뒭": 5070,
      "뒲": 5071,
      "뒽": 5072,
      "듆": 5073,
      "듖": 5074,
      "드": 5075,
      "들": 5076,
      "등": 5077,
      "디": 5078,
      "딩": 5079,
      "때": 5080,
      "떨": 5081,
      "떹": 5082,
      "떻": 5083,
      "똖": 5084,
      "뚢": 5085,
      "뚻": 5086,
      "뛥": 5087,
      "띠": 5088,
      "띱": 5089,
      "띵": 5090,
      "라": 5091,
      "람": 5092,
      "랍": 5093,
      "래": 5094,
      "랜": 5095,
      "랩": 5096,
      "러": 5097,
      "런": 5098,
      "럼": 5099,
      "럽": 5100,
      "레": 5101,
      "려": 5102,
      "력": 5103,
      "렶": 5104,
      "로": 5105,
      "록": 5106,
      "론": 5107,
      "롨": 5108,
      "롰": 5109,
      "뢽": 5110,
      "료": 5111,
      "륲": 5112,
      "를": 5113,
      "름": 5114,
      "릎": 5115,
      "리": 5116,
      "릭": 5117,
      "립": 5118,
      "마": 5119,
      "만": 5120,
      "말": 5121,
      "맗": 5122,
      "맞": 5123,
      "매": 5124,
      "맺": 5125,
      "멋": 5126,
      "메": 5127,
      "멘": 5128,
      "며": 5129,
      "면": 5130,
      "명": 5131,
      "모": 5132,
      "목": 5133,
      "몸": 5134,
      "무": 5135,
      "문": 5136,
      "물": 5137,
      "뭅": 5138,
      "미": 5139,
      "민": 5140,
      "및": 5141,
      "바": 5142,
      "박": 5143,
      "발": 5144,
      "밥": 5145,
      "방": 5146,
      "배": 5147,
      "뱻": 5148,
      "벃": 5149,
      "번": 5150,
      "법": 5151,
      "베": 5152,
      "변": 5153,
      "별": 5154,
      "보": 5155,
      "복": 5156,
      "본": 5157,
      "볼": 5158,
      "봉": 5159,
      "뵢": 5160,
      "뵪": 5161,
      "부": 5162,
      "분": 5163,
      "뷶": 5164,
      "브": 5165,
      "븳": 5166,
      "비": 5167,
      "빌": 5168,
      "빙": 5169,
      "뺋": 5170,
      "뺧": 5171,
      "뿐": 5172,
      "쁺": 5173,
      "사": 5174,
      "살": 5175,
      "삼": 5176,
      "상": 5177,
      "생": 5178,
      "샵": 5179,
      "서": 5180,
      "섯": 5181,
      "성": 5182,
      "세": 5183,
      "셍": 5184,
      "셔": 5185,
      "소": 5186,
      "송": 5187,
      "쇁": 5188,
      "수": 5189,
      "쉞": 5190,
      "쉠": 5191,
      "쉬": 5192,
      "스": 5193,
      "습": 5194,
      "시": 5195,
      "식": 5196,
      "신": 5197,
      "실": 5198,
      "십": 5199,
      "싸": 5200,
      "쌶": 5201,
      "써": 5202,
      "썮": 5203,
      "쏄": 5204,
      "쏿": 5205,
      "쐎": 5206,
      "쑔": 5207,
      "쓋": 5208,
      "씱": 5209,
      "아": 5210,
      "안": 5211,
      "않": 5212,
      "앙": 5213,
      "액": 5214,
      "야": 5215,
      "양": 5216,
      "얘": 5217,
      "어": 5218,
      "언": 5219,
      "업": 5220,
      "없": 5221,
      "었": 5222,
      "에": 5223,
      "여": 5224,
      "역": 5225,
      "연": 5226,
      "열": 5227,
      "영": 5228,
      "오": 5229,
      "옰": 5230,
      "와": 5231,
      "왔": 5232,
      "왴": 5233,
      "외": 5234,
      "욎": 5235,
      "요": 5236,
      "용": 5237,
      "우": 5238,
      "운": 5239,
      "울": 5240,
      "워": 5241,
      "원": 5242,
      "월": 5243,
      "웠": 5244,
      "웩": 5245,
      "위": 5246,
      "유": 5247,
      "육": 5248,
      "융": 5249,
      "으": 5250,
      "은": 5251,
      "을": 5252,
      "음": 5253,
      "의": 5254,
      "이": 5255,
      "인": 5256,
      "일": 5257,
      "임": 5258,
      "입": 5259,
      "있": 5260,
      "자": 5261,
      "작": 5262,
      "잘": 5263,
      "잠": 5264,
      "장": 5265,
      "재": 5266,
      "저": 5267,
      "적": 5268,
      "전": 5269,
      "절": 5270,
      "점": 5271,
      "접": 5272,
      "정": 5273,
      "제": 5274,
      "져": 5275,
      "졌": 5276,
      "조": 5277,
      "존": 5278,
      "종": 5279,
      "좋": 5280,
      "좒": 5281,
      "주": 5282,
      "준": 5283,
      "줍": 5284,
      "줏": 5285,
      "중": 5286,
      "쥻": 5287,
      "즈": 5288,
      "즣": 5289,
      "지": 5290,
      "직": 5291,
      "진": 5292,
      "집": 5293,
      "징": 5294,
      "짗": 5295,
      "짠": 5296,
      "짱": 5297,
      "째": 5298,
      "쪇": 5299,
      "쭜": 5300,
      "쮧": 5301,
      "쯬": 5302,
      "차": 5303,
      "착": 5304,
      "찬": 5305,
      "참": 5306,
      "찾": 5307,
      "책": 5308,
      "천": 5309,
      "첫": 5310,
      "청": 5311,
      "체": 5312,
      "쳎": 5313,
      "초": 5314,
      "촬": 5315,
      "최": 5316,
      "추": 5317,
      "출": 5318,
      "충": 5319,
      "층": 5320,
      "치": 5321,
      "카": 5322,
      "컬": 5323,
      "켓": 5324,
      "코": 5325,
      "쿼": 5326,
      "큉": 5327,
      "크": 5328,
      "큮": 5329,
      "큰": 5330,
      "클": 5331,
      "키": 5332,
      "킸": 5333,
      "킹": 5334,
      "타": 5335,
      "탁": 5336,
      "탂": 5337,
      "탄": 5338,
      "탑": 5339,
      "턂": 5340,
      "터": 5341,
      "템": 5342,
      "토": 5343,
      "톤": 5344,
      "톬": 5345,
      "통": 5346,
      "퇻": 5347,
      "투": 5348,
      "튜": 5349,
      "튶": 5350,
      "트": 5351,
      "특": 5352,
      "튼": 5353,
      "티": 5354,
      "판": 5355,
      "팬": 5356,
      "퍦": 5357,
      "펒": 5358,
      "페": 5359,
      "펣": 5360,
      "펥": 5361,
      "펭": 5362,
      "편": 5363,
      "평": 5364,
      "포": 5365,
      "폿": 5366,
      "푋": 5367,
      "표": 5368,
      "푫": 5369,
      "풼": 5370,
      "퓄": 5371,
      "프": 5372,
      "플": 5373,
      "피": 5374,
      "필": 5375,
      "핏": 5376,
      "핕": 5377,
      "하": 5378,
      "학": 5379,
      "한": 5380,
      "할": 5381,
      "함": 5382,
      "합": 5383,
      "항": 5384,
      "해": 5385,
      "햇": 5386,
      "행": 5387,
      "향": 5388,
      "햵": 5389,
      "허": 5390,
      "현": 5391,
      "혐": 5392,
      "협": 5393,
      "혜": 5394,
      "혰": 5395,
      "호": 5396,
      "홈": 5397,
      "화": 5398,
      "확": 5399,
      "환": 5400,
      "활": 5401,
      "황": 5402,
      "횂": 5403,
      "회": 5404,
      "획": 5405,
      "횶": 5406,
      "후": 5407,
      "훑": 5408,
      "휴": 5409,
      "흜": 5410,
      "綾": 5411,
      "免": 5412,
      "繁": 5413,
      "憎": 5414,
      "瘝": 5415,
      "ﭧ": 5416,
      "ﭨ": 5417,
      "﮷": 5418,
      "ﯗ": 5419,
      "ﯢ": 5420,
      "ﲥ": 5421,
      "ﳃ": 5422,
      "ﴄ": 5423,
      "ﴌ": 5424,
      "ﴼ": 5425,
      "ﴽ": 5426,
      "ﶂ": 5427,
      "ﶲ": 5428,
      "ﷺ": 5429,
      "️": 5430,
      "︢": 5431,
      "﹯": 5432,
      "ﹾ": 5433,
      "ﻘ": 5434,
      "ﻺ": 5435,
      "！": 5436,
      "％": 5437,
      "＆": 5438,
      "（": 5439,
      "）": 5440,
      "，": 5441,
      "／": 5442,
      "０": 5443,
      "１": 5444,
      "２": 5445,
      "３": 5446,
      "４": 5447,
      "５": 5448,
      "６": 5449,
      "７": 5450,
      "８": 5451,
      "９": 5452,
      "：": 5453,
      "；": 5454,
      "？": 5455,
      "＠": 5456,
      "｀": 5457,
      "ａ": 5458,
      "ｂ": 5459,
      "ｅ": 5460,
      "ｇ": 5461,
      "ｈ": 5462,
      "ｋ": 5463,
      "ｌ": 5464,
      "ｍ": 5465,
      "ｎ": 5466,
      "ｏ": 5467,
      "ｐ": 5468,
      "ｒ": 5469,
      "ｓ": 5470,
      "ｔ": 5471,
      "ｗ": 5472,
      "｜": 5473,
      "～": 5474,
      "･": 5475,
      "ｫ": 5476,
      "ｬ": 5477,
      "ｰ": 5478,
      "ｵ": 5479,
      "ｼ": 5480,
      "ﾀ": 5481,
      "ﾉ": 5482,
      "ﾌ": 5483,
      "ﾎ": 5484,
      "ﾞ": 5485,
      "ﾟ": 5486,
      "ﾥ": 5487,
      "ﾧ": 5488,
      "ﾪ": 5489,
      "￣": 5490,
      "￥": 5491,
      "￼": 5492,
      "𔻹": 5493,
      "𖾄": 5494,
      "𗲜": 5495,
      "𘡎": 5496,
      "🆚": 5497,
      "🇦": 5498,
      "🇧": 5499,
      "🇨": 5500,
      "🇩": 5501,
      "🇪": 5502,
      "🇬": 5503,
      "🇭": 5504,
      "🇮": 5505,
      "🇯": 5506,
      "🇰": 5507,
      "🇱": 5508,
      "🇲": 5509,
      "🇳": 5510,
      "🇴": 5511,
      "🇵": 5512,
      "🇷": 5513,
      "🇸": 5514,
      "🇹": 5515,
      "🇺": 5516,
      "🇻": 5517,
      "🇾": 5518,
      "🌍": 5519,
      "🌎": 5520,
      "🌙": 5521,
      "🌡": 5522,
      "🌴": 5523,
      "🌷": 5524,
      "🌹": 5525,
      "🌺": 5526,
      "🌻": 5527,
      "🌽": 5528,
      "🌾": 5529,
      "🌿": 5530,
      "🎁": 5531,
      "🎇": 5532,
      "🎉": 5533,
      "🎊": 5534,
      "🎙": 5535,
      "🎤": 5536,
      "🎥": 5537,
      "🎶": 5538,
      "🎹": 5539,
      "🎼": 5540,
      "🏏": 5541,
      "🏡": 5542,
      "🏦": 5543,
      "🏻": 5544,
      "🏼": 5545,
      "🏽": 5546,
      "🏾": 5547,
      "🏿": 5548,
      "🐍": 5549,
      "🐏": 5550,
      "🐒": 5551,
      "🐽": 5552,
      "🐾": 5553,
      "👁": 5554,
      "👇": 5555,
      "👈": 5556,
      "👉": 5557,
      "👊": 5558,
      "👌": 5559,
      "👍": 5560,
      "👎": 5561,
      "👏": 5562,
      "👤": 5563,
      "👧": 5564,
      "👨": 5565,
      "👱": 5566,
      "👻": 5567,
      "💀": 5568,
      "💃": 5569,
      "💋": 5570,
      "💌": 5571,
      "💐": 5572,
      "💓": 5573,
      "💔": 5574,
      "💕": 5575,
      "💖": 5576,
      "💘": 5577,
      "💥": 5578,
      "💦": 5579,
      "💪": 5580,
      "💯": 5581,
      "💿": 5582,
      "📢": 5583,
      "📷": 5584,
      "📻": 5585,
      "🔥": 5586,
      "🔱": 5587,
      "🕸": 5588,
      "🖕": 5589,
      "😀": 5590,
      "😁": 5591,
      "😂": 5592,
      "😃": 5593,
      "😄": 5594,
      "😅": 5595,
      "😆": 5596,
      "😇": 5597,
      "😈": 5598,
      "😉": 5599,
      "😊": 5600,
      "😋": 5601,
      "😍": 5602,
      "😎": 5603,
      "😏": 5604,
      "😐": 5605,
      "😑": 5606,
      "😒": 5607,
      "😓": 5608,
      "😔": 5609,
      "😖": 5610,
      "😘": 5611,
      "😙": 5612,
      "😛": 5613,
      "😜": 5614,
      "😝": 5615,
      "😞": 5616,
      "😟": 5617,
      "😠": 5618,
      "😡": 5619,
      "😢": 5620,
      "😤": 5621,
      "😥": 5622,
      "😦": 5623,
      "😪": 5624,
      "😫": 5625,
      "😭": 5626,
      "😮": 5627,
      "😯": 5628,
      "😰": 5629,
      "😲": 5630,
      "😳": 5631,
      "😶": 5632,
      "😹": 5633,
      "🙁": 5634,
      "🙂": 5635,
      "🙈": 5636,
      "🙉": 5637,
      "🙊": 5638,
      "🙋": 5639,
      "🙌": 5640,
      "🙏": 5641,
      "🚁": 5642,
      "🚨": 5643,
      "🚩": 5644,
      "🚫": 5645,
      "🤓": 5646,
      "🤔": 5647,
      "🤗": 5648,
      "🤚": 5649,
      "🤣": 5650,
      "🤦": 5651,
      "🤩": 5652,
      "🤪": 5653,
      "🧬": 5654,
      "𫿮": 5655,
      "𬧟": 5656,
      "𯪰": 5657,
      "𽩒": 5658,
      "𽩞": 5659,
      "𽲿": 5660,
      "񄂇": 5661,
      "񄔁": 5662,
      "񈌟": 5663,
      "񘦈": 5664,
      "񤔇": 5665,
      "񩈔": 5666,
      "񪺟": 5667,
      "񬊾": 5668,
      "񰎄": 5669,
      "񵒋": 5670,
      "񺦨": 5671,
      "񾘤": 5672,
      "򃃺": 5673,
      "򊪻": 5674,
      "򊼱": 5675,
      "򎐃": 5676,
      "򖳗": 5677,
      "򜮖": 5678,
      "򝠊": 5679,
      "򡔖": 5680,
      "򤨪": 5681,
      "򴶨": 5682,
      "򶑃": 5683,
      "򷪵": 5684,
      "󠅌": 5685,
      "󠆶": 5686,
      "󠆷": 5687,
      "󥡑": 5688,
      "##ै": 5689,
      "##ध": 5690,
      "##्": 5691,
      "##य": 5692,
      "##ह": 5693,
      "##र": 5694,
      "##ु": 5695,
      "##व": 5696,
      "##ा": 5697,
      "##ण": 5698,
      "##ड": 5699,
      "##क": 5700,
      "##छ": 5701,
      "##ट": 5702,
      "##इ": 5703,
      "##द": 5704,
      "##ि": 5705,
      "##ो": 5706,
      "##ञ": 5707,
      "##च": 5708,
      "##म": 5709,
      "##न": 5710,
      "##त": 5711,
      "##ी": 5712,
      "##स": 5713,
      "##ं": 5714,
      "##ँ": 5715,
      "##ग": 5716,
      "##फ": 5717,
      "##ल": 5718,
      "##५": 5719,
      "##८": 5720,
      "##९": 5721,
      "##ए": 5722,
      "##०": 5723,
      "##ई": 5724,
      "##ज": 5725,
      "##ओ": 5726,
      "##े": 5727,
      "##5": 5728,
      "##4": 5729,
      "##9": 5730,
      "##6": 5731,
      "##0": 5732,
      "##2": 5733,
      "##8": 5734,
      "##7": 5735,
      "##3": 5736,
      "##1": 5737,
      "##c": 5738,
      "##d": 5739,
      "##ू": 5740,
      "##प": 5741,
      "##f": 5742,
      "##ृ": 5743,
      "##ष": 5744,
      "##a": 5745,
      "##g": 5746,
      "##i": 5747,
      "##श": 5748,
      "##ع": 5749,
      "##و": 5750,
      "##ت": 5751,
      "##ब": 5752,
      "##ख": 5753,
      "##उ": 5754,
      "##ङ": 5755,
      "##भ": 5756,
      "##अ": 5757,
      "##घ": 5758,
      "##ज़": 5759,
      "##b": 5760,
      "##e": 5761,
      "##t": 5762,
      "##थ": 5763,
      "##ل": 5764,
      "##ـ": 5765,
      "##ش": 5766,
      "##ك": 5767,
      "##ا": 5768,
      "##ي": 5769,
      "##p": 5770,
      "##n": 5771,
      "##r": 5772,
      "##v": 5773,
      "##झ": 5774,
      "##ौ": 5775,
      "##ठ": 5776,
      "##ů": 5777,
      "##z": 5778,
      "##á": 5779,
      "##ढ": 5780,
      "##@": 5781,
      "##-": 5782,
      "##l": 5783,
      "##s": 5784,
      "##आ": 5785,
      "##m": 5786,
      "##u": 5787,
      "##h": 5788,
      "##o": 5789,
      "##k": 5790,
      "##ः": 5791,
      "##३": 5792,
      "##६": 5793,
      "##औ": 5794,
      "##x": 5795,
      "##१": 5796,
      "##ऊ": 5797,
      "##j": 5798,
      "##в": 5799,
      "##е": 5800,
      "##т": 5801,
      "##а": 5802,
      "##w": 5803,
      "##º": 5804,
      "##þ": 5805,
      "##ड़": 5806,
      "##р": 5807,
      "##к": 5808,
      "##и": 5809,
      "##४": 5810,
      "##ş": 5811,
      "##😯": 5812,
      "##<": 5813,
      "##/": 5814,
      "##ą": 5815,
      "##y": 5816,
      "##ॉ": 5817,
      "##़": 5818,
      "##_": 5819,
      "##.": 5820,
      "##]": 5821,
      "##>": 5822,
      "##७": 5823,
      "##д": 5824,
      "##с": 5825,
      "##п": 5826,
      "##о": 5827,
      "##л": 5828,
      "##ж": 5829,
      "##н": 5830,
      "##ь": 5831,
      "##२": 5832,
      "##?": 5833,
      "##ъ": 5834,
      "##м": 5835,
      "##ы": 5836,
      "##σ": 5837,
      "##ቧ": 5838,
      "##й": 5839,
      "##ä": 5840,
      "##…": 5841,
      "##+": 5842,
      "##ԣ": 5843,
      "##ր": 5844,
      "##ɿ": 5845,
      "##\\": 5846,
      "##\"": 5847,
      "##щ": 5848,
      "##خ": 5849,
      "##ر": 5850,
      "##ى": 5851,
      "##‐": 5852,
      "##‘": 5853,
      "##з": 5854,
      "##œ": 5855,
      "##*": 5856,
      "##б": 5857,
      "##ì": 5858,
      "##ি": 5859,
      "##ষ": 5860,
      "##প": 5861,
      "##া": 5862,
      "##ন": 5863,
      "##)": 5864,
      "##у": 5865,
      "##ű": 5866,
      "##』": 5867,
      "##ॊ": 5868,
      "##ʦ": 5869,
      "##あ": 5870,
      "##る": 5871,
      "##‛": 5872,
      "##ц": 5873,
      "##ô": 5874,
      "##’": 5875,
      "##,": 5876,
      "##ɕ": 5877,
      "##:": 5878,
      "##х": 5879,
      "##ʜ": 5880,
      "##ı": 5881,
      "##ض": 5882,
      "##!": 5883,
      "##%": 5884,
      "##г": 5885,
      "##ี": 5886,
      "##้": 5887,
      "##จ": 5888,
      "##ะ": 5889,
      "##เ": 5890,
      "##พ": 5891,
      "##ิ": 5892,
      "##่": 5893,
      "##ม": 5894,
      "##ร": 5895,
      "##า": 5896,
      "##ย": 5897,
      "##ช": 5898,
      "##ื": 5899,
      "##อ": 5900,
      "##ล": 5901,
      "##ู": 5902,
      "##ก": 5903,
      "##ค": 5904,
      "##ข": 5905,
      "##ง": 5906,
      "##ุ": 5907,
      "##ณ": 5908,
      "##ท": 5909,
      "##ใ": 5910,
      "##น": 5911,
      "##ต": 5912,
      "##ด": 5913,
      "##ส": 5914,
      "##ำ": 5915,
      "##ห": 5916,
      "##ั": 5917,
      "##บ": 5918,
      "##q": 5919,
      "##ƛ": 5920,
      "##ڑ": 5921,
      "##;": 5922,
      "##ح": 5923,
      "##د": 5924,
      "##ة": 5925,
      "##ی": 5926,
      "##я": 5927,
      "##(": 5928,
      "##ě": 5929,
      "##à": 5930,
      "##{": 5931,
      "##=": 5932,
      "##ǧ": 5933,
      "##ɇ": 5934,
      "##ф": 5935,
      "##ю": 5936,
      "##̾": 5937,
      "##ാ": 5938,
      "##ഫ": 5939,
      "##്": 5940,
      "##ш": 5941,
      "##ç": 5942,
      "##ȍ": 5943,
      "##'": 5944,
      "##ن": 5945,
      "##ں": 5946,
      "##ॅ": 5947,
      "##ऋ": 5948,
      "##é": 5949,
      "##ӽ": 5950,
      "##な": 5951,
      "##が": 5952,
      "##ら": 5953,
      "##̟": 5954,
      "##ص": 5955,
      "##ف": 5956,
      "##š": 5957,
      "##}": 5958,
      "##ੰ": 5959,
      "##ਸ": 5960,
      "##ਾ": 5961,
      "##ਰ": 5962,
      "##ਿ": 5963,
      "##ਕ": 5964,
      "##क़": 5965,
      "##ã": 5966,
      "##ʛ": 5967,
      "##í": 5968,
      "##ج": 5969,
      "##ˆ": 5970,
      "##э": 5971,
      "##ч": 5972,
      "##फ़": 5973,
      "##ê": 5974,
      "##ऱ": 5975,
      "##니": 5976,
      "##다": 5977,
      "##ॆ": 5978,
      "##ぜ": 5979,
      "##ն": 5980,
      "##թ": 5981,
      "##ա": 5982,
      "##կ": 5983,
      "##ե": 5984,
      "##լ": 5985,
      "##ス": 5986,
      "##テ": 5987,
      "##ム": 5988,
      "##で": 5989,
      "##も": 5990,
      "##ऐ": 5991,
      "##レ": 5992,
      "##ー": 5993,
      "##ボ": 5994,
      "##ル": 5995,
      "##א": 5996,
      "##ן": 5997,
      "##ق": 5998,
      "##ɑ": 5999,
      "##ɡ": 6000,
      "##̊": 6001,
      "##č": 6002,
      "##ñ": 6003,
      "##ਜ": 6004,
      "##ਪ": 6005,
      "##ੂ": 6006,
      "##ਤ": 6007,
      "##ԗ": 6008,
      "##ü": 6009,
      "##ö": 6010,
      "##ủ": 6011,
      "##ン": 6012,
      "##シ": 6013,
      "##ョ": 6014,
      "##ʼ": 6015,
      "##ര": 6016,
      "##െ": 6017,
      "##യ": 6018,
      "##േ": 6019,
      "##ഷ": 6020,
      "##ക": 6021,
      "##ത": 6022,
      "##ി": 6023,
      "##µ": 6024,
      "##`": 6025,
      "##👍": 6026,
      "##ò": 6027,
      "##̼": 6028,
      "##と": 6029,
      "##に": 6030,
      "##ऩ": 6031,
      "##ढ़": 6032,
      "##।": 6033,
      "##ث": 6034,
      "##ہ": 6035,
      "##ب": 6036,
      "##の": 6037,
      "##り": 6038,
      "##こ": 6039,
      "##え": 6040,
      "##て": 6041,
      "##[": 6042,
      "##ž": 6043,
      "##|": 6044,
      "##̱": 6045,
      "##す": 6046,
      "##ᤏ": 6047,
      "##ᤣ": 6048,
      "##ᤁ": 6049,
      "##ᤥ": 6050,
      "##م": 6051,
      "##ه": 6052,
      "##^": 6053,
      "##ﭨ": 6054,
      "##ó": 6055,
      "##і": 6056,
      "##ğ": 6057,
      "##ʸ": 6058,
      "##ɗ": 6059,
      "##ۡ": 6060,
      "##ٶ": 6061,
      "##ƺ": 6062,
      "##¡": 6063,
      "##기": 6064,
      "##가": 6065,
      "##ự": 6066,
      "##ɐ": 6067,
      "##ˈ": 6068,
      "##ʲ": 6069,
      "##ɪ": 6070,
      "##ϯ": 6071,
      "##ɳ": 6072,
      "##ҁ": 6073,
      "##ϙ": 6074,
      "##ট": 6075,
      "##য়": 6076,
      "##ϥ": 6077,
      "##•": 6078,
      "##ặ": 6079,
      "##ř": 6080,
      "##ć": 6081,
      "##ȅ": 6082,
      "##ǉ": 6083,
      "##”": 6084,
      "##¶": 6085,
      "##܋": 6086,
      "##ѻ": 6087,
      "##ː": 6088,
      "##ӥ": 6089,
      "##ɔ": 6090,
      "##&": 6091,
      "##ё": 6092,
      "##π": 6093,
      "##ε": 6094,
      "##ર": 6095,
      "##ે": 6096,
      "##ં": 6097,
      "##દ": 6098,
      "##્": 6099,
      "##ご": 6100,
      "##ø": 6101,
      "##ā": 6102,
      "##͞": 6103,
      "##γ": 6104,
      "##ݐ": 6105,
      "##ۨ": 6106,
      "##ӟ": 6107,
      "##ө": 6108,
      "##ই": 6109,
      "##گ": 6110,
      "##ਨ": 6111,
      "##υ": 6112,
      "##ν": 6113,
      "##τ": 6114,
      "##ί": 6115,
      "##α": 6116,
      "##η": 6117,
      "##ብ": 6118,
      "##리": 6119,
      "##즈": 6120,
      "##는": 6121,
      "##ő": 6122,
      "##ャ": 6123,
      "##ラ": 6124,
      "##แ": 6125,
      "##โ": 6126,
      "##ว": 6127,
      "##์": 6128,
      "##็": 6129,
      "##ไ": 6130,
      "##ซ": 6131,
      "##ป": 6132,
      "##ถ": 6133,
      "##य़": 6134,
      "##ऽ": 6135,
      "##͙": 6136,
      "##॥": 6137,
      "##カ": 6138,
      "##ഞ": 6139,
      "##ച": 6140,
      "##è": 6141,
      "##ù": 6142,
      "##た": 6143,
      "##ۚ": 6144,
      "##$": 6145,
      "##ɛ": 6146,
      "##հ": 6147,
      "##å": 6148,
      "##͐": 6149,
      "##ল": 6150,
      "##ে": 6151,
      "##ú": 6152,
      "##س": 6153,
      "##ئ": 6154,
      "##پ": 6155,
      "##ذ": 6156,
      "##ј": 6157,
      "##њ": 6158,
      "##ٺ": 6159,
      "##ੀ": 6160,
      "##감": 6161,
      "##을": 6162,
      "##ę": 6163,
      "##ի": 6164,
      "##ս": 6165,
      "##տ": 6166,
      "##ո": 6167,
      "##ւ": 6168,
      "##մ": 6169,
      "##ং": 6170,
      "##ο": 6171,
      "##꯭": 6172,
      "##パ": 6173,
      "##ィ": 6174,
      "##ऒ": 6175,
      "##イ": 6176,
      "##ロ": 6177,
      "##ケ": 6178,
      "##ể": 6179,
      "##գ": 6180,
      "##յ": 6181,
      "##ღ": 6182,
      "##ე": 6183,
      "##ლ": 6184,
      "##ტ": 6185,
      "##ხ": 6186,
      "##ი": 6187,
      "##ბ": 6188,
      "##ү": 6189,
      "##ッ": 6190,
      "##ト": 6191,
      "##ਮ": 6192,
      "##੍": 6193,
      "##̭": 6194,
      "##법": 6195,
      "##ʅ": 6196,
      "##ś": 6197,
      "##ٟ": 6198,
      "##݁": 6199,
      "##ԁ": 6200,
      "##벃": 6201,
      "##ˇ": 6202,
      "##ς": 6203,
      "##ݵ": 6204,
      "##ԅ": 6205,
      "##ੌ": 6206,
      "##̺": 6207,
      "##̌": 6208,
      "##ݓ": 6209,
      "##॔": 6210,
      "##˳": 6211,
      "##݋": 6212,
      "##ਸ਼": 6213,
      "##ਬ": 6214,
      "##ک": 6215,
      "##명": 6216,
      "##ʹ": 6217,
      "##ܸ": 6218,
      "##ڒ": 6219,
      "##ز": 6220,
      "##ട": 6221,
      "##ു": 6222,
      "##ം": 6223,
      "##ל": 6224,
      "##ב": 6225,
      "##ד": 6226,
      "##ॄ": 6227,
      "##~": 6228,
      "##ീ": 6229,
      "##മ": 6230,
      "##ന": 6231,
      "##റ": 6232,
      "##ͥ": 6233,
      "##ਗ": 6234,
      "##ੜ": 6235,
      "##ý": 6236,
      "##ӯ": 6237,
      "##ែ": 6238,
      "##ល": 6239,
      "##ព": 6240,
      "##ោ": 6241,
      "##រ": 6242,
      "##េ": 6243,
      "##ញ": 6244,
      "##ទ": 6245,
      "##ៅ": 6246,
      "##ដ": 6247,
      "##យ": 6248,
      "##ស": 6249,
      "##ម": 6250,
      "##ត": 6251,
      "##្": 6252,
      "##ថ": 6253,
      "##ភ": 6254,
      "##ា": 6255,
      "##ӿ": 6256,
      "##ʿ": 6257,
      "##ộ": 6258,
      "##ੇ": 6259,
      "##ਖ": 6260,
      "##ӑ": 6261,
      "##ѷ": 6262,
      "##ა": 6263,
      "##ს": 6264,
      "##წ": 6265,
      "##ვ": 6266,
      "##რ": 6267,
      "##´": 6268,
      "##남": 6269,
      "##스": 6270,
      "##타": 6271,
      "##일": 6272,
      "##¯": 6273,
      "##×": 6274,
      "##±": 6275,
      "##😞": 6276,
      "##뒲": 6277,
      "##エ": 6278,
      "##ų": 6279,
      "##ѯ": 6280,
      "##ビ": 6281,
      "###": 6282,
      "##ਠ": 6283,
      "##ਲ": 6284,
      "##ạ": 6285,
      "##ѿ": 6286,
      "##ド": 6287,
      "##থ": 6288,
      "##￥": 6289,
      "##ڿ": 6290,
      "##さ": 6291,
      "##い": 6292,
      "##ả": 6293,
      "##–": 6294,
      "##デ": 6295,
      "##ザ": 6296,
      "##ਂ": 6297,
      "##ë": 6298,
      "##ə": 6299,
      "##ݼ": 6300,
      "##َ": 6301,
      "##ט": 6302,
      "##ȭ": 6303,
      "##ӈ": 6304,
      "##۲": 6305,
      "##പ": 6306,
      "##എ": 6307,
      "##ޅ": 6308,
      "##ι": 6309,
      "##λ": 6310,
      "##ξ": 6311,
      "##ύ": 6312,
      "##μ": 6313,
      "##ż": 6314,
      "##し": 6315,
      "##́": 6316,
      "##“": 6317,
      "##χ": 6318,
      "##δ": 6319,
      "##ܻ": 6320,
      "##れ": 6321,
      "##ど": 6322,
      "##は": 6323,
      "##ク": 6324,
      "##リ": 6325,
      "##マ": 6326,
      "##ᤃ": 6327,
      "##᤻": 6328,
      "##ᤍ": 6329,
      "##ᤠ": 6330,
      "##ᤴ": 6331,
      "##י": 6332,
      "##מ": 6333,
      "##ו": 6334,
      "##ש": 6335,
      "##ư": 6336,
      "##ơ": 6337,
      "##݀": 6338,
      "##ρ": 6339,
      "##έ": 6340,
      "##ま": 6341,
      "##😂": 6342,
      "##🤣": 6343,
      "##̇": 6344,
      "##ԛ": 6345,
      "##ҏ": 6346,
      "##ڈ": 6347,
      "##ٹ": 6348,
      "##😫": 6349,
      "##ط": 6350,
      "##ɮ": 6351,
      "##ӹ": 6352,
      "##ї": 6353,
      "##ݝ": 6354,
      "##ҷ": 6355,
      "##র": 6356,
      "##ٛ": 6357,
      "##্": 6358,
      "##য": 6359,
      "##ѹ": 6360,
      "##ấ": 6361,
      "##か": 6362,
      "##け": 6363,
      "##ܒ": 6364,
      "##ے": 6365,
      "##ǎ": 6366,
      "##ؾ": 6367,
      "##뱻": 6368,
      "##ん": 6369,
      "##청": 6370,
      "##하": 6371,
      "##십": 6372,
      "##시": 6373,
      "##오": 6374,
      "##わ": 6375,
      "##き": 6376,
      "##ゃ": 6377,
      "##ね": 6378,
      "##ȟ": 6379,
      "##æ": 6380,
      "##ᤖ": 6381,
      "##く": 6382,
      "##だ": 6383,
      "##כ": 6384,
      "##נ": 6385,
      "##ת": 6386,
      "##쉬": 6387,
      "##ਚ": 6388,
      "##ڐ": 6389,
      "##ޮ": 6390,
      "##چ": 6391,
      "##ӭ": 6392,
      "##ۋ": 6393,
      "##ݩ": 6394,
      "##פ": 6395,
      "##ר": 6396,
      "##ק": 6397,
      "##ҙ": 6398,
      "##ð": 6399,
      "##🏾": 6400,
      "##♂": 6401,
      "##ۼ": 6402,
      "##ო": 6403,
      "##ǐ": 6404,
      "##ʝ": 6405,
      "##ベ": 6406,
      "##🎁": 6407,
      "##🌹": 6408,
      "##💘": 6409,
      "##ữ": 6410,
      "##ۏ": 6411,
      "##κ": 6412,
      "##ά": 6413,
      "##ǡ": 6414,
      "##ԫ": 6415,
      "##ޘ": 6416,
      "##っ": 6417,
      "##（": 6418,
      "##バ": 6419,
      "##を": 6420,
      "##そ": 6421,
      "##ậ": 6422,
      "##û": 6423,
      "##어": 6424,
      "##요": 6425,
      "##ত": 6426,
      "##ু": 6427,
      "##વ": 6428,
      "##સ": 6429,
      "##અ": 6430,
      "##݄": 6431,
      "##덌": 6432,
      "##습": 6433,
      "##ळ": 6434,
      "##ʕ": 6435,
      "##͛": 6436,
      "##֭": 6437,
      "##つ": 6438,
      "##߳": 6439,
      "##ď": 6440,
      "##ܙ": 6441,
      "##қ": 6442,
      "##ប": 6443,
      "##ន": 6444,
      "##ឆ": 6445,
      "##ង": 6446,
      "##ក": 6447,
      "##់": 6448,
      "##ց": 6449,
      "##ʌ": 6450,
      "##»": 6451,
      "##ߧ": 6452,
      "##ǜ": 6453,
      "##せ": 6454,
      "##🇺": 6455,
      "##ƣ": 6456,
      "##ৈ": 6457,
      "##শ": 6458,
      "##খ": 6459,
      "##؟": 6460,
      "##ế": 6461,
      "##회": 6462,
      "##참": 6463,
      "##여": 6464,
      "##를": 6465,
      "##݅": 6466,
      "##좒": 6467,
      "##ꣳ": 6468,
      "##—": 6469,
      "##ふ": 6470,
      "##う": 6471,
      "##ߔ": 6472,
      "##ॴ": 6473,
      "##ń": 6474,
      "##의": 6475,
      "##한": 6476,
      "##ȇ": 6477,
      "##ブ": 6478,
      "##ỗ": 6479,
      "##ṇ": 6480,
      "##ḍ": 6481,
      "##뵪": 6482,
      "##ყ": 6483,
      "##თ": 6484,
      "##ȧ": 6485,
      "##よ": 6486,
      "##장": 6487,
      "##에": 6488,
      "##ị": 6489,
      "##̅": 6490,
      "##ژ": 6491,
      "##ܦ": 6492,
      "##ॡ": 6493,
      "##̹": 6494,
      "##ǿ": 6495,
      "##ޫ": 6496,
      "##グ": 6497,
      "##ח": 6498,
      "##ె": 6499,
      "##ల": 6500,
      "##ు": 6501,
      "##గ": 6502,
      "##أ": 6503,
      "##튜": 6504,
      "##브": 6505,
      "##შ": 6506,
      "##😡": 6507,
      "##۠": 6508,
      "##ք": 6509,
      "##վ": 6510,
      "##۹": 6511,
      "##۴": 6512,
      "##۳": 6513,
      "##ʤ": 6514,
      "##ĭ": 6515,
      "##セ": 6516,
      "##∕": 6517,
      "##ǀ": 6518,
      "##ω": 6519,
      "##ή": 6520,
      "##ầ": 6521,
      "##ȶ": 6522,
      "##コ": 6523,
      "##ԍ": 6524,
      "##😀": 6525,
      "##ক": 6526,
      "##ব": 6527,
      "##স": 6528,
      "##ী": 6529,
      "##확": 6530,
      "##ī": 6531,
      "##î": 6532,
      "##ޜ": 6533,
      "##ע": 6534,
      "##、": 6535,
      "##ѩ": 6536,
      "##ټ": 6537,
      "##ར": 6538,
      "##ƨ": 6539,
      "##ͻ": 6540,
      "##ֹ": 6541,
      "##😄": 6542,
      "##✍": 6543,
      "##자": 6544,
      "##인": 6545,
      "##으": 6546,
      "##로": 6547,
      "##֓": 6548,
      "##タ": 6549,
      "##ɟ": 6550,
      "##ᤧ": 6551,
      "##զ": 6552,
      "##ʖ": 6553,
      "##ѭ": 6554,
      "##҉": 6555,
      "##͌": 6556,
      "##ọ": 6557,
      "##ȋ": 6558,
      "##ʰ": 6559,
      "##ჯ": 6560,
      "##ۖ": 6561,
      "##ǆ": 6562,
      "##ホ": 6563,
      "##ޑ": 6564,
      "##ੈ": 6565,
      "##쌶": 6566,
      "##দ": 6567,
      "##ধ": 6568,
      "##ߎ": 6569,
      "##ǁ": 6570,
      "##ʏ": 6571,
      "##̯": 6572,
      "##ݷ": 6573,
      "##ǣ": 6574,
      "##ও": 6575,
      "##ٲ": 6576,
      "##드": 6577,
      "##მ": 6578,
      "##დ": 6579,
      "##구": 6580,
      "##들": 6581,
      "##֚": 6582,
      "##ძ": 6583,
      "##ï": 6584,
      "##ß": 6585,
      "##ۙ": 6586,
      "##̫": 6587,
      "##ծ": 6588,
      "##ܰ": 6589,
      "##ệ": 6590,
      "##򡔖": 6591,
      "##ុ": 6592,
      "##វ": 6593,
      "##ិ": 6594,
      "##ធ": 6595,
      "##ី": 6596,
      "##ច": 6597,
      "##អ": 6598,
      "##៊": 6599,
      "##ំ": 6600,
      "##ª": 6601,
      "##안": 6602,
      "##ޒ": 6603,
      "##プ": 6604,
      "##ҵ": 6605,
      "##ӻ": 6606,
      "##ѵ": 6607,
      "##ѫ": 6608,
      "##۔": 6609,
      "##ℷ": 6610,
      "##ň": 6611,
      "##҈": 6612,
      "##ۘ": 6613,
      "##۟": 6614,
      "##ظ": 6615,
      "##ł": 6616,
      "##ō": 6617,
      "##ნ": 6618,
      "##ܜ": 6619,
      "##ă": 6620,
      "##՘": 6621,
      "##ศ": 6622,
      "##ภ": 6623,
      "##ち": 6624,
      "##オ": 6625,
      "##٧": 6626,
      "##ɩ": 6627,
      "##ֵ": 6628,
      "##ᤜ": 6629,
      "##ᤡ": 6630,
      "##ᤗ": 6631,
      "##😆": 6632,
      "##ǳ": 6633,
      "##ĩ": 6634,
      "##߄": 6635,
      "##ۍ": 6636,
      "##β": 6637,
      "##ē": 6638,
      "##ニ": 6639,
      "##ア": 6640,
      "##チ": 6641,
      "##ĺ": 6642,
      "##ʵ": 6643,
      "##ζ": 6644,
      "##ƅ": 6645,
      "##߬": 6646,
      "##ƭ": 6647,
      "##ึ": 6648,
      "##ỳ": 6649,
      "##ÿ": 6650,
      "##ƥ": 6651,
      "##ǥ": 6652,
      "##ើ": 6653,
      "##ǹ": 6654,
      "##ʊ": 6655,
      "##지": 6656,
      "##사": 6657,
      "##항": 6658,
      "##소": 6659,
      "##업": 6660,
      "##중": 6661,
      "##앙": 6662,
      "##ތ": 6663,
      "##💥": 6664,
      "##ʫ": 6665,
      "##ŕ": 6666,
      "##등": 6667,
      "##ը": 6668,
      "##չ": 6669,
      "##͡": 6670,
      "##হ": 6671,
      "##ŀ": 6672,
      "##߁": 6673,
      "##ϔ": 6674,
      "##ɖ": 6675,
      "##პ": 6676,
      "##÷": 6677,
      "##ミ": 6678,
      "##ϣ": 6679,
      "##✔": 6680,
      "##😁": 6681,
      "##フ": 6682,
      "##ƍ": 6683,
      "##غ": 6684,
      "##ੋ": 6685,
      "##͈": 6686,
      "##֑": 6687,
      "##ګ": 6688,
      "##ɶ": 6689,
      "##١": 6690,
      "##셍": 6691,
      "##̲": 6692,
      "##ờ": 6693,
      "##ো": 6694,
      "##ӓ": 6695,
      "##ٴ": 6696,
      "##ם": 6697,
      "##🙏": 6698,
      "##🌿": 6699,
      "##ਧ": 6700,
      "##김": 6701,
      "##이": 6702,
      "##😇": 6703,
      "##̶": 6704,
      "##ӷ": 6705,
      "##ӵ": 6706,
      "##ė": 6707,
      "##ކ": 6708,
      "##ݕ": 6709,
      "##ّ": 6710,
      "##ϟ": 6711,
      "##ダ": 6712,
      "##ņ": 6713,
      "##ম": 6714,
      "##ろ": 6715,
      "##ݱ": 6716,
      "##ݒ": 6717,
      "##φ": 6718,
      "##😃": 6719,
      "##݆": 6720,
      "##ᡬ": 6721,
      "##ċ": 6722,
      "##ވ": 6723,
      "##ޝ": 6724,
      "##ް": 6725,
      "##ớ": 6726,
      "##천": 6727,
      "##종": 6728,
      "##합": 6729,
      "##운": 6730,
      "##동": 6731,
      "##ό": 6732,
      "##̔": 6733,
      "##സ": 6734,
      "##ഡ": 6735,
      "##ུ": 6736,
      "##བ": 6737,
      "##😠": 6738,
      "##ź": 6739,
      "##٪": 6740,
      "##ϼ": 6741,
      "##ބ": 6742,
      "##😐": 6743,
      "##ȗ": 6744,
      "##ঝ": 6745,
      "##√": 6746,
      "##ώ": 6747,
      "##ǯ": 6748,
      "##ޕ": 6749,
      "##😙": 6750,
      "##☺": 6751,
      "##߿": 6752,
      "##ẵ": 6753,
      "##બ": 6754,
      "##ા": 6755,
      "##હ": 6756,
      "##ત": 6757,
      "##͝": 6758,
      "##٨": 6759,
      "##ڞ": 6760,
      "##サ": 6761,
      "##ۻ": 6762,
      "##უ": 6763,
      "##კ": 6764,
      "##ͭ": 6765,
      "##ֲ": 6766,
      "##͕": 6767,
      "##🤗": 6768,
      "##ォ": 6769,
      "##９": 6770,
      "##∙": 6771,
      "##じ": 6772,
      "##ฟ": 6773,
      "##๊": 6774,
      "##ษ": 6775,
      "##ญ": 6776,
      "##융": 6777,
      "##투": 6778,
      "##계": 6779,
      "##׀": 6780,
      "##ƻ": 6781,
      "##ߒ": 6782,
      "##お": 6783,
      "##은": 6784,
      "##ג": 6785,
      "##😏": 6786,
      "##✌": 6787,
      "##ƀ": 6788,
      "##̪": 6789,
      "##ʃ": 6790,
      "##ٳ": 6791,
      "##ྤ": 6792,
      "##⁄": 6793,
      "##ҽ": 6794,
      "##🇳": 6795,
      "##߇": 6796,
      "##거": 6797,
      "##나": 6798,
      "##ڸ": 6799,
      "##ԥ": 6800,
      "##ُ": 6801,
      "##ה": 6802,
      "##ॠ": 6803,
      "##ס": 6804,
      "##߷": 6805,
      "##ぐ": 6806,
      "##ְ": 6807,
      "##ȴ": 6808,
      "##˅": 6809,
      "##😜": 6810,
      "##֜": 6811,
      "##ϒ": 6812,
      "##জ": 6813,
      "##ڍ": 6814,
      "##ĳ": 6815,
      "##ử": 6816,
      "##🙁": 6817,
      "##ュ": 6818,
      "##🌙": 6819,
      "##є": 6820,
      "##차": 6821,
      "##ལ": 6822,
      "##ྟ": 6823,
      "##ི": 6824,
      "##ས": 6825,
      "##ན": 6826,
      "##̏": 6827,
      "##ネ": 6828,
      "##고": 6829,
      "##ば": 6830,
      "##צ": 6831,
      "##출": 6832,
      "##â": 6833,
      "##ɨ": 6834,
      "##ߌ": 6835,
      "##ƌ": 6836,
      "##ݾ": 6837,
      "##🏻": 6838,
      "##񘦈": 6839,
      "##ៀ": 6840,
      "##ួ": 6841,
      "##ះ": 6842,
      "##ѽ": 6843,
      "##ȏ": 6844,
      "##ץ": 6845,
      "##փ": 6846,
      "##̓": 6847,
      "##ǂ": 6848,
      "##آ": 6849,
      "##ﾧ": 6850,
      "##ជ": 6851,
      "##ϧ": 6852,
      "##֡": 6853,
      "##ߜ": 6854,
      "##𖾄": 6855,
      "##ồ": 6856,
      "##ܘ": 6857,
      "##ʑ": 6858,
      "##글": 6859,
      "##ϫ": 6860,
      "##😈": 6861,
      "##ܡ": 6862,
      "##민": 6863,
      "##국": 6864,
      "##՛": 6865,
      "##점": 6866,
      "##ߴ": 6867,
      "##「": 6868,
      "##܍": 6869,
      "##ེ": 6870,
      "##🇵": 6871,
      "##ʪ": 6872,
      "##ݢ": 6873,
      "##ȃ": 6874,
      "##ʺ": 6875,
      "##ڨ": 6876,
      "##ऑ": 6877,
      "##ɦ": 6878,
      "##൒": 6879,
      "##ഭ": 6880,
      "##ൂ": 6881,
      "##വ": 6882,
      "##񤔇": 6883,
      "##최": 6884,
      "##񵒋": 6885,
      "##̀": 6886,
      "##͚": 6887,
      "##ৃ": 6888,
      "##ോ": 6889,
      "##ً": 6890,
      "##ڪ": 6891,
      "##ھ": 6892,
      "##॰": 6893,
      "##օ": 6894,
      "##간": 6895,
      "##͖": 6896,
      "##۵": 6897,
      "##۷": 6898,
      "##ٻ": 6899,
      "##ऎ": 6900,
      "##൓": 6901,
      "##†": 6902,
      "##ঘ": 6903,
      "##집": 6904,
      "##ঠ": 6905,
      "##ҋ": 6906,
      "##め": 6907,
      "##ธ": 6908,
      "##៏": 6909,
      "##ҥ": 6910,
      "##޲": 6911,
      "##ం": 6912,
      "##ా": 6913,
      "##ణ": 6914,
      "##ܗ": 6915,
      "##ܪ": 6916,
      "##ܝ": 6917,
      "##ܢ": 6918,
      "##ڮ": 6919,
      "##۸": 6920,
      "##ͺ": 6921,
      "##ṅ": 6922,
      "##ʠ": 6923,
      "##ƙ": 6924,
      "##영": 6925,
      "##ܔ": 6926,
      "##ͱ": 6927,
      "##۫": 6928,
      "##🇹": 6929,
      "##ԇ": 6930,
      "##ɸ": 6931,
      "##ԑ": 6932,
      "##💿": 6933,
      "##ׅ": 6934,
      "##ɫ": 6935,
      "##ֆ": 6936,
      "##ڳ": 6937,
      "##ǭ": 6938,
      "##̎": 6939,
      "##ബ": 6940,
      "##ഹ": 6941,
      "##۾": 6942,
      "##ਢ": 6943,
      "##ਆ": 6944,
      "##િ": 6945,
      "##એ": 6946,
      "##પ": 6947,
      "##ો": 6948,
      "##ઇ": 6949,
      "##ન": 6950,
      "##ǩ": 6951,
      "##ᵻ": 6952,
      "##ˌ": 6953,
      "##ভ": 6954,
      "##গ": 6955,
      "##ֱ": 6956,
      "##ʔ": 6957,
      "##ポ": 6958,
      "##ウ": 6959,
      "##ʗ": 6960,
      "##ܱ": 6961,
      "##，": 6962,
      "##٬": 6963,
      "##ݶ": 6964,
      "##ָ": 6965,
      "##ׁ": 6966,
      "##ִ": 6967,
      "##ַ": 6968,
      "##ᑀ": 6969,
      "##ݻ": 6970,
      "##ģ": 6971,
      "##😰": 6972,
      "##🧬": 6973,
      "##֍": 6974,
      "##ਹ": 6975,
      "##과": 6976,
      "##변": 6977,
      "##ܓ": 6978,
      "##ђ": 6979,
      "##😊": 6980,
      "##닝": 6981,
      "##ग़": 6982,
      "##ἆ": 6983,
      "##ԙ": 6984,
      "##ڦ": 6985,
      "##֯": 6986,
      "##ॐ": 6987,
      "##꯬": 6988,
      "##ੁ": 6989,
      "##み": 6990,
      "##🇩": 6991,
      "##߰": 6992,
      "##ზ": 6993,
      "##გ": 6994,
      "##ڴ": 6995,
      "##ꗿ": 6996,
      "##ގ": 6997,
      "##ҕ": 6998,
      "##복": 6999,
      "##ছ": 7000,
      "##･": 7001,
      "##ҹ": 7002,
      "##٣": 7003,
      "##ƾ": 7004,
      "##징": 7005,
      "##ՙ": 7006,
      "##레": 7007,
      "##현": 7008,
      "##필": 7009,
      "##터": 7010,
      "##템": 7011,
      "##ԕ": 7012,
      "##؋": 7013,
      "##ך": 7014,
      "##ؠ": 7015,
      "##ܷ": 7016,
      "##ӧ": 7017,
      "##߂": 7018,
      "##ޙ": 7019,
      "##ˊ": 7020,
      "##😝": 7021,
      "##😉": 7022,
      "##😲": 7023,
      "##😖": 7024,
      "##ͨ": 7025,
      "##ؖ": 7026,
      "##ɲ": 7027,
      "##짱": 7028,
      "##¬": 7029,
      "##ϲ": 7030,
      "##ꍽ": 7031,
      "##ʭ": 7032,
      "##ˀ": 7033,
      "##キ": 7034,
      "##트": 7035,
      "##워": 7036,
      "##크": 7037,
      "##뿐": 7038,
      "##ഐ": 7039,
      "##ϳ": 7040,
      "##✓": 7041,
      "##🚩": 7042,
      "##⚠": 7043,
      "##ء": 7044,
      "##직": 7045,
      "##ゆ": 7046,
      "##상": 7047,
      "##̋": 7048,
      "##ェ": 7049,
      "##티": 7050,
      "##ហ": 7051,
      "##គ": 7052,
      "##ខ": 7053,
      "##ូ": 7054,
      "##đ": 7055,
      "##ڡ": 7056,
      "##џ": 7057,
      "##턂": 7058,
      "##ψ": 7059,
      "##ٕ": 7060,
      "##ީ": 7061,
      "##õ": 7062,
      "##ᤘ": 7063,
      "##ナ": 7064,
      "##ͯ": 7065,
      "##ћ": 7066,
      "##ޢ": 7067,
      "##̘": 7068,
      "##ŝ": 7069,
      "##ӗ": 7070,
      "##ջ": 7071,
      "##ޖ": 7072,
      "##ǽ": 7073,
      "##ӫ": 7074,
      "##ܨ": 7075,
      "##ਵ": 7076,
      "##ジ": 7077,
      "##۱": 7078,
      "##ˋ": 7079,
      "##ͽ": 7080,
      "##へ": 7081,
      "##≈": 7082,
      "##너": 7083,
      "##̍": 7084,
      "##˜": 7085,
      "##독": 7086,
      "##ắ": 7087,
      "##̬": 7088,
      "##ჭ": 7089,
      "##ụ": 7090,
      "##ỡ": 7091,
      "##프": 7092,
      "##런": 7093,
      "##ひ": 7094,
      "##ぃ": 7095,
      "##ѧ": 7096,
      "##۰": 7097,
      "##ِ": 7098,
      "##ْ": 7099,
      "##ƹ": 7100,
      "##ԉ": 7101,
      "##˺": 7102,
      "##😢": 7103,
      "##￼": 7104,
      "##ʒ": 7105,
      "##ﲥ": 7106,
      "##ݣ": 7107,
      "##😅": 7108,
      "##ȣ": 7109,
      "##ṃ": 7110,
      "##ӊ": 7111,
      "##ʥ": 7112,
      "##ѣ": 7113,
      "##ქ": 7114,
      "##ӣ": 7115,
      "##݇": 7116,
      "##́": 7117,
      "##̻": 7118,
      "##ԟ": 7119,
      "##ዢ": 7120,
      "##ߐ": 7121,
      "##ݭ": 7122,
      "##ޭ": 7123,
      "##ﴌ": 7124,
      "##」": 7125,
      "##༻": 7126,
      "##ښ": 7127,
      "##ҳ": 7128,
      "##θ": 7129,
      "##👈": 7130,
      "##ԏ": 7131,
      "##ˏ": 7132,
      "##홈": 7133,
      "##😒": 7134,
      "##ノ": 7135,
      "##ハ": 7136,
      "##납": 7137,
      "##할": 7138,
      "##떻": 7139,
      "##게": 7140,
      "##ǚ": 7141,
      "##능": 7142,
      "##력": 7143,
      "##۬": 7144,
      "##ֶ": 7145,
      "##̃": 7146,
      "##✋": 7147,
      "##や": 7148,
      "##단": 7149,
      "##ჩ": 7150,
      "##♪": 7151,
      "##̒": 7152,
      "##ề": 7153,
      "##🏼": 7154,
      "##💃": 7155,
      "##🎼": 7156,
      "##🎹": 7157,
      "##🎤": 7158,
      "##۶": 7159,
      "##ݪ": 7160,
      "##ې": 7161,
      "##ʾ": 7162,
      "##ΐ": 7163,
      "##ݞ": 7164,
      "##ƴ": 7165,
      "##ڊ": 7166,
      "##べ": 7167,
      "##ꑝ": 7168,
      "##ʎ": 7169,
      "##ז": 7170,
      "##ˠ": 7171,
      "##ݡ": 7172,
      "##키": 7173,
      "##며": 7174,
      "##،": 7175,
      "##ｏ": 7176,
      "##ｍ": 7177,
      "##ｅ": 7178,
      "##🌺": 7179,
      "##£": 7180,
      "##ͳ": 7181,
      "##『": 7182,
      "##ܹ": 7183,
      "##➥": 7184,
      "##ͷ": 7185,
      "##һ": 7186,
      "##🇷": 7187,
      "##ֽ": 7188,
      "##ނ": 7189,
      "##대": 7190,
      "##ʉ": 7191,
      "##߀": 7192,
      "##མ": 7193,
      "##ĵ": 7194,
      "##ŋ": 7195,
      "##ʁ": 7196,
      "##܆": 7197,
      "##ϭ": 7198,
      "##ਈ": 7199,
      "##실": 7200,
      "##ȷ": 7201,
      "##없": 7202,
      "##ڀ": 7203,
      "##ങ": 7204,
      "##ਦ": 7205,
      "##롰": 7206,
      "##울": 7207,
      "##ٙ": 7208,
      "##ᇟ": 7209,
      "##ở": 7210,
      "##׊": 7211,
      "##̄": 7212,
      "##−": 7213,
      "##ਭ": 7214,
      "##🇮": 7215,
      "##ぞ": 7216,
      "##ԧ": 7217,
      "##͋": 7218,
      "##ਡ": 7219,
      "##ȯ": 7220,
      "##ׇ": 7221,
      "##ɒ": 7222,
      "##왔": 7223,
      "##ū": 7224,
      "##ڽ": 7225,
      "##̖": 7226,
      "##ऴ": 7227,
      "##서": 7228,
      "##ۊ": 7229,
      "##ť": 7230,
      "##ӏ": 7231,
      "##허": 7232,
      "##‚": 7233,
      "##ѝ": 7234,
      "##͔": 7235,
      "##ṵ": 7236,
      "##ˡ": 7237,
      "##。": 7238,
      "##ڬ": 7239,
      "##ਅ": 7240,
      "##래": 7241,
      "##🇱": 7242,
      "##ۗ": 7243,
      "##껴": 7244,
      "##져": 7245,
      "##߉": 7246,
      "##ɽ": 7247,
      "##ٜ": 7248,
      "##ͼ": 7249,
      "##ぱ": 7250,
      "##ܳ": 7251,
      "##🇸": 7252,
      "##🇪": 7253,
      "##󠅌": 7254,
      "##׬": 7255,
      "##ǝ": 7256,
      "##ؤ": 7257,
      "##ҫ": 7258,
      "##ѐ": 7259,
      "##ឯ": 7260,
      "##ߑ": 7261,
      "##ペ": 7262,
      "##֦": 7263,
      "##ᤔ": 7264,
      "##ᤵ": 7265,
      "##ᤋ": 7266,
      "##٦": 7267,
      "##ɚ": 7268,
      "##޳": 7269,
      "##ʱ": 7270,
      "##᝚": 7271,
      "##월": 7272,
      "##ҍ": 7273,
      "##០": 7274,
      "##១": 7275,
      "##៨": 7276,
      "##ﾥ": 7277,
      "##˹": 7278,
      "##ϩ": 7279,
      "##॒": 7280,
      "##ড়": 7281,
      "##ɉ": 7282,
      "##ȑ": 7283,
      "##ʧ": 7284,
      "##０": 7285,
      "##ꊣ": 7286,
      "##💕": 7287,
      "##ȳ": 7288,
      "##׫": 7289,
      "##ਥ": 7290,
      "##전": 7291,
      "##ȁ": 7292,
      "##―": 7293,
      "##극": 7294,
      "##적": 7295,
      "##˚": 7296,
      "##˶": 7297,
      "##񺦨": 7298,
      "##ƽ": 7299,
      "##׿": 7300,
      "##제": 7301,
      "##작": 7302,
      "##ܑ": 7303,
      "##급": 7304,
      "##ԩ": 7305,
      "##ۛ": 7306,
      "##ٖ": 7307,
      "##݊": 7308,
      "##޶": 7309,
      "##👎": 7310,
      "##ܶ": 7311,
      "##❤": 7312,
      "##޻": 7313,
      "##ꌍ": 7314,
      "##ᚔ": 7315,
      "##정": 7316,
      "##부": 7317,
      "##역": 7318,
      "##˦": 7319,
      "##ĥ": 7320,
      "##ʩ": 7321,
      "##ܭ": 7322,
      "##ǖ": 7323,
      "##メ": 7324,
      "##ǟ": 7325,
      "##ឲ": 7326,
      "##【": 7327,
      "##ક": 7328,
      "##ൈ": 7329,
      "##ല": 7330,
      "##ണ": 7331,
      "##견": 7332,
      "##ʳ": 7333,
      "##ɍ": 7334,
      "##᪰": 7335,
      "##쇁": 7336,
      "##͠": 7337,
      "##ۆ": 7338,
      "##ܐ": 7339,
      "##⨿": 7340,
      "##ࡡ": 7341,
      "##ٽ": 7342,
      "##ۓ": 7343,
      "##ֈ": 7344,
      "##ぴ": 7345,
      "##ꭹ": 7346,
      "##͟": 7347,
      "##ڢ": 7348,
      "##도": 7349,
      "##ސ": 7350,
      "##܁": 7351,
      "##☆": 7352,
      "##ƚ": 7353,
      "##재": 7354,
      "##문": 7355,
      "##ਣ": 7356,
      "##ɠ": 7357,
      "##ٵ": 7358,
      "##주": 7359,
      "##노": 7360,
      "##조": 7361,
      "##짗": 7362,
      "##འ": 7363,
      "##ꁝ": 7364,
      "##ｐ": 7365,
      "##򤨪": 7366,
      "##７": 7367,
      "##ԭ": 7368,
      "##굼": 7369,
      "##ℑ": 7370,
      "##¼": 7371,
      "##ぎ": 7372,
      "##ȓ": 7373,
      "##ᡱ": 7374,
      "##ӕ": 7375,
      "##해": 7376,
      "##ｔ": 7377,
      "##ｗ": 7378,
      "##ｒ": 7379,
      "##ｋ": 7380,
      "##🖕": 7381,
      "##҆": 7382,
      "##ദ": 7383,
      "##ഥ": 7384,
      "##ғ": 7385,
      "##ݥ": 7386,
      "##ϛ": 7387,
      "##ޔ": 7388,
      "##ʆ": 7389,
      "##ț": 7390,
      "##߆": 7391,
      "##ڇ": 7392,
      "##ẽ": 7393,
      "##﹯": 7394,
      "##ڤ": 7395,
      "##ӱ": 7396,
      "##라": 7397,
      "##샵": 7398,
      "##ܿ": 7399,
      "##ȉ": 7400,
      "##ɞ": 7401,
      "##ऍ": 7402,
      "##ർ": 7403,
      "##ӳ": 7404,
      "##ங": 7405,
      "##்": 7406,
      "##க": 7407,
      "##ள": 7408,
      "##ு": 7409,
      "##ѥ": 7410,
      "##ฉ": 7411,
      "##혐": 7412,
      "##ҭ": 7413,
      "##ヘ": 7414,
      "##럽": 7415,
      "##론": 7416,
      "##관": 7417,
      "##낣": 7418,
      "##޽": 7419,
      "##ӝ": 7420,
      "##ٚ": 7421,
      "##ĝ": 7422,
      "##ず": 7423,
      "##½": 7424,
      "##߱": 7425,
      "##ુ": 7426,
      "##જ": 7427,
      "##ી": 7428,
      "##܎": 7429,
      "##ぼ": 7430,
      "##̸": 7431,
      "##ɣ": 7432,
      "##҄": 7433,
      "##ﾪ": 7434,
      "##톤": 7435,
      "##ϸ": 7436,
      "##̥": 7437,
      "##경": 7438,
      "##ѱ": 7439,
      "##ც": 7440,
      "##ŏ": 7441,
      "##♦": 7442,
      "##ݑ": 7443,
      "##탄": 7444,
      "##년": 7445,
      "##ꋩ": 7446,
      "##ܼ": 7447,
      "##ᠽ": 7448,
      "##ꭷ": 7449,
      "##려": 7450,
      "##야": 7451,
      "##ؙ": 7452,
      "##ݲ": 7453,
      "##߃": 7454,
      "##쳎": 7455,
      "##갥": 7456,
      "##ǃ": 7457,
      "##ꑿ": 7458,
      "##⃣": 7459,
      "##원": 7460,
      "##љ": 7461,
      "##ƕ": 7462,
      "##ͬ": 7463,
      "##ޏ": 7464,
      "##ॢ": 7465,
      "##ڎ": 7466,
      "##͊": 7467,
      "##ڙ": 7468,
      "##ƶ": 7469,
      "##֠": 7470,
      "##💐": 7471,
      "##욎": 7472,
      "##🇾": 7473,
      "##ཆ": 7474,
      "##ོ": 7475,
      "##ད": 7476,
      "##ݧ": 7477,
      "##ഖ": 7478,
      "##إ": 7479,
      "##식": 7480,
      "##ѓ": 7481,
      "##ױ": 7482,
      "##ݴ": 7483,
      "##চ": 7484,
      "##ڰ": 7485,
      "##양": 7486,
      "##«": 7487,
      "##٭": 7488,
      "##쏿": 7489,
      "##치": 7490,
      "##݂": 7491,
      "##ʬ": 7492,
      "##¢": 7493,
      "##ੱ": 7494,
      "##ߋ": 7495,
      "##ґ": 7496,
      "##׃": 7497,
      "##ޞ": 7498,
      "##🏽": 7499,
      "##ە": 7500,
      "##ӌ": 7501,
      "##ޥ": 7502,
      "##̈́": 7503,
      "##ঃ": 7504,
      "##ڔ": 7505,
      "##ڱ": 7506,
      "##҂": 7507,
      "##ܽ": 7508,
      "##ṭ": 7509,
      "##°": 7510,
      "##ਟ": 7511,
      "##닦": 7512,
      "##ȥ": 7513,
      "##ｌ": 7514,
      "##ｇ": 7515,
      "##핕": 7516,
      "##ͩ": 7517,
      "##¨": 7518,
      "##퍦": 7519,
      "##ྴ": 7520,
      "##ݚ": 7521,
      "##ּ": 7522,
      "##ꍱ": 7523,
      "##ɾ": 7524,
      "##∀": 7525,
      "##🌻": 7526,
      "##ố": 7527,
      "##߲": 7528,
      "##̴": 7529,
      "##ͣ": 7530,
      "##ﻘ": 7531,
      "##ァ": 7532,
      "##ҝ": 7533,
      "##ߨ": 7534,
      "##용": 7535,
      "##ľ": 7536,
      "##ǌ": 7537,
      "##޿": 7538,
      "##✊": 7539,
      "##ٸ": 7540,
      "##화": 7541,
      "##۪": 7542,
      "##̝": 7543,
      "##ȼ": 7544,
      "##׮": 7545,
      "##ꇯ": 7546,
      "##ঁ": 7547,
      "##আ": 7548,
      "##ާ": 7549,
      "##ڂ": 7550,
      "##֣": 7551,
      "##ĉ": 7552,
      "##ܧ": 7553,
      "##ӆ": 7554,
      "##շ": 7555,
      "##٩": 7556,
      "##쯬": 7557,
      "##ꡝ": 7558,
      "##ߏ": 7559,
      "##񩈔": 7560,
      "##̮": 7561,
      "##ѡ": 7562,
      "##ϗ": 7563,
      "##️": 7564,
      "##👉": 7565,
      "##֝": 7566,
      "##ɀ": 7567,
      "##ϊ": 7568,
      "##ރ": 7569,
      "##베": 7570,
      "##킹": 7571,
      "##ﶂ": 7572,
      "##🏦": 7573,
      "##ә": 7574,
      "##ʢ": 7575,
      "##ユ": 7576,
      "##ꭝ": 7577,
      "##ި": 7578,
      "##진": 7579,
      "##ŷ": 7580,
      "##ড": 7581,
      "##խ": 7582,
      "##֖": 7583,
      "##ผ": 7584,
      "##폿": 7585,
      "##ᄋ": 7586,
      "##ﴼ": 7587,
      "##ũ": 7588,
      "##ޓ": 7589,
      "##썮": 7590,
      "##ٱ": 7591,
      "##ܕ": 7592,
      "##😮": 7593,
      "##ұ": 7594,
      "##ほ": 7595,
      "##👏": 7596,
      "##ږ": 7597,
      "##ۧ": 7598,
      "##લ": 7599,
      "##ｂ": 7600,
      "##ａ": 7601,
      "##ៃ": 7602,
      "##ផ": 7603,
      "##ߍ": 7604,
      "##ヶ": 7605,
      "##ꕄ": 7606,
      "##್": 7607,
      "##ರ": 7608,
      "##ವ": 7609,
      "##ಣ": 7610,
      "##ಬ": 7611,
      "##ೆ": 7612,
      "##ಳ": 7613,
      "##ಗ": 7614,
      "##ೊ": 7615,
      "##۞": 7616,
      "##֬": 7617,
      "##֌": 7618,
      "##ള": 7619,
      "##ڻ": 7620,
      "##॑": 7621,
      "##͵": 7622,
      "##ʷ": 7623,
      "##է": 7624,
      "##ừ": 7625,
      "##ɯ": 7626,
      "##ɥ": 7627,
      "##꣕": 7628,
      "##신": 7629,
      "##뎒": 7630,
      "##ڥ": 7631,
      "##ѕ": 7632,
      "##ʶ": 7633,
      "##후": 7634,
      "##생": 7635,
      "##활": 7636,
      "##ख़": 7637,
      "##퇻": 7638,
      "##શ": 7639,
      "##ફ": 7640,
      "##𗲜": 7641,
      "##쁺": 7642,
      "##ɂ": 7643,
      "##ɻ": 7644,
      "##̚": 7645,
      "##̞": 7646,
      "##ɴ": 7647,
      "##դ": 7648,
      "##ܬ": 7649,
      "##ެ": 7650,
      "##ԯ": 7651,
      "##■": 7652,
      "##ۉ": 7653,
      "##째": 7654,
      "##ǒ": 7655,
      "##당": 7656,
      "##֪": 7657,
      "##ۄ": 7658,
      "##ͦ": 7659,
      "##ۦ": 7660,
      "##ფ": 7661,
      "##ょ": 7662,
      "##웩": 7663,
      "##ߘ": 7664,
      "##˥": 7665,
      "##ˍ": 7666,
      "##디": 7667,
      "##네": 7668,
      "##֕": 7669,
      "##ᤩ": 7670,
      "##ᤢ": 7671,
      "##ᤤ": 7672,
      "##😭": 7673,
      "##˓": 7674,
      "##세": 7675,
      "##״": 7676,
      "##⇨": 7677,
      "##ڕ": 7678,
      "##렶": 7679,
      "##ʈ": 7680,
      "##ⲁ": 7681,
      "##ⲓ": 7682,
      "##ⲣ": 7683,
      "##ⲏ": 7684,
      "##′": 7685,
      "##ர": 7686,
      "##த": 7687,
      "##ந": 7688,
      "##ா": 7689,
      "##ட": 7690,
      "##ி": 7691,
      "##ய": 7692,
      "##ம": 7693,
      "##ⶬ": 7694,
      "##ヒ": 7695,
      "##ズ": 7696,
      "##ͅ": 7697,
      "##ٞ": 7698,
      "##ϐ": 7699,
      "##ガ": 7700,
      "##옰": 7701,
      "##◆": 7702,
      "##ޱ": 7703,
      "##ꦖ": 7704,
      "##４": 7705,
      "##６": 7706,
      "##ӛ": 7707,
      "##񬊾": 7708,
      "##무": 7709,
      "##ܖ": 7710,
      "##줏": 7711,
      "##킸": 7712,
      "##ᤷ": 7713,
      "##ソ": 7714,
      "##ฒ": 7715,
      "##모": 7716,
      "##߾": 7717,
      "##ٔ": 7718,
      "##ɵ": 7719,
      "##ձ": 7720,
      "##›": 7721,
      "##ؕ": 7722,
      "##ߚ": 7723,
      "##ʻ": 7724,
      "##ҟ": 7725,
      "##난": 7726,
      "##ԓ": 7727,
      "##공": 7728,
      "##ꞗ": 7729,
      "##ղ": 7730,
      "##ﹾ": 7731,
      "##ށ": 7732,
      "##۩": 7733,
      "##ؼ": 7734,
      "##ĕ": 7735,
      "##ꅕ": 7736,
      "##ổ": 7737,
      "##ؿ": 7738,
      "##ޠ": 7739,
      "##ᨵ": 7740,
      "##😍": 7741,
      "##빙": 7742,
      "##쉠": 7743,
      "##̷": 7744,
      "##ợ": 7745,
      "##💯": 7746,
      "##ۂ": 7747,
      "##ݘ": 7748,
      "##꺂": 7749,
      "##햇": 7750,
      "##살": 7751,
      "##ҧ": 7752,
      "##ഴ": 7753,
      "##면": 7754,
      "##😓": 7755,
      "##ⳁ": 7756,
      "##៍": 7757,
      "##ռ": 7758,
      "##ޡ": 7759,
      "##ң": 7760,
      "##ݙ": 7761,
      "##１": 7762,
      "##ӄ": 7763,
      "##̓": 7764,
      "##߼": 7765,
      "##람": 7766,
      "##🌷": 7767,
      "##ⱦ": 7768,
      "##ನ": 7769,
      "##ಡ": 7770,
      "##ۇ": 7771,
      "##ྷ": 7772,
      "##쥻": 7773,
      "##ｫ": 7774,
      "##ｵ": 7775,
      "##ﾟ": 7776,
      "##׽": 7777,
      "##졌": 7778,
      "##ි": 7779,
      "##ං": 7780,
      "##හ": 7781,
      "##ල": 7782,
      "##ឡ": 7783,
      "##៉": 7784,
      "##˨": 7785,
      "##ˁ": 7786,
      "##ݰ": 7787,
      "##ݎ": 7788,
      "##ʴ": 7789,
      "##ݮ": 7790,
      "##ƿ": 7791,
      "##겠": 7792,
      "##²": 7793,
      "##ķ": 7794,
      "##ʙ": 7795,
      "##ﳃ": 7796,
      "##ꠒ": 7797,
      "##ʋ": 7798,
      "##협": 7799,
      "##랍": 7800,
      "##ঙ": 7801,
      "##֫": 7802,
      "##책": 7803,
      "##위": 7804,
      "##뒭": 7805,
      "##˧": 7806,
      "##぀": 7807,
      "##절": 7808,
      "##함": 7809,
      "##￣": 7810,
      "##□": 7811,
      "##ฮ": 7812,
      "##ജ": 7813,
      "##ˣ": 7814,
      "##즣": 7815,
      "##⩌": 7816,
      "##˪": 7817,
      "##ȫ": 7818,
      "##！": 7819,
      "##ȱ": 7820,
      "##ぬ": 7821,
      "##ۭ": 7822,
      "##ỏ": 7823,
      "##►": 7824,
      "##җ": 7825,
      "##ۣ": 7826,
      "##ギ": 7827,
      "##¿": 7828,
      "##😶": 7829,
      "##😑": 7830,
      "##금": 7831,
      "##송": 7832,
      "##통": 7833,
      "##ߠ": 7834,
      "##ዛ": 7835,
      "##ӂ": 7836,
      "##ﴽ": 7837,
      "##ẩ": 7838,
      "##ݖ": 7839,
      "##봉": 7840,
      "##ͪ": 7841,
      "##🤔": 7842,
      "##🐽": 7843,
      "##ɷ": 7844,
      "##ݍ": 7845,
      "##😘": 7846,
      "##͏": 7847,
      "##ޟ": 7848,
      "##ਜ਼": 7849,
      "##）": 7850,
      "##ߞ": 7851,
      "##˵": 7852,
      "##본": 7853,
      "##성": 7854,
      "##빌": 7855,
      "##딩": 7856,
      "##႗": 7857,
      "##🎥": 7858,
      "##🇯": 7859,
      "##🌍": 7860,
      "##§": 7861,
      "##̛": 7862,
      "##ང": 7863,
      "##ណ": 7864,
      "##¥": 7865,
      "##͘": 7866,
      "##웠": 7867,
      "##답": 7868,
      "##મ": 7869,
      "##ޛ": 7870,
      "##񾘤": 7871,
      "##į": 7872,
      "##🇲": 7873,
      "##된": 7874,
      "##̩": 7875,
      "##̑": 7876,
      "##띵": 7877,
      "##ெ": 7878,
      "##ݨ": 7879,
      "##펒": 7880,
      "##ҿ": 7881,
      "##̰": 7882,
      "##ܥ": 7883,
      "##ݬ": 7884,
      "##접": 7885,
      "##ʚ": 7886,
      "##💀": 7887,
      "##맗": 7888,
      "##ɘ": 7889,
      "##ག": 7890,
      "##ỉ": 7891,
      "##셔": 7892,
      "##¸": 7893,
      "##음": 7894,
      "##ʂ": 7895,
      "##ؔ": 7896,
      "##ŧ": 7897,
      "##ۮ": 7898,
      "##׹": 7899,
      "##ǘ": 7900,
      "##ќ": 7901,
      "##까": 7902,
      "##ശ": 7903,
      "##휴": 7904,
      "##ਘ": 7905,
      "##ય": 7906,
      "##ǵ": 7907,
      "##ʀ": 7908,
      "##쐎": 7909,
      "##섯": 7910,
      "##개": 7911,
      "##ឹ": 7912,
      "##޴": 7913,
      "##˷": 7914,
      "##ゼ": 7915,
      "##보": 7916,
      "##ழ": 7917,
      "##〝": 7918,
      "##̜": 7919,
      "##ǰ": 7920,
      "##🏡": 7921,
      "##©": 7922,
      "##̆": 7923,
      "##《": 7924,
      "##ډ": 7925,
      "##ϑ": 7926,
      "##ߊ": 7927,
      "##ઝ": 7928,
      "##🔱": 7929,
      "##랩": 7930,
      "##ꚹ": 7931,
      "##モ": 7932,
      "##ϋ": 7933,
      "##ứ": 7934,
      "##ෘ": 7935,
      "##݈": 7936,
      "##🎇": 7937,
      "##🙌": 7938,
      "##🎊": 7939,
      "##횂": 7940,
      "##ߥ": 7941,
      "##ܵ": 7942,
      "##ɱ": 7943,
      "##ᤪ": 7944,
      "##ᤆ": 7945,
      "##ފ": 7946,
      "##릭": 7947,
      "##비": 7948,
      "##광": 7949,
      "##ᤶ": 7950,
      "##ᤒ": 7951,
      "##☎": 7952,
      "##ӎ": 7953,
      "##ٰ": 7954,
      "##착": 7955,
      "##ļ": 7956,
      "##←": 7957,
      "##߈": 7958,
      "##げ": 7959,
      "##🇻": 7960,
      "##ԝ": 7961,
      "##ӡ": 7962,
      "##호": 7963,
      "##ჹ": 7964,
      "##ݛ": 7965,
      "##̀": 7966,
      "##겹": 7967,
      "##ற": 7968,
      "##͍": 7969,
      "##®": 7970,
      "##̢": 7971,
      "##ꊒ": 7972,
      "##ቢ": 7973,
      "##근": 7974,
      "##혜": 7975,
      "##؊": 7976,
      "##٠": 7977,
      "##ẫ": 7978,
      "##ɜ": 7979,
      "##ڲ": 7980,
      "##ㅎ": 7981,
      "##ٌ": 7982,
      "##ȹ": 7983,
      "##১": 7984,
      "##ܛ": 7985,
      "##되": 7986,
      "##າ": 7987,
      "##ສ": 7988,
      "##ລ": 7989,
      "##ວ": 7990,
      "##ᇡ": 7991,
      "##߸": 7992,
      "##ꍣ": 7993,
      "##ྒ": 7994,
      "##ػ": 7995,
      "##코": 7996,
      "##튼": 7997,
      "##ٷ": 7998,
      "##ΰ": 7999,
      "##낭": 8000,
      "##അ": 8001,
      "##ܺ": 8002,
      "##ｈ": 8003,
      "##ｓ": 8004,
      "##２": 8005,
      "##ɰ": 8006,
      "##័": 8007,
      "##٢": 8008,
      "##˭": 8009,
      "##😟": 8010,
      "##͑": 8011,
      "##써": 8012,
      "##ヤ": 8013,
      "##◌": 8014,
      "##🤚": 8015,
      "##페": 8016,
      "##ŵ": 8017,
      "##ߛ": 8018,
      "##ș": 8019,
      "##ꁰ": 8020,
      "##🇰": 8021,
      "##ލ": 8022,
      "##🇧": 8023,
      "##륲": 8024,
      "##ֳ": 8025,
      "##̣": 8026,
      "##왴": 8027,
      "##ڌ": 8028,
      "##ᄶ": 8029,
      "##띱": 8030,
      "##ɬ": 8031,
      "##³": 8032,
      "##ݜ": 8033,
      "##꨾": 8034,
      "##ٮ": 8035,
      "##ɏ": 8036,
      "##ɝ": 8037,
      "##ᵤ": 8038,
      "##ߙ": 8039,
      "##✴": 8040,
      "##🔥": 8041,
      "##😤": 8042,
      "##삼": 8043,
      "##ߵ": 8044,
      "##ϻ": 8045,
      "##͂": 8046,
      "##ƈ": 8047,
      "##ݸ": 8048,
      "##븳": 8049,
      "##🤓": 8050,
      "##ማ": 8051,
      "##ር": 8052,
      "##ኛ": 8053,
      "##ᤰ": 8054,
      "##😎": 8055,
      "##😹": 8056,
      "##˫": 8057,
      "##݃": 8058,
      "##𯪰": 8059,
      "##쮧": 8060,
      "##ߣ": 8061,
      "##ឈ": 8062,
      "##🇴": 8063,
      "##ҩ": 8064,
      "##ף": 8065,
      "##ḿ": 8066,
      "##ᎆ": 8067,
      "##ڶ": 8068,
      "##؞": 8069,
      "##܃": 8070,
      "##ѳ": 8071,
      "##̳": 8072,
      "##˘": 8073,
      "##ʽ": 8074,
      "##ĸ": 8075,
      "##ன": 8076,
      "##ை": 8077,
      "##ਇ": 8078,
      "##ഘ": 8079,
      "##ժ": 8080,
      "##֔": 8081,
      "##̤": 8082,
      "##ᤱ": 8083,
      "##ᤓ": 8084,
      "##߽": 8085,
      "##뚻": 8086,
      "##🇦": 8087,
      "##ധ": 8088,
      "##٥": 8089,
      "##ٗ": 8090,
      "##～": 8091,
      "##ˮ": 8092,
      "##ざ": 8093,
      "##֛": 8094,
      "##׎": 8095,
      "##💌": 8096,
      "##ཾ": 8097,
      "##֗": 8098,
      "##ₒ": 8099,
      "##؛": 8100,
      "##ܩ": 8101,
      "##ۀ": 8102,
      "##담": 8103,
      "##҇": 8104,
      "##ຯ": 8105,
      "##਼": 8106,
      "##ݫ": 8107,
      "##미": 8108,
      "##ீ": 8109,
      "##வ": 8110,
      "##఼": 8111,
      "##ピ": 8112,
      "##ƃ": 8113,
      "##ẹ": 8114,
      "##ᷠ": 8115,
      "##む": 8116,
      "##び": 8117,
      "##만": 8118,
      "##준": 8119,
      "##ỷ": 8120,
      "##번": 8121,
      "##ͧ": 8122,
      "##ツ": 8123,
      "##탁": 8124,
      "##립": 8125,
      "##쓋": 8126,
      "##٫": 8127,
      "##체": 8128,
      "##육": 8129,
      "##３": 8130,
      "##𔻹": 8131,
      "##ṏ": 8132,
      "##ச": 8133,
      "##ཏ": 8134,
      "##¦": 8135,
      "##֐": 8136,
      "##괎": 8137,
      "##ۑ": 8138,
      "##̉": 8139,
      "##ﾌ": 8140,
      "##ｰ": 8141,
      "##ｼ": 8142,
      "##ﾞ": 8143,
      "##ｬ": 8144,
      "##굝": 8145,
      "##횶": 8146,
      "##ๆ": 8147,
      "##튶": 8148,
      "##똖": 8149,
      "##뎾": 8150,
      "##ヨ": 8151,
      "##ൻ": 8152,
      "##՜": 8153,
      "##܂": 8154,
      "##ڣ": 8155,
      "##ܾ": 8156,
      "##™": 8157,
      "##·": 8158,
      "##ɭ": 8159,
      "##򝠊": 8160,
      "##록": 8161,
      "##ۢ": 8162,
      "##뛥": 8163,
      "##ꕊ": 8164,
      "##🌡": 8165,
      "##ϝ": 8166,
      "##연": 8167,
      "##՚": 8168,
      "##ྩ": 8169,
      "##교": 8170,
      "##✖": 8171,
      "##ൽ": 8172,
      "##풼": 8173,
      "##뒣": 8174,
      "##߯": 8175,
      "##ఓ": 8176,
      "##넉": 8177,
      "##ণ": 8178,
      "##학": 8179,
      "##˛": 8180,
      "##󠆶": 8181,
      "##ៈ": 8182,
      "##ɋ": 8183,
      "##🤩": 8184,
      "##ᤅ": 8185,
      "##֨": 8186,
      "##ҡ": 8187,
      "##㍺": 8188,
      "##ॣ": 8189,
      "##탑": 8190,
      "##ॽ": 8191,
      "##ൃ": 8192,
      "##ˎ": 8193,
      "##✉": 8194,
      "##𽲿": 8195,
      "##ൾ": 8196,
      "##켓": 8197,
      "##˼": 8198,
      "##ħ": 8199,
      "##퓄": 8200,
      "##녀": 8201,
      "##💔": 8202,
      "##판": 8203,
      "##ȕ": 8204,
      "##˕": 8205,
      "##🇭": 8206,
      "##߹": 8207,
      "##방": 8208,
      "##수": 8209,
      "##러": 8210,
      "##와": 8211,
      "##💓": 8212,
      "##៌": 8213,
      "##ચ": 8214,
      "##ﭧ": 8215,
      "##ǫ": 8216,
      "##긝": 8217,
      "##ŉ": 8218,
      "##ԃ": 8219,
      "##ﶲ": 8220,
      "##뷶": 8221,
      "##♥": 8222,
      "##ؑ": 8223,
      "##ゴ": 8224,
      "##ഗ": 8225,
      "##🙈": 8226,
      "##⫴": 8227,
      "##ݯ": 8228,
      "##두": 8229,
      "##ﾀ": 8230,
      "##ﾎ": 8231,
      "##ൊ": 8232,
      "##☻": 8233,
      "##݌": 8234,
      "##ྱ": 8235,
      "##찬": 8236,
      "##ͫ": 8237,
      "##ŭ": 8238,
      "##̡": 8239,
      "##ワ": 8240,
      "##뺋": 8241,
      "##었": 8242,
      "##ȿ": 8243,
      "##아": 8244,
      "##϶": 8245,
      "##탂": 8246,
      "##쏄": 8247,
      "##ʨ": 8248,
      "##저": 8249,
      "##임": 8250,
      "##€": 8251,
      "##ৰ": 8252,
      "##겨": 8253,
      "##ⲫ": 8254,
      "##놆": 8255,
      "##ṛ": 8256,
      "##ਫ": 8257,
      "##뒽": 8258,
      "##ỹ": 8259,
      "##څ": 8260,
      "##ڝ": 8261,
      "##・": 8262,
      "##ꊳ": 8263,
      "##토": 8264,
      "##မ": 8265,
      "##ာ": 8266,
      "##စ": 8267,
      "##롨": 8268,
      "##→": 8269,
      "##ૌ": 8270,
      "##ࢎ": 8271,
      "##ヾ": 8272,
      "##͗": 8273,
      "##🏿": 8274,
      "##👨": 8275,
      "##ằ": 8276,
      "##릎": 8277,
      "##߫": 8278,
      "##ׂ": 8279,
      "##✅": 8280,
      "##획": 8281,
      "##΅": 8282,
      "##·": 8283,
      "##ꆷ": 8284,
      "##ׄ": 8285,
      "##ƒ": 8286,
      "##╪": 8287,
      "##ⷙ": 8288,
      "##바": 8289,
      "##ჰ": 8290,
      "##ݤ": 8291,
      "##ʟ": 8292,
      "##격": 8293,
      "##푋": 8294,
      "##ţ": 8295,
      "##우": 8296,
      "##😔": 8297,
      "##입": 8298,
      "##ゅ": 8299,
      "##：": 8300,
      "##ǻ": 8301,
      "##ূ": 8302,
      "##｀": 8303,
      "##ꅵ": 8304,
      "##॓": 8305,
      "##׷": 8306,
      "##׋": 8307,
      "##܌": 8308,
      "##ப": 8309,
      "##৭": 8310,
      "##밥": 8311,
      "##ǔ": 8312,
      "##층": 8313,
      "##ਛ": 8314,
      "##료": 8315,
      "##ɓ": 8316,
      "##🙉": 8317,
      "##🙊": 8318,
      "##🐒": 8319,
      "##🐍": 8320,
      "##؎": 8321,
      "##߮": 8322,
      "##메": 8323,
      "##ফ": 8324,
      "##‣": 8325,
      "##̗": 8326,
      "##랜": 8327,
      "##름": 8328,
      "##΢": 8329,
      "##더": 8330,
      "##포": 8331,
      "##럼": 8332,
      "##않": 8333,
      "##को": 8334,
      "##र्": 8335,
      "##्र": 8336,
      "##मा": 8337,
      "##न्": 8338,
      "##का": 8339,
      "##ले": 8340,
      "##्य": 8341,
      "##ने": 8342,
      "##ार": 8343,
      "##ला": 8344,
      "प्र": 8345,
      "##स्": 8346,
      "##ाल": 8347,
      "##ान": 8348,
      "##ति": 8349,
      "##क्": 8350,
      "##ता": 8351,
      "##ना": 8352,
      "गर": 8353,
      "##एको": 8354,
      "</": 8355,
      "##िय": 8356,
      "वि": 8357,
      "गर्": 8358,
      "##त्र": 8359,
      "##नि": 8360,
      "##म्": 8361,
      "##लाई": 8362,
      "##ेको": 8363,
      "##हर": 8364,
      "##नु": 8365,
      "का": 8366,
      "##ाग": 8367,
      "##िक": 8368,
      "##वा": 8369,
      "हु": 8370,
      "##ित": 8371,
      "##्या": 8372,
      "##रा": 8373,
      "रा": 8374,
      "##त्": 8375,
      "##री": 8376,
      "##न्द": 8377,
      "नि": 8378,
      "पनि": 8379,
      "ने": 8380,
      "##था": 8381,
      "##ल्": 8382,
      "##पाल": 8383,
      "स्": 8384,
      "##क्ष": 8385,
      "सा": 8386,
      "##यो": 8387,
      "सं": 8388,
      "मा": 8389,
      "##ाउ": 8390,
      "##ेर": 8391,
      "##बा": 8392,
      "e0": 8393,
      "##ेश": 8394,
      "##हि": 8395,
      "##ाँ": 8396,
      "##र्य": 8397,
      "लाग": 8398,
      "##िए": 8399,
      "##दै": 8400,
      "##ुर": 8401,
      "सम": 8402,
      "##ष्": 8403,
      "##नी": 8404,
      "##दा": 8405,
      "हो": 8406,
      "नेपाल": 8407,
      "##ेका": 8408,
      "##स्त": 8409,
      "##ाम": 8410,
      "##ेख": 8411,
      "a4": 8412,
      "##िका": 8413,
      "##िन": 8414,
      "##ियो": 8415,
      "##न्छ": 8416,
      "भने": 8417,
      "##ुन": 8418,
      "त्य": 8419,
      "co": 8420,
      "##पा": 8421,
      "##बाट": 8422,
      "##हरु": 8423,
      "##ाइ": 8424,
      "छन्": 8425,
      "##द्": 8426,
      "##िएको": 8427,
      "भएको": 8428,
      "##हरू": 8429,
      "##ेल": 8430,
      "##ma": 8431,
      "##कार": 8432,
      "##क्र": 8433,
      "भए": 8434,
      "##il": 8435,
      "के": 8436,
      "##ष्ट": 8437,
      "##रि": 8438,
      "##ही": 8439,
      "कार्य": 8440,
      "##nt": 8441,
      "लागि": 8442,
      "##ीय": 8443,
      "गर्न": 8444,
      "##वि": 8445,
      "##न्त्र": 8446,
      "=\"": 8447,
      "सम्": 8448,
      "निर्": 8449,
      "प्रति": 8450,
      "##छि": 8451,
      "यो": 8452,
      "##न्त": 8453,
      "रह": 8454,
      "##लो": 8455,
      "##nd": 8456,
      "##्च": 8457,
      "##र्ष": 8458,
      "गरेको": 8459,
      "##सा": 8460,
      "उन": 8461,
      "##्न": 8462,
      "गर्ने": 8463,
      "##ारी": 8464,
      "##at": 8465,
      "यस": 8466,
      "पु": 8467,
      "##देश": 8468,
      "सर": 8469,
      "पा": 8470,
      "ht": 8471,
      "एक": 8472,
      "##िया": 8473,
      "सु": 8474,
      "क्": 8475,
      "##गा": 8476,
      "##स्था": 8477,
      "##ndu": 8478,
      "##mandu": 8479,
      "अध": 8480,
      "##हा": 8481,
      "आफ": 8482,
      "##ile": 8483,
      "व्य": 8484,
      "##ीले": 8485,
      "को": 8486,
      "##पर्": 8487,
      "अनु": 8488,
      "##धान": 8489,
      "##पछि": 8490,
      "थियो": 8491,
      "##िने": 8492,
      "com": 8493,
      "बता": 8494,
      "बढ": 8495,
      "##iv": 8496,
      "##िर": 8497,
      "##भा": 8498,
      "राज": 8499,
      "##ुप": 8500,
      "##टा": 8501,
      "##्रो": 8502,
      "तथा": 8503,
      "##ँग": 8504,
      "##on": 8505,
      "देख": 8506,
      "उप": 8507,
      "दु": 8508,
      "बि": 8509,
      "##ौं": 8510,
      "हुने": 8511,
      "##म्म": 8512,
      "##ली": 8513,
      "बा": 8514,
      "वर्ष": 8515,
      "##ालय": 8516,
      "##द्ध": 8517,
      "##योग": 8518,
      "मु": 8519,
      "##िस": 8520,
      "सह": 8521,
      "##र्थ": 8522,
      "##ेट": 8523,
      "##िल्": 8524,
      "##रण": 8525,
      "##की": 8526,
      "##ar": 8527,
      "##ंग": 8528,
      "##ँदै": 8529,
      "##ष्ट्र": 8530,
      "तर": 8531,
      "##न्न": 8532,
      "सरकार": 8533,
      "क्ष": 8534,
      "नै": 8535,
      "##िम": 8536,
      "##ण्": 8537,
      "कु": 8538,
      "##ेस": 8539,
      "त्यस": 8540,
      "वा": 8541,
      "bi": 8542,
      "##ml": 8543,
      "##ेत": 8544,
      "##सार": 8545,
      "biz": 8546,
      "bizmandu": 8547,
      "##बार": 8548,
      "थिए": 8549,
      "##या": 8550,
      "##ीको": 8551,
      "स्थ": 8552,
      "##सँग": 8553,
      "२०": 8554,
      "काम": 8555,
      "##ch": 8556,
      "##नुपर्": 8557,
      "##स्थ": 8558,
      "##रो": 8559,
      "##एका": 8560,
      "##वस्था": 8561,
      "बना": 8562,
      "##me": 8563,
      "##्व": 8564,
      "##ैन": 8565,
      "##ूर्": 8566,
      "उनले": 8567,
      "##ाउँ": 8568,
      "##क्त": 8569,
      "सि": 8570,
      "हाम": 8571,
      "##न्द्र": 8572,
      "##er": 8573,
      "##ण्ड": 8574,
      "कार": 8575,
      "ar": 8576,
      "##जार": 8577,
      "##भि": 8578,
      "##ive": 8579,
      "##प्": 8580,
      "##कारी": 8581,
      "भन्": 8582,
      "##जना": 8583,
      "##गर": 8584,
      "##याँ": 8585,
      "##_f": 8586,
      "arch": 8587,
      "archive": 8588,
      "##_file": 8589,
      "archive_file": 8590,
      "cl": 8591,
      "दि": 8592,
      "\">": 8593,
      "##or": 8594,
      "##द्य": 8595,
      "##ानी": 8596,
      "रुप": 8597,
      "##ामा": 8598,
      "##al": 8599,
      "छैन": 8600,
      "##ेत्र": 8601,
      "##न्दा": 8602,
      "से": 8603,
      "सब": 8604,
      "##नमा": 8605,
      "##न्ध": 8606,
      "रहेको": 8607,
      "भएका": 8608,
      "विश": 8609,
      "परि": 8610,
      "क्षेत्र": 8611,
      "जना": 8612,
      "##ुरु": 8613,
      "##माण": 8614,
      "##हिले": 8615,
      "स्थान": 8616,
      "##ोल": 8617,
      "##्ने": 8618,
      "##प्र": 8619,
      "##मु": 8620,
      "गरेका": 8621,
      "##र्ट": 8622,
      "##म्प": 8623,
      "उनी": 8624,
      "सबै": 8625,
      "##स्ट": 8626,
      "काठ": 8627,
      "जन": 8628,
      "समा": 8629,
      "##सम्म": 8630,
      "##धार": 8631,
      "प्रा": 8632,
      "##र्म": 8633,
      "##ss": 8634,
      "##ेला": 8635,
      "##ion": 8636,
      "ला": 8637,
      "दिन": 8638,
      "सक": 8639,
      "मात्र": 8640,
      "कुन": 8641,
      "##ोज": 8642,
      "राख": 8643,
      "##हाँ": 8644,
      "काठमा": 8645,
      "##क्रम": 8646,
      "##ep": 8647,
      "##ङ्": 8648,
      "##तिक": 8649,
      "##उने": 8650,
      "##जा": 8651,
      "स्व": 8652,
      "##ीमा": 8653,
      "html": 8654,
      "cont": 8655,
      "##डा": 8656,
      "##दन": 8657,
      "##42": 8658,
      "हुन्छ": 8659,
      "##स्ता": 8660,
      "##ञ्च": 8661,
      "##ुट": 8662,
      "##न्त्री": 8663,
      "पर्": 8664,
      "##tp": 8665,
      "बै": 8666,
      "##//": 8667,
      "http": 8668,
      "://": 8669,
      "##क्षा": 8670,
      "काठमाड": 8671,
      "##छन्": 8672,
      "##ोक": 8673,
      "मह": 8674,
      "##ww": 8675,
      "www": 8676,
      "##िति": 8677,
      "##रह": 8678,
      "##सी": 8679,
      "##ध्य": 8680,
      "राष्ट्र": 8681,
      "पर": 8682,
      "a5": 8683,
      "उत्": 8684,
      "कुनै": 8685,
      "##कृ": 8686,
      "##न्य": 8687,
      "##हु": 8688,
      "##उन": 8689,
      "भन्ने": 8690,
      "नेपाली": 8691,
      "अर्": 8692,
      "सो": 8693,
      "हि": 8694,
      "##ब्": 8695,
      "##ंक": 8696,
      "##क्रिया": 8697,
      "महि": 8698,
      "##धि": 8699,
      "गरे": 8700,
      "##पालिका": 8701,
      "##क्ति": 8702,
      "बु": 8703,
      "##वाद": 8704,
      "##ती": 8705,
      "##ग्र": 8706,
      "##ाउने": 8707,
      "20": 8708,
      "आफ्न": 8709,
      "##ीन": 8710,
      "##चार": 8711,
      "बताए": 8712,
      "##कै": 8713,
      "##रु": 8714,
      "गरी": 8715,
      "गरिएको": 8716,
      "##िट": 8717,
      "पहि": 8718,
      "##ur": 8719,
      "गर्नु": 8720,
      "लग": 8721,
      "अध्य": 8722,
      "##ha": 8723,
      "##स्तो": 8724,
      "अन्त": 8725,
      "##देख": 8726,
      "##भाव": 8727,
      "##सक": 8728,
      "गर्दै": 8729,
      "भार": 8730,
      "##एर": 8731,
      "निर्माण": 8732,
      "हुन": 8733,
      "पुग": 8734,
      "##िल्ला": 8735,
      "##मान": 8736,
      "कुरा": 8737,
      "##बन्ध": 8738,
      "##ोट": 8739,
      "##घि": 8740,
      "##rg": 8741,
      "##कास": 8742,
      "जो": 8743,
      "हजार": 8744,
      "##शा": 8745,
      "##टक": 8746,
      "##वार": 8747,
      "था": 8748,
      "##ेक": 8749,
      "##in": 8750,
      "समय": 8751,
      "जिल्ला": 8752,
      "प्रदेश": 8753,
      "##त्य": 8754,
      "प्रहर": 8755,
      "##्रम": 8756,
      "अहिले": 8757,
      "घर": 8758,
      "कम": 8759,
      "##्यो": 8760,
      "##नको": 8761,
      "##ित्र": 8762,
      "+%": 8763,
      "##देखि": 8764,
      "सक्": 8765,
      "भारत": 8766,
      "##्रा": 8767,
      "##िन्छ": 8768,
      "201": 8769,
      "##st": 8770,
      "केही": 8771,
      "जा": 8772,
      "जान": 8773,
      "##र्व": 8774,
      "दुई": 8775,
      "##िएका": 8776,
      "कि": 8777,
      "शि": 8778,
      "कार्यक्रम": 8779,
      "स्थानीय": 8780,
      "विकास": 8781,
      "##ोस": 8782,
      "##ूप": 8783,
      "##it": 8784,
      "##re": 8785,
      "##न्ट": 8786,
      "##स्तै": 8787,
      "##ाउन": 8788,
      "##ac": 8789,
      "##नुपर्ने": 8790,
      "##त्व": 8791,
      "आफ्नो": 8792,
      "##्याप": 8793,
      "कारण": 8794,
      "पो": 8795,
      "##निक": 8796,
      "##ैले": 8797,
      "##na": 8798,
      "।’": 8799,
      "##कु": 8800,
      "नयाँ": 8801,
      "अव": 8802,
      "##िरह": 8803,
      "व्यवस्था": 8804,
      "अनुसार": 8805,
      "हुन्": 8806,
      "सय": 8807,
      "आयो": 8808,
      "##ent": 8809,
      "##ोर": 8810,
      "01": 8811,
      "##डी": 8812,
      "##मुख": 8813,
      "##पुर": 8814,
      "##भन्दा": 8815,
      "##ेरै": 8816,
      "गत": 8817,
      "देश": 8818,
      "##मन्त्री": 8819,
      "content": 8820,
      "##ke": 8821,
      "##epal": 8822,
      "##ri": 8823,
      "गाउँ": 8824,
      "##िल": 8825,
      "##्ञ": 8826,
      "##जी": 8827,
      "##बी": 8828,
      "मान": 8829,
      "पुन": 8830,
      "या": 8831,
      "अधिका": 8832,
      "##bar": 8833,
      "##72": 8834,
      "##र्ता": 8835,
      "चा": 8836,
      "##उँ": 8837,
      "##ोग": 8838,
      "##र्च": 8839,
      "नगर": 8840,
      "##र्ग": 8841,
      "##जन": 8842,
      "nepal": 8843,
      "##पादन": 8844,
      "पूर्": 8845,
      "##र्फ": 8846,
      "##le": 8847,
      "दा": 8848,
      "##र्क": 8849,
      "##ुवा": 8850,
      "##ूल": 8851,
      "हा": 8852,
      "लाख": 8853,
      "धेरै": 8854,
      "cld": 8855,
      "गु": 8856,
      "खेल": 8857,
      "us": 8858,
      "##रमा": 8859,
      "केन्द्र": 8860,
      "शा": 8861,
      "##मै": 8862,
      "##422": 8863,
      "सञ्च": 8864,
      "नाम": 8865,
      "##42272": 8866,
      "0142272": 8867,
      "काठमाडौं": 8868,
      "##ौँ": 8869,
      "कृ": 8870,
      "file": 8871,
      "##फल": 8872,
      "सरकारले": 8873,
      "सामा": 8874,
      "##name": 8875,
      "filename": 8876,
      "##वन": 8877,
      "##म्ब": 8878,
      "भइ": 8879,
      "##ike": 8880,
      "रुपमा": 8881,
      "##यत": 8882,
      "कार्यालय": 8883,
      "खा": 8884,
      "प्रधान": 8885,
      "विष": 8886,
      "श्र": 8887,
      "राम": 8888,
      "##dat": 8889,
      "##ुक": 8890,
      "##हित": 8891,
      "लेख": 8892,
      "पार्ट": 8893,
      "##ताको": 8894,
      "रूप": 8895,
      "##दान": 8896,
      "निय": 8897,
      "साथ": 8898,
      "##न्स": 8899,
      "##िङ": 8900,
      "##ाली": 8901,
      "अवस्था": 8902,
      "##ष्ठ": 8903,
      "पहिलो": 8904,
      "अध्यक्ष": 8905,
      "##..": 8906,
      "##न्ड": 8907,
      "ना": 8908,
      "##ass": 8909,
      "##पूर्": 8910,
      "लि": 8911,
      "##ारा": 8912,
      "class": 8913,
      "गो": 8914,
      "समिति": 8915,
      "विषय": 8916,
      "##is": 8917,
      "संघ": 8918,
      "##भाग": 8919,
      "समेत": 8920,
      "गा": 8921,
      "गरेर": 8922,
      "विश्व": 8923,
      "आव": 8924,
      "प्रमुख": 8925,
      "##सम": 8926,
      "बज": 8927,
      "##यन": 8928,
      "सुरु": 8929,
      "##स्य": 8930,
      "सद": 8931,
      "##ँदैन": 8932,
      "##लमा": 8933,
      "लगा": 8934,
      "भा": 8935,
      "##रको": 8936,
      "##नुभ": 8937,
      "निर्वा": 8938,
      "##डक": 8939,
      "##रिक": 8940,
      "गरि": 8941,
      "##ee": 8942,
      "##ेद": 8943,
      "एउ": 8944,
      "स्वा": 8945,
      "कान": 8946,
      "at": 8947,
      "हामी": 8948,
      "##ँदा": 8949,
      "आएको": 8950,
      "##च्च": 8951,
      "##स्या": 8952,
      "महिला": 8953,
      "##इन": 8954,
      "##न्दै": 8955,
      "तय": 8956,
      "##्छ": 8957,
      "मि": 8958,
      "##वास": 8959,
      "##रहेको": 8960,
      "त्यो": 8961,
      "##oo": 8962,
      "ल्या": 8963,
      ",’": 8964,
      "नभ": 8965,
      "##्यान": 8966,
      "कस": 8967,
      "पाइ": 8968,
      "बस": 8969,
      "##थि": 8970,
      "##नुपर्छ": 8971,
      "##खा": 8972,
      "##श्य": 8973,
      "##ment": 8974,
      "##प्त": 8975,
      "बो": 8976,
      "##ेन": 8977,
      "##पी": 8978,
      "बढी": 8979,
      "विद्य": 8980,
      "##णा": 8981,
      "रूपमा": 8982,
      "##न्ति": 8983,
      "##दैन": 8984,
      "राजनी": 8985,
      "जानकारी": 8986,
      "अस": 8987,
      "##हरूले": 8988,
      "##</": 8989,
      "##डियो": 8990,
      "##ग्": 8991,
      "समस्या": 8992,
      "##राज": 8993,
      "प्रतिक्रिया": 8994,
      "खु": 8995,
      "मन्त्र": 8996,
      "सडक": 8997,
      "निर्वाच": 8998,
      "भू": 8999,
      "##ra": 9000,
      "प्रहरी": 9001,
      "पार": 9002,
      "##ेव": 9003,
      "२०७": 9004,
      "सञ्चाल": 9005,
      "व्यव": 9006,
      "सम्बन्ध": 9007,
      "##हरुले": 9008,
      "अभ": 9009,
      "##धा": 9010,
      "अब": 9011,
      "##मेर": 9012,
      "घट": 9013,
      "##भिन्न": 9014,
      "##िव": 9015,
      "##ज्ञ": 9016,
      "१०": 9017,
      "##हरुको": 9018,
      "##ath": 9019,
      "मो": 9020,
      "##जिक": 9021,
      "भयो": 9022,
      "आज": 9023,
      "महा": 9024,
      "##राष्ट्र": 9025,
      "रुपै": 9026,
      "##दुर": 9027,
      "dur": 9028,
      "kath": 9029,
      "kathmandu": 9030,
      "##हरूको": 9031,
      "दल": 9032,
      "##marg": 9033,
      "राष्ट्रिय": 9034,
      "आयोजना": 9035,
      "durbar": 9036,
      "durbarmarg": 9037,
      "तीन": 9038,
      "##गत": 9039,
      "##्ट": 9040,
      "अघि": 9041,
      "हे": 9042,
      "##an": 9043,
      "सेवा": 9044,
      "##शत": 9045,
      "div": 9046,
      "##धन": 9047,
      "##od": 9048,
      "कम्प": 9049,
      "आर्थ": 9050,
      "बैंक": 9051,
      "आर्थिक": 9052,
      "##िता": 9053,
      "##सन": 9054,
      "be": 9055,
      "भि": 9056,
      "##चना": 9057,
      "##र्श": 9058,
      "नेता": 9059,
      "मन": 9060,
      "अप": 9061,
      "##ुल": 9062,
      "##पो": 9063,
      "पछि": 9064,
      "##ाना": 9065,
      "##eb": 9066,
      "##साय": 9067,
      "गर्दा": 9068,
      "रो": 9069,
      "उनको": 9070,
      "प्रतिशत": 9071,
      "रहेका": 9072,
      "विभिन्न": 9073,
      "प्रयोग": 9074,
      "आइ": 9075,
      "##ाँच": 9076,
      "##सि": 9077,
      "रुपैयाँ": 9078,
      "##त्त": 9079,
      "मे": 9080,
      "जी": 9081,
      "##दि": 9082,
      "ma": 9083,
      "एउटा": 9084,
      "अन्य": 9085,
      "दिए": 9086,
      "##श्यक": 9087,
      "आफू": 9088,
      "##करण": 9089,
      "ठू": 9090,
      "पर्य": 9091,
      "##डि": 9092,
      "भन्दै": 9093,
      "##ृद्ध": 9094,
      "सुर": 9095,
      "तह": 9096,
      "##क्षण": 9097,
      "बाल": 9098,
      "##हार": 9099,
      "##सद": 9100,
      "sy": 9101,
      "अस्": 9102,
      "छो": 9103,
      "##यु": 9104,
      "सदस्य": 9105,
      "##दी": 9106,
      "आधार": 9107,
      "प्रश": 9108,
      "##हादुर": 9109,
      "##पति": 9110,
      "सहयोग": 9111,
      "xml": 9112,
      "##रोड": 9113,
      "##र्त": 9114,
      "पार्टी": 9115,
      "डा": 9116,
      "छा": 9117,
      "sh": 9118,
      "पुनर्": 9119,
      "##्नु": 9120,
      "##विधान": 9121,
      "##ीत": 9122,
      "माग": 9123,
      "##पत": 9124,
      "व्यक्ति": 9125,
      "##त्म": 9126,
      "##ठक": 9127,
      "बेला": 9128,
      "संविधान": 9129,
      "##el": 9130,
      "करोड": 9131,
      "##यर": 9132,
      "कम्पनी": 9133,
      "##ित्": 9134,
      "रु": 9135,
      "##कृति": 9136,
      "##इट": 9137,
      "दिने": 9138,
      "##ोष": 9139,
      "उक्त": 9140,
      "##्रेस": 9141,
      "बे": 9142,
      "##वादी": 9143,
      "पत्र": 9144,
      "##तन्त्र": 9145,
      "जि": 9146,
      "प्रधानमन्त्री": 9147,
      "##मी": 9148,
      "##ook": 9149,
      "नगरपालिका": 9150,
      "##पूर्ण": 9151,
      "रि": 9152,
      "क्षेत्रमा": 9153,
      "भनेर": 9154,
      "##र्न": 9155,
      "##ङ्ग": 9156,
      "मुल": 9157,
      "fac": 9158,
      "##tion": 9159,
      "##र्ड": 9160,
      "##श्च": 9161,
      "##ebook": 9162,
      "facebook": 9163,
      "of": 9164,
      "...": 9165,
      "##यक": 9166,
      "शु": 9167,
      "##राष्ट्रिय": 9168,
      "##पन": 9169,
      "##भित्र": 9170,
      "योजना": 9171,
      "##लेको": 9172,
      "मुख": 9173,
      "आवश्यक": 9174,
      "##टो": 9175,
      "##टन": 9176,
      "अन्तर्": 9177,
      "उपल": 9178,
      "कर्म": 9179,
      "सम्प": 9180,
      "प्रव": 9181,
      "##स्थ्य": 9182,
      "##12": 9183,
      "##सो": 9184,
      "##स्थित": 9185,
      "ती": 9186,
      "##rap": 9187,
      "wrap": 9188,
      "##णय": 9189,
      "खोज": 9190,
      "##जु": 9191,
      "बस्": 9192,
      "##ore": 9193,
      "##लि": 9194,
      "होइन": 9195,
      "समाज": 9196,
      "##इएको": 9197,
      "नाग": 9198,
      "##द्या": 9199,
      "##ेष": 9200,
      "प्रक्रिया": 9201,
      "बने": 9202,
      "##र्ने": 9203,
      "यु": 9204,
      "उपलब्": 9205,
      "निर्णय": 9206,
      "निका": 9207,
      "more": 9208,
      "सार्व": 9209,
      "मन्त्रालय": 9210,
      "गते": 9211,
      "कानुन": 9212,
      "##अघि": 9213,
      "क्रम": 9214,
      "##चारी": 9215,
      "##बहादुर": 9216,
      "महिना": 9217,
      "बैठक": 9218,
      "बुझ": 9219,
      "चित्र": 9220,
      "##कम": 9221,
      "##्यु": 9222,
      "##धिक": 9223,
      "बाँ": 9224,
      "संस्था": 9225,
      "org": 9226,
      "बजार": 9227,
      "##तृ": 9228,
      "##चा": 9229,
      "मेल": 9230,
      "चु": 9231,
      "##सले": 9232,
      "हाल": 9233,
      "##पना": 9234,
      "##काश": 9235,
      "मूल": 9236,
      "उल्": 9237,
      "##ञ्": 9238,
      "##date": 9239,
      "ले": 9240,
      "##वी": 9241,
      "##पत्र": 9242,
      "##बीच": 9243,
      "अन्तर्राष्ट्रिय": 9244,
      "##ैं": 9245,
      "स्था": 9246,
      "##ड्": 9247,
      "स्वास्थ्य": 9248,
      "##न्व": 9249,
      "सू": 9250,
      "##जनिक": 9251,
      "हाम्रो": 9252,
      "पटक": 9253,
      "rss": 9254,
      "##en": 9255,
      "कर्मचारी": 9256,
      "अमेर": 9257,
      "##ेन्द्र": 9258,
      "##सकेको": 9259,
      "##es": 9260,
      "पू": 9261,
      "गाउँपालिका": 9262,
      "थप": 9263,
      "पोख": 9264,
      "लगानी": 9265,
      "वै": 9266,
      "देखि": 9267,
      "##लेख": 9268,
      "गरिरह": 9269,
      "##स्तु": 9270,
      "th": 9271,
      "अनि": 9272,
      "##िज": 9273,
      "सार्वजनिक": 9274,
      "नागरिक": 9275,
      "##ेक्": 9276,
      "क्ल": 9277,
      "##नुभयो": 9278,
      "सम्म": 9279,
      "भनि": 9280,
      "उहाँ": 9281,
      "##होस": 9282,
      "##काल": 9283,
      "##सं": 9284,
      "उद्य": 9285,
      "राजनीतिक": 9286,
      "दिएको": 9287,
      "चौ": 9288,
      "##मि": 9289,
      "##क्षक": 9290,
      "##rip": 9291,
      "##ation": 9292,
      "##िएर": 9293,
      "उपलब्ध": 9294,
      "##चिव": 9295,
      "किन": 9296,
      "नेपालको": 9297,
      "##सहित": 9298,
      "##crip": 9299,
      "पढ": 9300,
      "मुलुक": 9301,
      "tit": 9302,
      "##सको": 9303,
      "title": 9304,
      "##ink": 9305,
      "##माले": 9306,
      "देखिएको": 9307,
      "जोड": 9308,
      "##ers": 9309,
      "up": 9310,
      "##सक्": 9311,
      "पर्ने": 9312,
      "##हो": 9313,
      "https": 9314,
      "##one": 9315,
      "विद्या": 9316,
      "##समेत": 9317,
      "on": 9318,
      "ph": 9319,
      "कति": 9320,
      "##ख्या": 9321,
      "##act": 9322,
      "##ेड": 9323,
      "काठमाडौँ": 9324,
      "व्यवसाय": 9325,
      "##बारे": 9326,
      "चल": 9327,
      "चि": 9328,
      "स्वी": 9329,
      "निर्देश": 9330,
      "##वै": 9331,
      "##ंग्रेस": 9332,
      "##ेष्ठ": 9333,
      "cha": 9334,
      "see": 9335,
      "मात्रै": 9336,
      "##हान": 9337,
      "##उत्": 9338,
      "विद्यालय": 9339,
      "##हरुलाई": 9340,
      "##dg": 9341,
      "ति": 9342,
      "मुख्य": 9343,
      "##0c": 9344,
      "##शी": 9345,
      "##hr": 9346,
      "यस्तो": 9347,
      "भन्दा": 9348,
      "संर": 9349,
      "##उत्पादन": 9350,
      "contact": 9351,
      "mail": 9352,
      "##प्रति": 9353,
      "##समा": 9354,
      "phone": 9355,
      "##pb": 9356,
      "पुनर्उत्पादन": 9357,
      "#.": 9358,
      "u3": 9359,
      "##hrm": 9360,
      "014227212": 9361,
      "##0cpb": 9362,
      "u3hrm": 9363,
      "##0cpbdg": 9364,
      "u3hrm0cpbdg": 9365,
      "014227242": 9366,
      "durbarmarga": 9367,
      "क्याप": 9368,
      "पूर्व": 9369,
      "बजेट": 9370,
      "fa": 9371,
      "सम्झ": 9372,
      "##पि": 9373,
      "लोक": 9374,
      "जित": 9375,
      "##ेरो": 9376,
      "कांग्रेस": 9377,
      "like": 9378,
      "##ेपछि": 9379,
      "आएका": 9380,
      "##तामा": 9381,
      "##ूह": 9382,
      "##ेज": 9383,
      "घटना": 9384,
      "##सु": 9385,
      "निक": 9386,
      "प्रभाव": 9387,
      "dis": 9388,
      "##दाय": 9389,
      "मृ": 9390,
      "क्र": 9391,
      "##पताल": 9392,
      "नी": 9393,
      "अस्पताल": 9394,
      "जनाएको": 9395,
      "खर्च": 9396,
      "ठूलो": 9397,
      "राज्य": 9398,
      "##अनु": 9399,
      "##नेछ": 9400,
      "नग": 9401,
      "##तमा": 9402,
      "##like": 9403,
      "dislike": 9404,
      "तपा": 9405,
      "चित्रमा": 9406,
      "##कल": 9407,
      "विदेश": 9408,
      "##टी": 9409,
      "अर्को": 9410,
      "उत्पादन": 9411,
      "2019": 9412,
      "भेट": 9413,
      "अधिकारी": 9414,
      "##्चामा": 9415,
      "क्याप्चामा": 9416,
      "राम्रो": 9417,
      "पक्ष": 9418,
      "नेतृ": 9419,
      "हामीले": 9420,
      "वटा": 9421,
      "शिक्षा": 9422,
      "सर्व": 9423,
      "##पु": 9424,
      "पुर": 9425,
      "8d": 9426,
      "##त्या": 9427,
      "##सँगै": 9428,
      "##ध्ये": 9429,
      "रकम": 9430,
      "खे": 9431,
      "##ेन्ट": 9432,
      "१५": 9433,
      "##भर": 9434,
      "नेपालमा": 9435,
      "संग": 9436,
      "##बाही": 9437,
      "##ns": 9438,
      "b0": 9439,
      "मत": 9440,
      "यहाँ": 9441,
      "##ृद्धि": 9442,
      "बनाउन": 9443,
      "##ठन": 9444,
      "##url": 9445,
      "निर्वाचन": 9446,
      "नेतृत्व": 9447,
      "हुनु": 9448,
      "अगा": 9449,
      "उद्योग": 9450,
      "विशेष": 9451,
      "##र्ण": 9452,
      "हुँदै": 9453,
      "##कि": 9454,
      "2018": 9455,
      "##न्ज": 9456,
      "link": 9457,
      "सहभाग": 9458,
      "##मति": 9459,
      "##वे": 9460,
      "सञ्चालन": 9461,
      "अर्थ": 9462,
      "उल्लेख": 9463,
      "##om": 9464,
      "##ोटो": 9465,
      "विद्यार्थ": 9466,
      "मैले": 9467,
      "##ाएको": 9468,
      "कृष": 9469,
      "in": 9470,
      "##थ्यो": 9471,
      "##राम": 9472,
      "चार": 9473,
      "जनता": 9474,
      "##र्स": 9475,
      "ठाउँ": 9476,
      "##त्ति": 9477,
      "xmlns": 9478,
      "##वरण": 9479,
      "##त्मक": 9480,
      "##्री": 9481,
      "##ब्द": 9482,
      "a8": 9483,
      "लक्ष": 9484,
      "पाँच": 9485,
      "##पर": 9486,
      "##धी": 9487,
      "उठ": 9488,
      "गर्छ": 9489,
      "१९": 9490,
      "सन्": 9491,
      "##लको": 9492,
      "१२": 9493,
      "सां": 9494,
      "##ग्री": 9495,
      "सभा": 9496,
      "खो": 9497,
      "अझ": 9498,
      "यी": 9499,
      "श्रेष्ठ": 9500,
      "##ीर": 9501,
      "##गायत": 9502,
      "सामाजिक": 9503,
      "##अनुसार": 9504,
      "मेरो": 9505,
      "##म्भ": 9506,
      "समूह": 9507,
      "फिल्": 9508,
      "एस": 9509,
      "विक": 9510,
      "भएर": 9511,
      "##मार": 9512,
      "भिडियो": 9513,
      "नीति": 9514,
      "करि": 9515,
      "कारबाही": 9516,
      "sp": 9517,
      "नहु": 9518,
      "दोस": 9519,
      "##ञ्ज": 9520,
      "##हरूलाई": 9521,
      "विषयमा": 9522,
      "##टर": 9523,
      "प्रकाश": 9524,
      "तल": 9525,
      "तपाई": 9526,
      "##त्ता": 9527,
      "##घा": 9528,
      "बनाउने": 9529,
      "प्राप्त": 9530,
      "अन": 9531,
      "भइरहेको": 9532,
      "##तर्फ": 9533,
      "क्रममा": 9534,
      "रोज": 9535,
      "##न्छन्": 9536,
      "जस्तै": 9537,
      "दोस्रो": 9538,
      "खेला": 9539,
      "हर": 9540,
      "बताउ": 9541,
      "##दो": 9542,
      "##ेमा": 9543,
      "सफल": 9544,
      "##फा": 9545,
      "तत्": 9546,
      "टो": 9547,
      "no": 9548,
      "११": 9549,
      "##बु": 9550,
      "चाह": 9551,
      "भएकाले": 9552,
      "##दर्श": 9553,
      "सुरक्षा": 9554,
      "आग": 9555,
      "##तको": 9556,
      "मध": 9557,
      "आउने": 9558,
      "परिवार": 9559,
      "न्या": 9560,
      "लागेको": 9561,
      "व्याप": 9562,
      "छल": 9563,
      "##साब": 9564,
      "##कर्ता": 9565,
      "बी": 9566,
      "##क्स": 9567,
      "साम": 9568,
      "उपा": 9569,
      "अनुस": 9570,
      "##नाइ": 9571,
      "अद": 9572,
      "हुँदा": 9573,
      "##युक्त": 9574,
      "शब्द": 9575,
      "जे": 9576,
      "सम्पन्न": 9577,
      "आयोग": 9578,
      "चीन": 9579,
      "५०": 9580,
      "बन्द": 9581,
      "थापा": 9582,
      "##un": 9583,
      "##स्क": 9584,
      "अवस्थामा": 9585,
      "माओ": 9586,
      "छलफल": 9587,
      "प्रतियोग": 9588,
      "##्दै": 9589,
      "##षा": 9590,
      "गोल": 9591,
      "##पोर्ट": 9592,
      "पै": 9593,
      "दश": 9594,
      "##त्यु": 9595,
      "फिल्म": 9596,
      "मन्त्री": 9597,
      "##are": 9598,
      "##सभा": 9599,
      "##ata": 9600,
      "मानिस": 9601,
      "##मन": 9602,
      "सी": 9603,
      "##न्ने": 9604,
      "गएको": 9605,
      "बार": 9606,
      "क्या": 9607,
      "समु": 9608,
      "वडा": 9609,
      "##्रि": 9610,
      "घोष": 9611,
      "##न्धान": 9612,
      "##नामा": 9613,
      "लाम": 9614,
      "##मित": 9615,
      "##न्दोल": 9616,
      "##बल": 9617,
      "सक्ने": 9618,
      "२०१": 9619,
      "गीत": 9620,
      "अगाडि": 9621,
      "##रुद्ध": 9622,
      "##व्य": 9623,
      "परेको": 9624,
      "##ाइन": 9625,
      "युवा": 9626,
      "जाने": 9627,
      "उपचार": 9628,
      "गर्नुपर्ने": 9629,
      "भएपछि": 9630,
      "##एपछि": 9631,
      "सक्छ": 9632,
      "अनुसन्धान": 9633,
      "##rig": 9634,
      "भारतीय": 9635,
      "मृत्यु": 9636,
      "रे": 9637,
      "अध्ययन": 9638,
      "comment": 9639,
      "यसको": 9640,
      "परी": 9641,
      "##गरी": 9642,
      "जारी": 9643,
      "##नाव": 9644,
      "##ोधन": 9645,
      "##सर": 9646,
      "मौ": 9647,
      "##माथि": 9648,
      "तयार": 9649,
      "##ic": 9650,
      "साल": 9651,
      "##क्ता": 9652,
      "##विधि": 9653,
      "लगायत": 9654,
      "##ट्ट": 9655,
      "##इन्": 9656,
      "ता": 9657,
      "हिसाब": 9658,
      "##साद": 9659,
      "##दार": 9660,
      "##ष्ण": 9661,
      "किस": 9662,
      "देखिन्छ": 9663,
      "##रोध": 9664,
      "बाहि": 9665,
      "##तिर": 9666,
      "re": 9667,
      "प्रतिनि": 9668,
      "##िसक": 9669,
      "पठ": 9670,
      "##ger": 9671,
      "share": 9672,
      "span": 9673,
      "संस्": 9674,
      "##ल्लो": 9675,
      "##जे": 9676,
      "पानी": 9677,
      "कार्या": 9678,
      "><": 9679,
      "प्रहरीले": 9680,
      "फोटो": 9681,
      "data": 9682,
      "परिव": 9683,
      "कार्यक्रममा": 9684,
      "सरकारी": 9685,
      "##पनि": 9686,
      "##वारी": 9687,
      "trig": 9688,
      "trigger": 9689,
      "des": 9690,
      "##्वास": 9691,
      "##ek": 9692,
      "पी": 9693,
      "पद": 9694,
      "##ल्या": 9695,
      "ne": 9696,
      "##ामी": 9697,
      "अफ": 9698,
      "##र्फत": 9699,
      "##लाइ": 9700,
      "##ृत": 9701,
      "तयारी": 9702,
      "##ल्ने": 9703,
      "स्ट": 9704,
      "आन्दोल": 9705,
      "अदाल": 9706,
      "त्यही": 9707,
      "हुनेछ": 9708,
      "##्यू": 9709,
      "##ref": 9710,
      "आरो": 9711,
      "गरिने": 9712,
      "अधिकार": 9713,
      "href": 9714,
      "##बर": 9715,
      "##id": 9716,
      "उच्च": 9717,
      "यात्र": 9718,
      "२५": 9719,
      "अर्ब": 9720,
      "##ग्गा": 9721,
      "जुन": 9722,
      "##भव": 9723,
      "ट्र": 9724,
      "##म्बर": 9725,
      "साथै": 9726,
      "भाग": 9727,
      "पत्रकार": 9728,
      "सकिन्छ": 9729,
      "अभिय": 9730,
      "##लगायत": 9731,
      "विद्यार्थी": 9732,
      "मलाई": 9733,
      "##काली": 9734,
      "##ौड": 9735,
      "कार्यान्व": 9736,
      "##ियन": 9737,
      "कर": 9738,
      "##हाल": 9739,
      "##ेकी": 9740,
      "##ator": 9741,
      "##ल्ला": 9742,
      "##थे": 9743,
      "टोली": 9744,
      "मूल्य": 9745,
      "विभाग": 9746,
      "निकै": 9747,
      "प्रशा": 9748,
      "dc": 9749,
      "##cription": 9750,
      "description": 9751,
      "##lin": 9752,
      "संघीय": 9753,
      "सचिव": 9754,
      "दुर्": 9755,
      "करिब": 9756,
      "##तले": 9757,
      "गुरु": 9758,
      "एमाले": 9759,
      "##ws": 9760,
      "सरकारको": 9761,
      "##झा": 9762,
      "##धारण": 9763,
      "##द्दा": 9764,
      "घोषणा": 9765,
      "एव": 9766,
      "##जक": 9767,
      "##ंश": 9768,
      "अमेरिका": 9769,
      "07": 9770,
      "95": 9771,
      "##ालिका": 9772,
      "##र्मा": 9773,
      "फर": 9774,
      "कृषि": 9775,
      "यही": 9776,
      "##तर": 9777,
      "##स्ताव": 9778,
      "विज्ञ": 9779,
      "गर्नका": 9780,
      "हिसाबले": 9781,
      "जग्गा": 9782,
      "समयमा": 9783,
      "/\"": 9784,
      "उद्": 9785,
      "atom": 9786,
      "##ीका": 9787,
      "purl": 9788,
      "डि": 9789,
      "त्यहाँ": 9790,
      "##लग": 9791,
      "प्रत्य": 9792,
      "जीवन": 9793,
      "दुवै": 9794,
      "##राई": 9795,
      "भ्रम": 9796,
      "##छा": 9797,
      "##82": 9798,
      "महान": 9799,
      "##उँछन्": 9800,
      "बाटो": 9801,
      "##ग्रह": 9802,
      "##ंह": 9803,
      "news": 9804,
      "मुद्दा": 9805,
      "छन": 9806,
      "त्यसैले": 9807,
      "भु": 9808,
      "पक्र": 9809,
      "##च्छ": 9810,
      "##िन्": 9811,
      "##टमा": 9812,
      "छुट": 9813,
      "##मध्ये": 9814,
      "गरिए": 9815,
      "##habar": 9816,
      "onlin": 9817,
      "बिना": 9818,
      "कसरी": 9819,
      "##र्या": 9820,
      "ग्र": 9821,
      "बल": 9822,
      "##ल्क": 9823,
      "३०": 9824,
      "जस्तो": 9825,
      "लिएर": 9826,
      "लागी": 9827,
      "##चित्र": 9828,
      "निकाय": 9829,
      "##धिका": 9830,
      "##से": 9831,
      "फर्क": 9832,
      "87": 9833,
      "ज्ञ": 9834,
      "##ेउ": 9835,
      "अभि": 9836,
      "##as": 9837,
      "##मिक": 9838,
      "##वाह": 9839,
      "##रहेका": 9840,
      "##ekhabar": 9841,
      "onlinekhabar": 9842,
      "##ag": 9843,
      "##िटर": 9844,
      "थाले": 9845,
      "रहे": 9846,
      "फो": 9847,
      "आधारमा": 9848,
      "##वेदन": 9849,
      "विस्त": 9850,
      "##op": 9851,
      "व्यवस्थापन": 9852,
      "प्रस्ताव": 9853,
      "छौं": 9854,
      "##सिक": 9855,
      "परिवर्त": 9856,
      "सम्झौ": 9857,
      "##्दा": 9858,
      "##ir": 9859,
      "भनेको": 9860,
      "fee": 9861,
      "पक्राउ": 9862,
      "##्ना": 9863,
      "छु": 9864,
      "बढाइ": 9865,
      "##ानो": 9866,
      "थिएन": 9867,
      "रोजग": 9868,
      "सांसद": 9869,
      "स्वीकृति": 9870,
      "##रले": 9871,
      "शक्ति": 9872,
      "राष्ट्रपति": 9873,
      "जन्": 9874,
      "पर्यटक": 9875,
      "नियन्त्र": 9876,
      "##ल्न": 9877,
      "होला": 9878,
      "संसद": 9879,
      "74": 9880,
      "श्री": 9881,
      "##लेर": 9882,
      "सुन": 9883,
      "सबैभन्दा": 9884,
      "##यात": 9885,
      "पाउने": 9886,
      "दिएका": 9887,
      "चाल": 9888,
      "##यास": 9889,
      "##ेम": 9890,
      "बाहिर": 9891,
      "हुँदैन": 9892,
      "लामो": 9893,
      "चला": 9894,
      "pa": 9895,
      "कला": 9896,
      "पोस्ट": 9897,
      "आउ": 9898,
      "##ानको": 9899,
      "##रत": 9900,
      "खेलमा": 9901,
      "त्यसको": 9902,
      "##sh": 9903,
      "##तिमा": 9904,
      "बस्ने": 9905,
      "निर": 9906,
      "##पक्ष": 9907,
      "##प्रसाद": 9908,
      "##कर्ष": 9909,
      "##यी": 9910,
      "नभएको": 9911,
      "टेक्": 9912,
      "बनेको": 9913,
      "feed": 9914,
      "बिक": 9915,
      "योग": 9916,
      "पुगेको": 9917,
      "माओवादी": 9918,
      "पूरा": 9919,
      "हरु": 9920,
      "##ृह": 9921,
      "स्रो": 9922,
      "प्रतियोगिता": 9923,
      "##कृत": 9924,
      "##लामा": 9925,
      "चलचित्र": 9926,
      "##कपा": 9927,
      "##ed": 9928,
      "प्रश्न": 9929,
      "विमान": 9930,
      "१३": 9931,
      "बताएका": 9932,
      "##वल": 9933,
      "स्थापना": 9934,
      "सन्द": 9935,
      "यस्तै": 9936,
      "##ोरी": 9937,
      "मै": 9938,
      "##तम": 9939,
      "उनलाई": 9940,
      "##र्ज": 9941,
      "सहमति": 9942,
      "पोखरा": 9943,
      "यसै": 9944,
      "भूम": 9945,
      "##ex": 9946,
      "##तार": 9947,
      "##तिहा": 9948,
      "छैनन्": 9949,
      "##ष्टि": 9950,
      "हरेक": 9951,
      "##ाल्": 9952,
      "नेकपा": 9953,
      "##सम्": 9954,
      "सोच": 9955,
      "##ैनिक": 9956,
      "त्यस्तै": 9957,
      "अधिक": 9958,
      "गौ": 9959,
      "व्या": 9960,
      "##चाल": 9961,
      "पाइँदैन": 9962,
      "फुट": 9963,
      "##दछ": 9964,
      "##शु": 9965,
      "भ्रमण": 9966,
      "पदा": 9967,
      "साइट": 9968,
      "संख्या": 9969,
      "##ist": 9970,
      "चरण": 9971,
      "##कको": 9972,
      "यसले": 9973,
      "भित्र": 9974,
      "अन्ति": 9975,
      "१४": 9976,
      "चर्च": 9977,
      "आरोप": 9978,
      "अझै": 9979,
      "पैसा": 9980,
      "नियन्त्रण": 9981,
      "ब्या": 9982,
      "##नका": 9983,
      "la": 9984,
      "खेलाडी": 9985,
      "##art": 9986,
      "गोप": 9987,
      "bf": 9988,
      "सामाग्री": 9989,
      "दक्ष": 9990,
      "अन्तिम": 9991,
      "आँ": 9992,
      "१६": 9993,
      "ध्यान": 9994,
      "पौड": 9995,
      "१८": 9996,
      "लिन": 9997,
      "नेपालले": 9998,
      "##पटक": 9999,
      "पछिल्लो": 10000,
      "##र्गत": 10001,
      "##ध्यक्ष": 10002,
      "##कालीन": 10003,
      "##िनिय": 10004,
      "##भू": 10005,
      "##हरुमा": 10006,
      "प्रदर्श": 10007,
      "प्रच": 10008,
      "ri": 10009,
      "डे": 10010,
      "वर्षको": 10011,
      "अर": 10012,
      "साँ": 10013,
      "सहभागी": 10014,
      "समुदाय": 10015,
      "05": 10016,
      "भनाइ": 10017,
      "प्रस्तु": 10018,
      "आफ्ना": 10019,
      "स्प": 10020,
      "##ost": 10021,
      "न्याय": 10022,
      "ओली": 10023,
      "##फ्र": 10024,
      "आफ्नै": 10025,
      "##जि": 10026,
      "jun": 10027,
      "##दर": 10028,
      "##िरहेको": 10029,
      "##ढी": 10030,
      "यस्ता": 10031,
      "गण": 10032,
      "##र्जन": 10033,
      "##विद्य": 10034,
      "विद्यु": 10035,
      "फेर": 10036,
      "##unt": 10037,
      "एवं": 10038,
      "थाहा": 10039,
      "खाने": 10040,
      "##क्क": 10041,
      "##ेलले": 10042,
      "सम्झौता": 10043,
      "सम्भाव": 10044,
      "##विधा": 10045,
      "##नले": 10046,
      "मान्छ": 10047,
      "##टै": 10048,
      "##vt": 10049,
      "काल": 10050,
      "अभियान": 10051,
      "##td": 10052,
      "वर्षीय": 10053,
      "ltd": 10054,
      "केन्द्रीय": 10055,
      "सूचना": 10056,
      "फि": 10057,
      "प्रदान": 10058,
      "pvt": 10059,
      "##हरूमा": 10060,
      "##कमा": 10061,
      "गोप्य": 10062,
      "##ंगा": 10063,
      "चुनाव": 10064,
      "दो": 10065,
      "स्थानमा": 10066,
      "सङ्": 10067,
      "##कम्प": 10068,
      "विध": 10069,
      "##ंगल": 10070,
      "जु": 10071,
      "देव": 10072,
      "अडियो": 10073,
      "दी": 10074,
      "count": 10075,
      "##डित": 10076,
      "भूमिका": 10077,
      "##for": 10078,
      "##तरण": 10079,
      "reg": 10080,
      "##र्जा": 10081,
      "##िप": 10082,
      "##नाले": 10083,
      "सहज": 10084,
      "बाँकी": 10085,
      "##ing": 10086,
      "दर्ता": 10087,
      "बिहान": 10088,
      "ed": 10089,
      "टु": 10090,
      "मानव": 10091,
      "##त्री": 10092,
      "बढेको": 10093,
      "दू": 10094,
      "परेका": 10095,
      "गर्नुहोस": 10096,
      "##तावरण": 10097,
      "थाल": 10098,
      "##erson": 10099,
      "##एन": 10100,
      "ताल": 10101,
      "सामाग्रीहरु": 10102,
      "राखिने": 10103,
      "##stha": 10104,
      "धा": 10105,
      "##forma": 10106,
      "##hil": 10107,
      "तपाईं": 10108,
      "अरु": 10109,
      "##ल्प": 10110,
      "लु": 10111,
      "साइटमा": 10112,
      "informa": 10113,
      "the": 10114,
      "##बि": 10115,
      "##ाउनु": 10116,
      "information": 10117,
      "shre": 10118,
      "##00": 10119,
      "##itor": 10120,
      "##उँदै": 10121,
      "##राइट": 10122,
      "##तो": 10123,
      "##ision": 10124,
      "##वर": 10125,
      "shrestha": 10126,
      "पराज": 10127,
      "कपि": 10128,
      "##ration": 10129,
      "जिम्म": 10130,
      "पूर्ण": 10131,
      "##कुमार": 10132,
      "##चित": 10133,
      "##घट": 10134,
      "dep": 10135,
      "वातावरण": 10136,
      "हेर्": 10137,
      "क्लिक": 10138,
      "editor": 10139,
      "##ागत": 10140,
      "बढाइनेछ": 10141,
      "गरिएमा": 10142,
      "##pe": 10143,
      "##न्टर": 10144,
      "pahil": 10145,
      "##irp": 10146,
      "नद": 10147,
      "तथ": 10148,
      "व्यापार": 10149,
      "##mesh": 10150,
      "भिडियोका": 10151,
      "कै": 10152,
      "टेक्स्ट": 10153,
      "आमा": 10154,
      "382": 10155,
      "लेख्नु": 10156,
      "##qu": 10157,
      "भट्ट": 10158,
      "##opost": 10159,
      "pahilopost": 10160,
      "depart": 10161,
      "regist": 10162,
      "##jal": 10163,
      "कपिराइट": 10164,
      "department": 10165,
      "##के": 10166,
      "073": 10167,
      "umesh": 10168,
      "निजी": 10169,
      "registration": 10170,
      "rijal": 10171,
      "division": 10172,
      "सन्त": 10173,
      "chairp": 10174,
      "chairperson": 10175,
      "junu": 10176,
      "##ते": 10177,
      "उनका": 10178,
      "##िकेट": 10179,
      "रोग": 10180,
      "##ुरो": 10181,
      "##मन्त्र": 10182,
      "छोरा": 10183,
      "सवारी": 10184,
      "कृप": 10185,
      "##यम": 10186,
      "यति": 10187,
      "विस्तार": 10188,
      "प्रण": 10189,
      "जन्म": 10190,
      "परिवर्तन": 10191,
      "कृपया": 10192,
      "सोम": 10193,
      "सुधार": 10194,
      "गर्छन्": 10195,
      "##ुरुष": 10196,
      "२०७५": 10197,
      "##नुभएको": 10198,
      "पश्च": 10199,
      "##िण": 10200,
      "##न्तर": 10201,
      "##शील": 10202,
      "कार्यान्वयन": 10203,
      "##हुन्छ": 10204,
      "गरिरहेको": 10205,
      "राजधान": 10206,
      "फरक": 10207,
      "विश्वास": 10208,
      "##निर्": 10209,
      "##यण": 10210,
      "></": 10211,
      "याद": 10212,
      "सामान्य": 10213,
      "##ताका": 10214,
      "सपोर्ट": 10215,
      "त्यसै": 10216,
      "en": 10217,
      "दर": 10218,
      "नसक्": 10219,
      "अति": 10220,
      "गति": 10221,
      "नम्बर": 10222,
      "\"><": 10223,
      "सर्": 10224,
      "\"></": 10225,
      "दृ": 10226,
      "थि": 10227,
      "ty": 10228,
      "##्ले": 10229,
      "महत्व": 10230,
      "सुविधा": 10231,
      "##हन": 10232,
      "खेत": 10233,
      "हात": 10234,
      "पहिले": 10235,
      "पुरुष": 10236,
      "##ध्यम": 10237,
      "जस": 10238,
      "त्यसपछि": 10239,
      "उम्म": 10240,
      "गुरुङ": 10241,
      "वन": 10242,
      "रिफ्र": 10243,
      "गर्नुस": 10244,
      "लेख्नुहोस": 10245,
      "शै": 10246,
      "रिफ्रेश": 10247,
      "सम्मेल": 10248,
      "15": 10249,
      "##स्ती": 10250,
      "##म्मा": 10251,
      "भूकम्प": 10252,
      "संरचना": 10253,
      "भण्ड": 10254,
      "टिम": 10255,
      "सात": 10256,
      "जल": 10257,
      "gen": 10258,
      "गरिदैन": 10259,
      "##हेक": 10260,
      "tag": 10261,
      "ठाउँमा": 10262,
      "लक्ष्य": 10263,
      "gener": 10264,
      "पुर्य": 10265,
      "पर्छ": 10266,
      "१७": 10267,
      "पि": 10268,
      "##ैर": 10269,
      "नारा": 10270,
      "##ढा": 10271,
      "क्लब": 10272,
      "गठन": 10273,
      "आगामी": 10274,
      "12": 10275,
      "नाममा": 10276,
      "##enc": 10277,
      "##िकी": 10278,
      "##वेश": 10279,
      "पुल": 10280,
      "##कृतिक": 10281,
      "संरक्षण": 10282,
      "type": 10283,
      "enc": 10284,
      "##ाउँदै": 10285,
      "हत्या": 10286,
      "देउ": 10287,
      "राई": 10288,
      "##रिद": 10289,
      "##कर्म": 10290,
      "##क्रमण": 10291,
      "##av": 10292,
      "##बद्ध": 10293,
      "##eri": 10294,
      "पर्यटन": 10295,
      "encod": 10296,
      "वृद्धि": 10297,
      "##nn": 10298,
      "भन्छन्": 10299,
      "##लु": 10300,
      "वितरण": 10301,
      "शर्मा": 10302,
      "तेस": 10303,
      "सकिने": 10304,
      "सीमा": 10305,
      "##लले": 10306,
      "समाचार": 10307,
      "हुन्छन्": 10308,
      "निर्देशन": 10309,
      "बताउँछन्": 10310,
      "आश": 10311,
      "##उँछ": 10312,
      "##ोड": 10313,
      "हेर": 10314,
      "त्यति": 10315,
      "चाहि": 10316,
      "संश": 10317,
      "##bu": 10318,
      "##क्षित": 10319,
      "##ule": 10320,
      "क्षम": 10321,
      "२१": 10322,
      "अल": 10323,
      "##द्धा": 10324,
      "8b": 10325,
      "व्यवसायी": 10326,
      "रोक": 10327,
      "अभाव": 10328,
      "मना": 10329,
      "नेपालका": 10330,
      "प्रवेश": 10331,
      "##कले": 10332,
      "यसअघि": 10333,
      "##ild": 10334,
      "त्रि": 10335,
      "म्या": 10336,
      "##ication": 10337,
      "दुर्घट": 10338,
      "mod": 10339,
      "बालब": 10340,
      "नहुने": 10341,
      "शुक्र": 10342,
      "##ency": 10343,
      "विवाद": 10344,
      "update": 10345,
      "तेस्रो": 10346,
      "##लाको": 10347,
      "उहाँले": 10348,
      "last": 10349,
      "भाषा": 10350,
      "##पय": 10351,
      "##मार्ग": 10352,
      "बारेमा": 10353,
      "दक्षिण": 10354,
      "गरेपछि": 10355,
      "बहु": 10356,
      "vers": 10357,
      "##ules": 10358,
      "chann": 10359,
      "channel": 10360,
      "##fre": 10361,
      "##eriod": 10362,
      "version": 10363,
      "कतिपय": 10364,
      "updat": 10365,
      "कार्": 10366,
      "generator": 10367,
      "##quency": 10368,
      "modules": 10369,
      "##build": 10370,
      "##eperiod": 10371,
      "updatefre": 10372,
      "lastbuild": 10373,
      "updateperiod": 10374,
      "updatefrequency": 10375,
      "lastbuilddate": 10376,
      "ऐन": 10377,
      "##दू": 10378,
      "आग्रह": 10379,
      "##ेयक": 10380,
      "सिंह": 10381,
      "गर्नुभ": 10382,
      "##उनु": 10383,
      "##पानी": 10384,
      "##देव": 10385,
      "एन": 10386,
      "शान्ति": 10387,
      "b8": 10388,
      "##बेला": 10389,
      "तत्काल": 10390,
      "प्रकाशित": 10391,
      "दाबी": 10392,
      "नजिक": 10393,
      "गरिरहेका": 10394,
      "##शाख": 10395,
      "खरिद": 10396,
      "##वाल": 10397,
      "घरमा": 10398,
      "##षण": 10399,
      "##लेज": 10400,
      "उपभ": 10401,
      "भर्": 10402,
      "##धु": 10403,
      "##लीले": 10404,
      "##जित": 10405,
      "बिक्री": 10406,
      "81": 10407,
      "विधेयक": 10408,
      "##विक": 10409,
      "b2": 10410,
      "##हुँ": 10411,
      "गरा": 10412,
      "##द्वार": 10413,
      "यसरी": 10414,
      "च्या": 10415,
      "मधेस": 10416,
      "##सम्बन्ध": 10417,
      "उम्मेद": 10418,
      "औं": 10419,
      "कम्यु": 10420,
      "सकेको": 10421,
      "ae": 10422,
      "बजारमा": 10423,
      "मान्छे": 10424,
      "टा": 10425,
      "कारो": 10426,
      "पूर्वा": 10427,
      "##हित्य": 10428,
      "##डान": 10429,
      "विगत": 10430,
      "##ताले": 10431,
      "संयो": 10432,
      "लिएको": 10433,
      "##काम": 10434,
      "आदि": 10435,
      "##दिन": 10436,
      "आइत": 10437,
      "बर्ष": 10438,
      "ढु": 10439,
      "मिने": 10440,
      "खान": 10441,
      "##ेप": 10442,
      "बालबालिका": 10443,
      "##ter": 10444,
      "प्रस्तुत": 10445,
      "मन्द": 10446,
      "गृह": 10447,
      "फेरि": 10448,
      "##स्थल": 10449,
      "बुध": 10450,
      "यादव": 10451,
      "कमज": 10452,
      "##ाइएको": 10453,
      "धन": 10454,
      "##एस": 10455,
      "कप": 10456,
      "##ट्": 10457,
      "जति": 10458,
      "##राब": 10459,
      "सम्भावना": 10460,
      "तुल": 10461,
      "प्रमाण": 10462,
      "अवसर": 10463,
      "##कोट": 10464,
      "##नाथ": 10465,
      "प्रेम": 10466,
      "##ल्ट": 10467,
      "##स्पर्": 10468,
      "दर्श": 10469,
      "बनाएको": 10470,
      "##रीको": 10471,
      "जिल्लामा": 10472,
      "शे": 10473,
      "शिक्षक": 10474,
      "गर्नुपर्छ": 10475,
      "साहित्य": 10476,
      "प्रयास": 10477,
      "##वान": 10478,
      "उत्तर": 10479,
      "यसलाई": 10480,
      "अपरा": 10481,
      "##te": 10482,
      "दैनिक": 10483,
      "##िकित्": 10484,
      "लिने": 10485,
      "धर्म": 10486,
      "झा": 10487,
      "##श्व": 10488,
      "##डो": 10489,
      "##संग": 10490,
      "श्रम": 10491,
      "##ारमा": 10492,
      "निम्": 10493,
      "##स्थिति": 10494,
      "नं": 10495,
      "।”": 10496,
      "##th": 10497,
      "##हल": 10498,
      "aa": 10499,
      "जस्ता": 10500,
      "विज": 10501,
      "टोल": 10502,
      "कोर": 10503,
      "तिम": 10504,
      "घु": 10505,
      "न्यू": 10506,
      "नसक": 10507,
      "##विरुद्ध": 10508,
      "##संघ": 10509,
      "कथा": 10510,
      "तिन": 10511,
      "प्रतिस्पर्": 10512,
      "कलेज": 10513,
      "स्रोत": 10514,
      "##स्त्र": 10515,
      "४०": 10516,
      "कायम": 10517,
      "ho": 10518,
      "किसान": 10519,
      "क्षति": 10520,
      "अधिकृत": 10521,
      "##ंका": 10522,
      "थालेको": 10523,
      "लाग्ने": 10524,
      "रहने": 10525,
      "शनि": 10526,
      "प्राथ": 10527,
      "चिकित्": 10528,
      "##तिय": 10529,
      "बाट": 10530,
      "प्रतिनिध": 10531,
      "विदेशी": 10532,
      "प्रशि": 10533,
      "किलो": 10534,
      "ब्य": 10535,
      "बजे": 10536,
      "##षद्": 10537,
      "अमेरिकी": 10538,
      "मंगल": 10539,
      "२२": 10540,
      "##पित": 10541,
      "संयुक्त": 10542,
      "बीच": 10543,
      "##न्या": 10544,
      "##वासी": 10545,
      "कहिले": 10546,
      "##नाको": 10547,
      "##खु": 10548,
      "मन्दिर": 10549,
      "##कलन": 10550,
      "प्रविधि": 10551,
      "बाध्य": 10552,
      "##पान": 10553,
      "##ीकरण": 10554,
      "##्रै": 10555,
      "##ठा": 10556,
      "क्रिकेट": 10557,
      "##सम्बन्धी": 10558,
      "लाग्छ": 10559,
      "रन": 10560,
      "तोक": 10561,
      "##देश्य": 10562,
      "आन्दोलन": 10563,
      "यसमा": 10564,
      "भौ": 10565,
      "##मो": 10566,
      "प्राथमिक": 10567,
      "भद": 10568,
      "##ैँ": 10569,
      "स्त": 10570,
      "भवन": 10571,
      "जनताको": 10572,
      "सम्मान": 10573,
      "##्यांक": 10574,
      "राजनीति": 10575,
      "कम्युनि": 10576,
      "२०७४": 10577,
      "भण्डारी": 10578,
      "राख्ने": 10579,
      "पूर्वाधार": 10580,
      "##ेवारी": 10581,
      "सोमबार": 10582,
      "चै": 10583,
      "जाँ": 10584,
      "जब": 10585,
      "वीर": 10586,
      "प्रावि": 10587,
      "गुण": 10588,
      "प्रशासन": 10589,
      "उमेर": 10590,
      "सम्बन्धित": 10591,
      "टि": 10592,
      "##05": 10593,
      "मध्य": 10594,
      "हट": 10595,
      "अंक": 10596,
      "##धिकरण": 10597,
      "क्षेत्रको": 10598,
      "तामा": 10599,
      "भई": 10600,
      "##तै": 10601,
      "##स्व": 10602,
      "२४": 10603,
      "tw": 10604,
      "फाइ": 10605,
      "लिग": 10606,
      "औष": 10607,
      "दाहाल": 10608,
      "##पाद": 10609,
      "फै": 10610,
      "आत्म": 10611,
      "##सद्": 10612,
      "समितिले": 10613,
      "##साइ": 10614,
      "दिइ": 10615,
      "आइतबार": 10616,
      "विचार": 10617,
      "अर्था": 10618,
      "##मत": 10619,
      "उनीहरू": 10620,
      "##मात्र": 10621,
      "अन्त्य": 10622,
      "##लाग": 10623,
      "##्वा": 10624,
      "लाई": 10625,
      "##ंस": 10626,
      "/?": 10627,
      "कमा": 10628,
      "vo": 10629,
      "##ँड": 10630,
      "प्रचण्ड": 10631,
      "##कृष्ट": 10632,
      "##ष्टा": 10633,
      "जम": 10634,
      "हरा": 10635,
      "##सित": 10636,
      "होट": 10637,
      "##ची": 10638,
      "छाड": 10639,
      "जिम्मेवारी": 10640,
      "कृष्ण": 10641,
      "प्राधिकरण": 10642,
      "##ल्य": 10643,
      "##चान": 10644,
      "आई": 10645,
      "महानगर": 10646,
      "शुक्रबार": 10647,
      "##itter": 10648,
      "twitter": 10649,
      "ठूला": 10650,
      "##45": 10651,
      "रोजगारी": 10652,
      "##िरहेका": 10653,
      "गम्भ": 10654,
      "जीव": 10655,
      "सुझा": 10656,
      "अरू": 10657,
      "खुला": 10658,
      "शुरु": 10659,
      "तर्फ": 10660,
      "याता": 10661,
      "##ङ्क": 10662,
      "##mb": 10663,
      "##उँदा": 10664,
      "पाएको": 10665,
      "निरन्तर": 10666,
      "##ित्व": 10667,
      "विरोध": 10668,
      "आए": 10669,
      "बनाएर": 10670,
      "##देशिक": 10671,
      "मिल्": 10672,
      "##जो": 10673,
      "भइसकेको": 10674,
      "वर्षमा": 10675,
      "अधिकांश": 10676,
      "##कारा": 10677,
      "##सचिव": 10678,
      "##पद": 10679,
      "गरिसक": 10680,
      "कोइ": 10681,
      "##कार्य": 10682,
      "कुल": 10683,
      "हिमा": 10684,
      "बन्न": 10685,
      "##मल": 10686,
      "##िल्लो": 10687,
      "असार": 10688,
      "प्राविधिक": 10689,
      "गराउने": 10690,
      "##cript": 10691,
      "##क्टर": 10692,
      "पुग्ने": 10693,
      "कारोबार": 10694,
      "आम": 10695,
      "##avas": 10696,
      "पर्व": 10697,
      "देशको": 10698,
      "गि": 10699,
      "अग्र": 10700,
      ");": 10701,
      "##all": 10702,
      "##र्भ": 10703,
      "बुधबार": 10704,
      "##सका": 10705,
      "संस्कृति": 10706,
      "प्रतिवेदन": 10707,
      "भएन": 10708,
      "javas": 10709,
      "javascript": 10710,
      "नव": 10711,
      "ap": 10712,
      "##]>": 10713,
      "##data": 10714,
      "विन": 10715,
      "सम्ब": 10716,
      "##क्का": 10717,
      "##![": 10718,
      "##ोत्": 10719,
      "cdata": 10720,
      "void": 10721,
      "><![": 10722,
      ");\"": 10723,
      "##]></": 10724,
      "बताउनुभयो": 10725,
      "सहित": 10726,
      "चित": 10727,
      "।'": 10728,
      "सहर": 10729,
      "/-": 10730,
      "##रुप": 10731,
      "विश्वक": 10732,
      "संयोजक": 10733,
      "##पको": 10734,
      "माथि": 10735,
      "पुस्त": 10736,
      "राजा": 10737,
      "घाइ": 10738,
      "यात्रा": 10739,
      "इतिहा": 10740,
      "##च्चा": 10741,
      "संशोधन": 10742,
      "अहिलेसम्म": 10743,
      "स्वतन्त्र": 10744,
      "कवि": 10745,
      "##ीलाई": 10746,
      "बुद्ध": 10747,
      "भै": 10748,
      "##लेका": 10749,
      "२००": 10750,
      "##श्चित": 10751,
      "समाधान": 10752,
      "कर्ण": 10753,
      "गठ": 10754,
      "इन्टर": 10755,
      "ऋण": 10756,
      "तस्": 10757,
      "##तिकै": 10758,
      "and": 10759,
      "##ालले": 10760,
      "##am": 10761,
      "पराजित": 10762,
      "हस्ता": 10763,
      "##ंसा": 10764,
      "##बाटै": 10765,
      "भ्र": 10766,
      "##द्वारा": 10767,
      "टेल": 10768,
      "भी": 10769,
      "##दल": 10770,
      "ओलीले": 10771,
      "##कुल": 10772,
      "लगायतका": 10773,
      "अनुभव": 10774,
      "##्रे": 10775,
      "पीडित": 10776,
      "धार": 10777,
      "##स्कार": 10778,
      "खड्": 10779,
      "कलाकार": 10780,
      "रहेछ": 10781,
      "##ad": 10782,
      "जेठ": 10783,
      "भारतको": 10784,
      "गाडी": 10785,
      "सोही": 10786,
      "आउन": 10787,
[...]
