{
  "version": "1.0",
  "truncation": null,
  "padding": {
    "strategy": "BatchLongest",
    "direction": "Right",
    "pad_to_multiple_of": null,
    "pad_id": 3,
    "pad_type_id": 0,
    "pad_token": "<pad>"
  },
  "added_tokens": [
    {
      "id": 0,
      "content": "<cls>",
      "single_word": false,
      "lstrip": false,
      "rstrip": false,
      "normalized": false,
      "special": true
    },
    {
      "id": 1,
      "content": "<sep>",
      "single_word": false,
      "lstrip": false,
      "rstrip": false,
      "normalized": false,
      "special": true
    },
    {
      "id": 2,
      "content": "<unk>",
      "single_word": false,
      "lstrip": false,
      "rstrip": false,
      "normalized": false,
      "special": true
    },
    {
      "id": 3,
      "content": "<pad>",
      "single_word": false,
      "lstrip": false,
      "rstrip": false,
      "normalized": false,
      "special": true
    },
    {
      "id": 4,
      "content": "<mask>",
      "single_word": false,
      "lstrip": false,
      "rstrip": false,
      "normalized": false,
      "special": true
    },
    {
      "id": 5,
      "content": "<s>",
      "single_word": false,
      "lstrip": false,
      "rstrip": false,
      "normalized": false,
      "special": true
    },
    {
      "id": 6,
      "content": "</s>",
      "single_word": false,
      "lstrip": false,
      "rstrip": false,
      "normalized": false,
      "special": true
    }
  ],
  "normalizer": {
    "type": "Sequence",
    "normalizers": [
      {
        "type": "Replace",
        "pattern": {
          "String": "“"
        },
        "content": "\""
      },
      {
        "type": "Replace",
        "pattern": {
          "String": "”"
        },
        "content": "\""
      },
      {
        "type": "Replace",
        "pattern": {
          "String": "‘"
        },
        "content": "'"
      },
      {
        "type": "Replace",
        "pattern": {
          "String": "’"
        },
        "content": "'"
      },
      {
        "type": "Replace",
        "pattern": {
          "Regex": " {2,}"
        },
        "content": " "
      }
    ]
  },
  "pre_tokenizer": {
    "type": "Metaspace",
    "replacement": "▁",
    "add_prefix_space": true
  },
  "post_processor": {
    "type": "TemplateProcessing",
    "single": [
      {
        "Sequence": {
          "id": "A",
          "type_id": 0
        }
      },
      {
        "SpecialToken": {
          "id": "<sep>",
          "type_id": 0
        }
      },
      {
        "SpecialToken": {
          "id": "<cls>",
          "type_id": 2
        }
      }
    ],
    "pair": [
      {
        "Sequence": {
          "id": "A",
          "type_id": 0
        }
      },
      {
        "SpecialToken": {
          "id": "<sep>",
          "type_id": 0
        }
      },
      {
        "Sequence": {
          "id": "B",
          "type_id": 1
        }
      },
      {
        "SpecialToken": {
          "id": "<sep>",
          "type_id": 1
        }
      },
      {
        "SpecialToken": {
          "id": "<cls>",
          "type_id": 2
        }
      }
    ],
    "special_tokens": {
      "<cls>": {
        "id": "<cls>",
        "ids": [
          0
        ],
        "tokens": [
          "<cls>"
        ]
      },
      "<sep>": {
        "id": "<sep>",
        "ids": [
          1
        ],
        "tokens": [
          "<sep>"
        ]
      }
    }
  },
  "decoder": {
    "type": "Metaspace",
    "replacement": "▁",
    "add_prefix_space": true
  },
  "model": {
    "type": "Unigram",
    "unk_id": 2,
    "vocab": [
      [
        "<cls>",
        0.0
      ],
      [
        "<sep>",
        0.0
      ],
      [
        "<unk>",
        0.0
      ],
      [
        "<pad>",
        0.0
      ],
      [
        "<mask>",
        0.0
      ],
      [
        "<s>",
        0.0
      ],
      [
        "</s>",
        0.0
      ],
      [
        "▁",
        -3.20677138977209
      ],
      [
        "▁।",
        -3.5709160345848563
      ],
      [
        "को",
        -3.763827588370262
      ],
      [
        "मा",
        -4.215012058026497
      ],
      [
        "\n",
        -4.340923505718903
      ],
      [
        "ले",
        -4.3557374939804525
      ],
      [
        ",",
        -4.393881252257506
      ],
      [
        "\r",
        -4.403467446079942
      ],
      [
        "▁र",
        -4.4657775033946425
      ],
      [
        "का",
        -4.515210823097513
      ],
      [
        "</p>",
        -4.694098036864544
      ],
      [
        "▁<p>",
        -4.699815430276169
      ],
      [
        "▁छ",
        -4.8158990189576905
      ],
      [
        "लाई",
        -4.9957113947108045
      ],
      [
        "▁पनि",
        -5.065615397981219
      ],
      [
        "▁भएको",
        -5.588125578041582
      ],
      [
        "बाट",
        -5.684898688988724
      ],
      [
        "▁लागि",
        -5.7022606758051655
      ],
      [
        "▁गर्न",
        -5.77619314747224
      ],
      [
        "र",
        -5.794010011427204
      ],
      [
        "▁गरेको",
        -5.796304918137871
      ],
      [
        "▁छन्",
        -5.861194294783228
      ],
      [
        "▁गर्ने",
        -5.915020756216746
      ],
      [
        ":",
        -5.917056293361064
      ],
      [
        "▁भने",
        -5.96892503401102
      ],
      [
        "▁हो",
        -5.970378394479345
      ],
      [
        "न",
        -6.033435125290138
      ],
      [
        "▁तथा",
        -6.070458154665925
      ],
      [
        "▁यो",
        -6.092198419880571
      ],
      [
        "।",
        -6.120658408100688
      ],
      [
        ">",
        -6.1331825294633955
      ],
      [
        "'",
        -6.208999465491843
      ],
      [
        "▁नै",
        -6.224587917062646
      ],
      [
        "mandu",
        -6.245456099763437
      ],
      [
        "\"",
        -6.247634319249869
      ],
      [
        "▁<",
        -6.262034391210335
      ],
      [
        "▁एक",
        -6.272965588725073
      ],
      [
        "▁हुने",
        -6.297155599162513
      ],
      [
        "▁उनले",
        -6.31419205807874
      ],
      [
        "▁थियो",
        -6.3236329893975896
      ],
      [
        "▁छ।",
        -6.357754353682148
      ],
      [
        "_",
        -6.364994969495074
      ],
      [
        "▁नेपाल",
        -6.366946958909505
      ],
      [
        "ive",
        -6.367308440476611
      ],
      [
        "arch",
        -6.370847606526038
      ],
      [
        "file",
        -6.375481405565019
      ],
      [
        ".",
        -6.402849245357837
      ],
      [
        "-",
        -6.4425107307474985
      ],
      [
        "▁काम",
        -6.455955652750946
      ],
      [
        "▁रहेको",
        -6.460068094017451
      ],
      [
        "z",
        -6.50566897628925
      ],
      [
        "▁गरेका",
        -6.516268859260807
      ],
      [
        "म",
        -6.51710619253716
      ],
      [
        ")",
        -6.528755746273882
      ],
      [
        "▁'",
        -6.533935370461339
      ],
      [
        "</",
        -6.542235288721534
      ],
      [
        "ी",
        -6.583648421532768
      ],
      [
        "ा",
        -6.616196081223775
      ],
      [
        "▁तर",
        -6.628820623519289
      ],
      [
        "▁कुनै",
        -6.665381131521412
      ],
      [
        "▁नेपाली",
        -6.676843603340128
      ],
      [
        "े",
        -6.68537492894963
      ],
      [
        "▁भन्ने",
        -6.68887780050113
      ],
      [
        "▁भएका",
        -6.718839000350684
      ],
      [
        "▁गरिएको",
        -6.726041051216809
      ],
      [
        "▁गरी",
        -6.743258246188237
      ],
      [
        "सँग",
        -6.7476368489794485
      ],
      [
        "▁त",
        -6.774694349240631
      ],
      [
        "हरु",
        -6.7881074528230485
      ],
      [
        "/",
        -6.802625181958222
      ],
      [
        "▁वा",
        -6.819140246346553
      ],
      [
        "▁थिए",
        -6.82795006742913
      ],
      [
        "▁गर्दै",
        -6.836841410902636
      ],
      [
        "▁हजार",
        -6.839822899187027
      ],
      [
        "▁दिन",
        -6.846134682962235
      ],
      [
        "▁हुन",
        -6.850777321178311
      ],
      [
        "▁केही",
        -6.859480475245748
      ],
      [
        "पछि",
        -6.867844701826359
      ],
      [
        "▁छैन",
        -6.879734436382408
      ],
      [
        "ै",
        -6.89269043586051
      ],
      [
        "▁बताए",
        -6.931964540647494
      ],
      [
        "–",
        -6.937014484299247
      ],
      [
        "▁आफ्नो",
        -6.938827333174775
      ],
      [
        "कै",
        -6.943550641969347
      ],
      [
        "▁(",
        -6.948010132230074
      ],
      [
        "▁अनुसार",
        -6.952398836299755
      ],
      [
        "▁नयाँ",
        -6.959128783129923
      ],
      [
        "क",
        -6.9616458242934485
      ],
      [
        "▁वर्ष",
        -6.970070508659301
      ],
      [
        "▁दुई",
        -6.9753975563607025
      ],
      [
        "▁सबै",
        -6.978340012881903
      ],
      [
        "▁सय",
        -6.988363022416879
      ],
      [
        "▁स्थानीय",
        -6.988699101616337
      ],
      [
        "▁कुरा",
        -6.996532750136609
      ],
      [
        "▁मात्र",
        -7.00522582400483
      ],
      [
        "▁कारण",
        -7.016239754383683
      ],
      [
        "▁धेरै",
        -7.034685759437863
      ],
      [
        "▁यस",
        -7.036053045026261
      ],
      [
        "▁१",
        -7.054354982024062
      ],
      [
        "▁हुन्छ",
        -7.054751266561
      ],
      [
        "0142",
        -7.05660075040114
      ],
      [
        "▁निर्माण",
        -7.058195390982707
      ],
      [
        "▁भए",
        -7.064449046481739
      ],
      [
        "की",
        -7.072612883255264
      ],
      [
        "हरू",
        -7.074627032670145
      ],
      [
        "▁रुपमा",
        -7.081992107231704
      ],
      [
        "▁सरकारले",
        -7.0997980583913645
      ],
      [
        "▁लाख",
        -7.1043963745491485
      ],
      [
        "▁Nepal",
        -7.111216079462391
      ],
      [
        "▁अहिले",
        -7.116403645210314
      ],
      [
        "▁।'",
        -7.13953010210648
      ],
      [
        "▁२",
        -7.139796365668614
      ],
      [
        "▁विकास",
        -7.154713970267817
      ],
      [
        "▁गरेर",
        -7.156953169486089
      ],
      [
        "▁प्रदेश",
        -7.157693256384045
      ],
      [
        "▁प्रमुख",
        -7.184033186596862
      ],
      [
        "▁?",
        -7.188176116790686
      ],
      [
        "▁समेत",
        -7.189667446792452
      ],
      [
        "▁बढी",
        -7.193069597846479
      ],
      [
        "▁अध्यक्ष",
        -7.195646510962501
      ],
      [
        "ो",
        -7.196996958444728
      ],
      [
        "ल",
        -7.211494764784142
      ],
      [
        "3",
        -7.221651934272881
      ],
      [
        "▁आएको",
        -7.229338718224941
      ],
      [
        "0",
        -7.232672453670748
      ],
      [
        "सम्म",
        -7.237471713896984
      ],
      [
        "▁जिल्ला",
        -7.240201359486653
      ],
      [
        "▁के",
        -7.243066150274794
      ],
      [
        "▁छन्।",
        -7.244788636039196
      ],
      [
        "▁गरे",
        -7.252579162652816
      ],
      [
        "▁रूपमा",
        -7.270258890491698
      ],
      [
        "U",
        -7.2736548514895265
      ],
      [
        "▁जानकारी",
        -7.274692862335382
      ],
      [
        "▁त्यो",
        -7.2787856848832675
      ],
      [
        "मै",
        -7.281561699230075
      ],
      [
        "▁प्रतिक्रिया",
        -7.285266761385651
      ],
      [
        "▁भने,",
        -7.291410874859867
      ],
      [
        ".com",
        -7.310756522082347
      ],
      [
        "▁पहिलो",
        -7.316626777614786
      ],
      [
        "देखि",
        -7.321760988317838
      ],
      [
        "bar",
        -7.3266037998176685
      ],
      [
        "▁उनी",
        -7.334541261261139
      ],
      [
        "भन्दा",
        -7.335675346379354
      ],
      [
        "▁अघि",
        -7.341089103459568
      ],
      [
        "▁filename=\"",
        -7.341878012755632
      ],
      [
        "▁Kathmandu",
        -7.342196764104836
      ],
      [
        "Dur",
        -7.343413506461816
      ],
      [
        "marg",
        -7.34400620971765
      ],
      [
        "▁प्रहरी",
        -7.359673463445841
      ],
      [
        "a",
        -7.364050702663311
      ],
      [
        "▁हुन्",
        -7.366381984701004
      ],
      [
        "▁३",
        -7.369509528342876
      ],
      [
        "▁५",
        -7.36983941451207
      ],
      [
        "▁गर्दा",
        -7.386238891191875
      ],
      [
        "▁समस्या",
        -7.387654027889496
      ],
      [
        "▁व्यवस्था",
        -7.3926918947775455
      ],
      [
        "▁समय",
        -7.40023884166777
      ],
      [
        "ु",
        -7.403495057345372
      ],
      [
        "s",
        -7.407821351410163
      ],
      [
        "▁उनको",
        -7.411276278507788
      ],
      [
        "▁आर्थिक",
        -7.412541359580873
      ],
      [
        "▁विभिन्न",
        -7.414164988992969
      ],
      [
        "▁भन्दै",
        -7.431894379536141
      ],
      [
        "▁नाम",
        -7.43664747238414
      ],
      [
        "▁एउटा",
        -7.442276347173784
      ],
      [
        "▁सुरु",
        -7.450020272364233
      ],
      [
        "▁काठमाडौं",
        -7.454627244392972
      ],
      [
        "xm",
        -7.460164909599866
      ],
      [
        "▁राष्ट्रिय",
        -7.46073557690308
      ],
      [
        "▁class=\"cld-",
        -7.464965348220586
      ],
      [
        "▁कार्यक्रम",
        -7.465237800307591
      ],
      [
        "त",
        -7.465609077462593
      ],
      [
        "▁अब",
        -7.466632318510369
      ],
      [
        "B",
        -7.475505225733494
      ],
      [
        "स",
        -7.477573705342612
      ],
      [
        "▁सरकार",
        -7.48317350088772
      ],
      [
        "▁रहेका",
        -7.485520614041711
      ],
      [
        "▁घर",
        -7.488770240853659
      ],
      [
        "▁प्रधानमन्त्री",
        -7.489311693049274
      ],
      [
        "▁उक्त",
        -7.499506810871605
      ],
      [
        "▁P",
        -7.500655257818952
      ],
      [
        "▁-",
        -7.501267206913493
      ],
      [
        "▁जना",
        -7.514107695822016
      ],
      [
        "▁सेवा",
        -7.515544879037423
      ],
      [
        "▁१०",
        -7.51852766009935
      ],
      [
        "▁क्षेत्रमा",
        -7.523369828287345
      ],
      [
        "▁भनेर",
        -7.525154453437699
      ],
      [
        "h",
        -7.532461252322607
      ],
      [
        "▁करोड",
        -7.532980321445603
      ],
      [
        "▁अन्य",
        -7.53878035993348
      ],
      [
        "▁हामी",
        -7.546666074573714
      ],
      [
        "▁तीन",
        -7.549890425432228
      ],
      [
        "ि",
        -7.55120078504617
      ],
      [
        "▁of",
        -7.560028883426865
      ],
      [
        "▁थियो।",
        -7.575074985793055
      ],
      [
        "▁रुपैयाँ",
        -7.578040342298506
      ],
      [
        "▁प्रयोग",
        -7.585666381283547
      ],
      [
        "▁६",
        -7.587505047886502
      ],
      [
        "▁निर्णय",
        -7.594448008609994
      ],
      [
        "▁भयो",
        -7.595912962784826
      ],
      [
        "▁४",
        -7.59804889769851
      ],
      [
        "्",
        -7.598446298423479
      ],
      [
        "▁सडक",
        -7.600502994026007
      ],
      [
        "▁प्रतिशत",
        -7.607550165102596
      ],
      [
        "सहित",
        -7.60833348371499
      ],
      [
        "▁दिने",
        -7.617133598523109
      ],
      [
        "+",
        -7.620493175748091
      ],
      [
        "▁आयोजना",
        -7.622101650901371
      ],
      [
        "श",
        -7.622649898110179
      ],
      [
        "▁गते",
        -7.625946331451386
      ],
      [
        "us",
        -7.630735261519442
      ],
      [
        "▁कि",
        -7.638014451959066
      ],
      [
        "▁कानुन",
        -7.640941780456716
      ],
      [
        "▁अन्तर्राष्ट्रिय",
        -7.641883910912208
      ],
      [
        "समेत",
        -7.642866182172753
      ],
      [
        "▁खेल",
        -7.644277216894386
      ],
      [
        "iz",
        -7.653216055652697
      ],
      [
        "▁प्रक्रिया",
        -7.671211749402184
      ],
      [
        "▁माग",
        -7.67470921420685
      ],
      [
        "▁more",
        -7.675417930976964
      ],
      [
        "▁सार्वजनिक",
        -7.6778492872916
      ],
      [
        "▁अवस्था",
        -7.683481083984031
      ],
      [
        "▁पुनर्",
        -7.685875264235666
      ],
      [
        "▁सहयोग",
        -7.686969584937351
      ],
      [
        "▁आज",
        -7.688152446848282
      ],
      [
        "सँगै",
        -7.691975703956405
      ],
      [
        "उत्पादन",
        -7.701071780710324
      ],
      [
        "मेल",
        -7.702412631272884
      ],
      [
        "▁दिएको",
        -7.705621916894959
      ],
      [
        "▁देखिएको",
        -7.707715631567446
      ],
      [
        "▁राजनीतिक",
        -7.708660593619198
      ],
      [
        "▁हो।",
        -7.712750257716939
      ],
      [
        "@",
        -7.722842153464674
      ],
      [
        "▁कार्यालय",
        -7.726516725206153
      ],
      [
        "bi",
        -7.732872738361561
      ],
      [
        "▁तर,",
        -7.735480583880861
      ],
      [
        "▁अ",
        -7.740510058389608
      ],
      [
        "▁मात्रै",
        -7.741762776854028
      ],
      [
        "▁हाम्रो",
        -7.743029892122531
      ],
      [
        "dg",
        -7.744123968656821
      ],
      [
        "▁योजना",
        -7.745393388685086
      ],
      [
        "CP",
        -7.74613859488298
      ],
      [
        "ता",
        -7.747884231167252
      ],
      [
        "▁mail",
        -7.748381842830888
      ],
      [
        "contact",
        -7.748810820310474
      ],
      [
        "Phone",
        -7.748837107133136
      ],
      [
        "RM",
        -7.748873998946841
      ],
      [
        "See",
        -7.749025544041963
      ],
      [
        "▁at:",
        -7.749047179771383
      ],
      [
        "www.facebook.com",
        -7.749309335675122
      ],
      [
        "2724",
        -7.749358181106448
      ],
      [
        ".html#",
        -7.749945086967459
      ],
      [
        "27212",
        -7.750033827723804
      ],
      [
        ".com/content/",
        -7.750076790322865
      ],
      [
        "▁http://www.b",
        -7.7501255737827055
      ],
      [
        "2,",
        -7.750755599708681
      ],
      [
        "/bi",
        -7.751345071844062
      ],
      [
        "▁उपलब्ध",
        -7.752504069027697
      ],
      [
        "▁bi",
        -7.755591315340695
      ],
      [
        "▁महिला",
        -7.757666448193046
      ],
      [
        "a,",
        -7.75925410525088
      ],
      [
        "like",
        -7.762318736630737
      ],
      [
        "▁गर्नु",
        -7.76331336085755
      ],
      [
        "▁आएका",
        -7.766812712082293
      ],
      [
        "▁पार्टी",
        -7.773947273595677
      ],
      [
        "▁यस्तो",
        -7.776265769021778
      ],
      [
        "▁us",
        -7.779740082539284
      ],
      [
        "▁जनाएको",
        -7.780589030401066
      ],
      [
        "u",
        -7.782052575622897
      ],
      [
        "▁चित्रमा",
        -7.787258652686882
      ],
      [
        "▁सञ्चालन",
        -7.78786839006259
      ],
      [
        "▁बनाउन",
        -7.789610457545706
      ],
      [
        "▁ठूलो",
        -7.7898169149371395
      ],
      [
        "्चामा",
        -7.790407266733313
      ],
      [
        "▁(क्याप",
        -7.793865421643025
      ],
      [
        "?",
        -7.800771229677665
      ],
      [
        "▁ई-",
        -7.803142562291583
      ],
      [
        "▁पर्ने",
        -7.803612788292172
      ],
      [
        "▁वटा",
        -7.807794487223317
      ],
      [
        "बारे",
        -7.809622007666988
      ],
      [
        "▁भन्दा",
        -7.81007378219557
      ],
      [
        "▁क्षेत्र",
        -7.814539295068871
      ],
      [
        "ँ",
        -7.815231037081684
      ],
      [
        "▁सदस्य",
        -7.818153133515795
      ],
      [
        "y:",
        -7.818488662737174
      ],
      [
        "▁रकम",
        -7.819689244816351
      ],
      [
        "▁नेपालको",
        -7.823620006982756
      ],
      [
        "स्थित",
        -7.834125964630225
      ],
      [
        "माथि",
        -7.836015021278966
      ],
      [
        "▁कम",
        -7.836186664504208
      ],
      [
        "छ",
        -7.837841693919408
      ],
      [
        "▁स्वास्थ्य",
        -7.837857587162341
      ],
      [
        "▁राम्रो",
        -7.844344081040772
      ],
      [
        "▁—",
        -7.853173012205625
      ],
      [
        "▁बजेट",
        -7.8593146443868065
      ],
      [
        "▁काठमाडौँ",
        -7.860391726795786
      ],
      [
        "ln",
        -7.8607204188762125
      ],
      [
        "▁निर्वाचन",
        -7.862753404364124
      ],
      [
        "s:",
        -7.863275680776562
      ],
      [
        "▁सो",
        -7.864115581397643
      ],
      [
        "update",
        -7.864674535412792
      ],
      [
        "=\"http://",
        -7.867715813211754
      ],
      [
        "▁७",
        -7.869066210526791
      ],
      [
        "▁नेता",
        -7.870129224061969
      ],
      [
        "बीच",
        -7.872540905034507
      ],
      [
        "▁पटक",
        -7.879135739956112
      ],
      [
        "▁आवश्यक",
        -7.880480125573659
      ],
      [
        "▁खर्च",
        -7.887325194971012
      ],
      [
        "▁बेला",
        -7.895129556325298
      ],
      [
        "▁अर्को",
        -7.8959223082971075
      ],
      [
        "▁थिए।",
        -7.898868614126361
      ],
      [
        "य",
        -7.903408991946403
      ],
      [
        "▁मन",
        -7.913042248919178
      ],
      [
        "▁भएर",
        -7.914119920200738
      ],
      [
        "▁कारबाही",
        -7.914489654016434
      ],
      [
        "▁प्राप्त",
        -7.915380923062903
      ],
      [
        "dislike",
        -7.916632622023842
      ],
      [
        "▁यी",
        -7.918817445976245
      ],
      [
        "▁लगानी",
        -7.919160305895646
      ],
      [
        "▁विषय",
        -7.925596093890817
      ],
      [
        "▁भइरहेको",
        -7.928122988116209
      ],
      [
        "▁नेपालमा",
        -7.929019152351518
      ],
      [
        "▁उत्पादन",
        -7.932378856269452
      ],
      [
        "i",
        -7.932410586358326
      ],
      [
        "▁थप",
        -7.93499469247736
      ],
      [
        "▁मैले",
        -7.937076083835926
      ],
      [
        "▁क्रममा",
        -7.937483322011484
      ],
      [
        "▁विषयमा",
        -7.938404991165688
      ],
      [
        "tr",
        -7.944394188705292
      ],
      [
        "ित",
        -7.945708373197391
      ],
      [
        "▁सन्",
        -7.946812568224104
      ],
      [
        "▁जस्तै",
        -7.95312159754789
      ],
      [
        "▁स",
        -7.956261128386107
      ],
      [
        "▁लागेको",
        -7.958863435635855
      ],
      [
        "▁हामीले",
        -7.95953087182448
      ],
      [
        "▁दोस्रो",
        -7.962723940284594
      ],
      [
        "▁सामाजिक",
        -7.963839935993455
      ],
      [
        "▁बनाउने",
        -7.965464783478493
      ],
      [
        "▁मेरो",
        -7.972768405031713
      ],
      [
        "▁गत",
        -7.975735788923613
      ],
      [
        "▁१५",
        -7.979152245794957
      ],
      [
        "▁आउने",
        -7.98494289090857
      ],
      [
        "▁देखि",
        -7.988412794659823
      ],
      [
        "ं",
        -7.990478120276624
      ],
      [
        "▁सम्पन्न",
        -7.9908719921507
      ],
      [
        "▁भएकाले",
        -7.991788478004198
      ],
      [
        "▁८",
        -7.9922334425118144
      ],
      [
        "▁उल्लेख",
        -7.994918499041482
      ],
      [
        "▁छ,",
        -7.999378772465873
      ],
      [
        "▁अगाडि",
        -8.00031992473008
      ],
      [
        "▁अवस्थामा",
        -8.001679648548818
      ],
      [
        "▁शिक्षा",
        -8.001873158275764
      ],
      [
        "▁भिडियो",
        -8.004456502697927
      ],
      [
        "प",
        -8.011840781227981
      ],
      [
        "▁गएको",
        -8.012428107333262
      ],
      [
        "▁अनि",
        -8.012714957506793
      ],
      [
        "▁दिए",
        -8.012764496613736
      ],
      [
        "▁परेको",
        -8.019095754109655
      ],
      [
        "▁भएपछि",
        -8.02239807614364
      ],
      [
        "▁२०",
        -8.023093155891587
      ],
      [
        "▁हुँदै",
        -8.02515106993349
      ],
      [
        "▁जाने",
        -8.025680558557717
      ],
      [
        "▁संविधान",
        -8.029860148589655
      ],
      [
        "▁जारी",
        -8.030645202153195
      ],
      [
        "▁तयार",
        -8.033617849166998
      ],
      [
        "▁देश",
        -8.03385825006405
      ],
      [
        "▁नीति",
        -8.03395035075542
      ],
      [
        "▁मन्त्री",
        -8.034308214503788
      ],
      [
        "▁शब्द",
        -8.038499643632074
      ],
      [
        "▁हुँदा",
        -8.040117131873478
      ],
      [
        "▁ती",
        -8.040119751735254
      ],
      [
        "▁भारतीय",
        -8.044382280234249
      ],
      [
        "▁१२",
        -8.04579806157767
      ],
      [
        "▁कार्य",
        -8.046051346565767
      ],
      [
        "▁|",
        -8.04989526547206
      ],
      [
        "▁चार",
        -8.052413507321617
      ],
      [
        " ।",
        -8.054322431757857
      ],
      [
        "▁सक्ने",
        -8.06861071422634
      ],
      [
        "igger",
        -8.070538428952325
      ],
      [
        "ज",
        -8.075305478771748
      ],
      [
        "हरुको",
        -8.080518857977712
      ],
      [
        "▁मृत्यु",
        -8.081477988579294
      ],
      [
        "ट",
        -8.085954579058612
      ],
      [
        "▁फोटो",
        -8.08804792083586
      ],
      [
        "▁कर",
        -8.08952559263626
      ],
      [
        "▁समिति",
        -8.091791992977264
      ],
      [
        "हरूको",
        -8.091794186939106
      ],
      [
        "हरूले",
        -8.09394624730288
      ],
      [
        "...",
        -8.095753540818524
      ],
      [
        "▁छलफल",
        -8.099534846201257
      ],
      [
        "▁सरकारी",
        -8.10028819794449
      ],
      [
        "▁प्रहरीले",
        -8.101766315738015
      ],
      [
        "मार्फत",
        -8.10202349949257
      ],
      [
        "▁पानी",
        -8.10252895501626
      ],
      [
        "व",
        -8.111325644499404
      ],
      [
        "▁यसको",
        -8.112373944274365
      ],
      [
        "l",
        -8.114041098151617
      ],
      [
        "▁साथ",
        -8.116980593860905
      ],
      [
        "▁कार्यक्रममा",
        -8.118915740645326
      ],
      [
        "▁९",
        -8.12066037531584
      ],
      [
        "pur",
        -8.124754870176668
      ],
      [
        "▁११",
        -8.126447785356742
      ],
      [
        "title>",
        -8.126871947940668
      ],
      [
        "▁निकै",
        -8.128578284680307
      ],
      [
        "▁मुख्य",
        -8.131813379468335
      ],
      [
        "▁अर्ब",
        -8.13501635998957
      ],
      [
        "▁गोल",
        -8.135107793654234
      ],
      [
        "▁पूर्व",
        -8.136501826575923
      ],
      [
        "▁घटना",
        -8.137317545159474
      ],
      [
        "हरुले",
        -8.141954188031754
      ],
      [
        "▁गर्नुपर्ने",
        -8.144549784650103
      ],
      [
        "▁५०",
        -8.144670903403862
      ],
      [
        "▁चीन",
        -8.148310439213676
      ],
      [
        "tom",
        -8.149005276944884
      ],
      [
        "▁हिसाबले",
        -8.14942880722099
      ],
      [
        "▁करिब",
        -8.151035719330414
      ],
      [
        "▁साथै",
        -8.155446192700461
      ],
      [
        "▁पछि",
        -8.157491599723809
      ],
      [
        "▁तल",
        -8.159466233993648
      ],
      [
        "▁उद्योग",
        -8.16143627689009
      ],
      [
        "प्रति",
        -8.169052764601455
      ],
      [
        "▁भारत",
        -8.169393189477162
      ],
      [
        "▁दुवै",
        -8.17016202749907
      ],
      [
        ",'",
        -8.173463969688388
      ],
      [
        "▁पाँच",
        -8.176058196254367
      ],
      [
        "▁होइन",
        -8.179477318711804
      ],
      [
        "▁मलाई",
        -8.179996791031275
      ],
      [
        "▁गरिए",
        -8.181158602023965
      ],
      [
        "▁अधिकार",
        -8.183115859164099
      ],
      [
        "ब",
        -8.188148727002348
      ],
      [
        "]",
        -8.188341474470002
      ],
      [
        "▁बिना",
        -8.191327673891372
      ],
      [
        "▁लिएर",
        -8.191662091699108
      ],
      [
        "▁विशेष",
        -8.192120699898478
      ],
      [
        "▁सरकारको",
        -8.193688175419904
      ],
      [
        "▁लागी",
        -8.194897418893396
      ],
      [
        "▁अध्ययन",
        -8.196352472588174
      ],
      [
        "▁कसरी",
        -8.19868725624953
      ],
      [
        "▁समयमा",
        -8.202971805123513
      ],
      [
        "▁२५",
        -8.212416504491934
      ],
      [
        "F",
        -8.216222694319812
      ],
      [
        "▁अनुसन्धान",
        -8.216543898014349
      ],
      [
        "तर्फ",
        -8.217211574054629
      ],
      [
        "▁बजार",
        -8.217641258876728
      ],
      [
        "▁आधारमा",
        -8.220091983302824
      ],
      [
        "▁आयोग",
        -8.221296083725695
      ],
      [
        "▁किन",
        -8.224038869286288
      ],
      [
        "s/1",
        -8.22564315280728
      ],
      [
        "▁पक्राउ",
        -8.22855177772275
      ],
      [
        "▁त्यसैले",
        -8.228844560800475
      ],
      [
        "▁[",
        -8.233932365341376
      ],
      [
        "l.org",
        -8.235164829409603
      ],
      [
        "▁घोषणा",
        -8.23594895774241
      ],
      [
        "▁स्वीकृति",
        -8.23705720779554
      ],
      [
        "▁वडा",
        -8.2381095054028
      ],
      [
        "▁कृषि",
        -8.244423105890043
      ],
      [
        "▁व्यवस्थापन",
        -8.24697526656546
      ],
      [
        "▁सफल",
        -8.247641528944753
      ],
      [
        "▁लिन",
        -8.247762782634489
      ],
      [
        "▁यही",
        -8.248708721739485
      ],
      [
        "▁यहाँ",
        -8.249955557879446
      ],
      [
        "▁तयारी",
        -8.251349451913907
      ],
      [
        "▁सुरक्षा",
        -8.252376904987553
      ],
      [
        "▁data-",
        -8.25289896537096
      ],
      [
        "d",
        -8.25834808465603
      ],
      [
        "/r",
        -8.258956667712983
      ],
      [
        "ने",
        -8.260350380014923
      ],
      [
        "▁त्यही",
        -8.260760657922518
      ],
      [
        "▁जस्तो",
        -8.262122558286416
      ],
      [
        "▁सबैभन्दा",
        -8.266918569206512
      ],
      [
        "मध्ये",
        -8.269929953508951
      ],
      [
        "▁दिएका",
        -8.270288773804076
      ],
      [
        "▁त्यस",
        -8.270703206237036
      ],
      [
        "▁पूरा",
        -8.272123310520113
      ],
      [
        "▁लामो",
        -8.27229766310515
      ],
      [
        "▁उच्च",
        -8.274644103261517
      ],
      [
        "ड",
        -8.275171395683529
      ],
      [
        "▁गर्नका",
        -8.275876927119526
      ],
      [
        "▁खेलाडी",
        -8.278640968181419
      ],
      [
        "▁युवा",
        -8.279440633483494
      ],
      [
        "▁href=\"",
        -8.281146388383652
      ],
      [
        "ई",
        -8.28157656624172
      ],
      [
        "▁बनेको",
        -8.282310687262138
      ],
      [
        "▁पुगेको",
        -8.286367163830052
      ],
      [
        "▁गीत",
        -8.286856803262468
      ],
      [
        "▁बताए।",
        -8.288299144995648
      ],
      [
        "▁त्यहाँ",
        -8.288460941685072
      ],
      [
        "▁R",
        -8.2922542077082
      ],
      [
        "▁जुन",
        -8.293839110205475
      ],
      [
        "▁सकिन्छ",
        -8.295580697891987
      ],
      [
        "▁फिल्म",
        -8.297056840378149
      ],
      [
        "▁हाल",
        -8.297089153083872
      ],
      [
        "▁उनलाई",
        -8.300506245131132
      ],
      [
        "▁त्यसको",
        -8.302700500611586
      ],
      [
        "▁खेलमा",
        -8.303222276452471
      ],
      [
        "▁नभएको",
        -8.305019460551703
      ],
      [
        "▁केन्द्र",
        -8.306301745944907
      ],
      [
        "▁पाइँदैन",
        -8.309770000952113
      ],
      [
        "अनुसार",
        -8.310123036540187
      ],
      [
        "▁E",
        -8.310391221412551
      ],
      [
        "▁राष्ट्रपति",
        -8.310737103994947
      ],
      [
        "P",
        -8.31283362194275
      ],
      [
        "▁उपचार",
        -8.314555947812433
      ],
      [
        "https://www.",
        -8.31468252530019
      ],
      [
        "▁राष्ट्र",
        -8.314784281121137
      ],
      [
        "▁कर्मचारी",
        -8.31496030842572
      ],
      [
        "▁समूह",
        -8.315854724388815
      ],
      [
        "▁जग्गा",
        -8.320906209701308
      ],
      [
        "▁बैंक",
        -8.321012187331013
      ],
      [
        "▁हरेक",
        -8.324032453486664
      ],
      [
        "▁टोली",
        -8.324449023465293
      ],
      [
        "▁बन्द",
        -8.32532483844863
      ],
      [
        "▁मूल्य",
        -8.327569579260972
      ],
      [
        "▁तह",
        -8.328616496653877
      ],
      [
        "▁नि",
        -8.328837654022813
      ],
      [
        "▁अन्तिम",
        -8.328955412282099
      ],
      [
        "▁डा.",
        -8.329298878197367
      ],
      [
        "▁पोस्ट",
        -8.329452223639482
      ],
      [
        "▁विश्व",
        -8.329537245939992
      ],
      [
        "▁बताएका",
        -8.331800012902411
      ],
      [
        "ला",
        -8.3318647578142
      ],
      [
        "▁कति",
        -8.332398118299754
      ],
      [
        "▁३०",
        -8.332580774972149
      ],
      [
        "▁माओवादी",
        -8.332640222059354
      ],
      [
        "▁अझै",
        -8.333396218497954
      ],
      [
        "▁No",
        -8.335656736351307
      ],
      [
        "▁बैठक",
        -8.34054446070027
      ],
      [
        "▁पैसा",
        -8.34136263293264
      ],
      [
        "▁गरिने",
        -8.345129633034682
      ],
      [
        "लगायत",
        -8.34791066798728
      ],
      [
        "▁सहभागी",
        -8.350627266502308
      ],
      [
        "▁भनाइ",
        -8.35616955457799
      ],
      [
        "▁रन",
        -8.356754109105731
      ],
      [
        "द",
        -8.358455633415268
      ],
      [
        "▁ओली",
        -8.36094852778133
      ],
      [
        "▁सम्बन्ध",
        -8.361500922421275
      ],
      [
        "▁–",
        -8.363122035533518
      ],
      [
        "▁पछिल्लो",
        -8.363769504322088
      ],
      [
        "भित्र",
        -8.364027621603604
      ],
      [
        "▁सम्झौता",
        -8.365597827309458
      ],
      [
        "▁एवं",
        -8.36707930083211
      ],
      [
        "▁स्थापना",
        -8.369379963807633
      ],
      [
        "▁थाहा",
        -8.370346702818347
      ],
      [
        "▁Jun",
        -8.371069162629027
      ],
      [
        "▁परिवर्तन",
        -8.371423578648818
      ],
      [
        "▁स्रोत",
        -8.376953868353205
      ],
      [
        "▁सहमति",
        -8.3801940353083
      ],
      [
        "vt.",
        -8.380617840772741
      ],
      [
        "Ltd.",
        -8.381142835489264
      ],
      [
        "▁पत्रकार",
        -8.381534184746814
      ],
      [
        ".org/",
        -8.383623637390262
      ],
      [
        "▁हुनु",
        -8.384815838589022
      ],
      [
        "▁गोप्य",
        -8.385700791703863
      ],
      [
        "राज",
        -8.388431373683622
      ],
      [
        "▁यस्ता",
        -8.388654673277712
      ],
      [
        "▁देखिन्छ",
        -8.389020389768845
      ],
      [
        "राइट",
        -8.390251019021026
      ],
      [
        "▁सूचना",
        -8.391172141383134
      ],
      [
        "▁केन्द्रीय",
        -8.392718369989266
      ],
      [
        "▁पाउने",
        -8.39386648456473
      ],
      [
        "▁अडियो",
        -8.394850619062058
      ],
      [
        "▁जान",
        -8.397483519475346
      ],
      [
        "rs",
        -8.398246183179122
      ],
      [
        "▁स्थानमा",
        -8.399693822084188
      ],
      [
        "▁नागरिक",
        -8.400764600411812
      ],
      [
        "▁प्रदान",
        -8.403098131483477
      ],
      [
        "▁वन",
        -8.406785757954621
      ],
      [
        "▁दर्ता",
        -8.407369521093864
      ],
      [
        "<a",
        -8.40842072441039
      ],
      [
        "onlinekhabar.com",
        -8.409539926702521
      ],
      [
        "▁आ",
        -8.411800749985824
      ],
      [
        "▁सामाग्रीहरु",
        -8.412419261893282
      ],
      [
        "▁गर्नुहोस",
        -8.412887539051741
      ],
      [
        "▁आफ्नै",
        -8.413054238360932
      ],
      [
        "▁महिना",
        -8.413085094635072
      ],
      [
        "▁मुद्दा",
        -8.413891270438937
      ],
      [
        "▁प्रस्ताव",
        -8.414404781405873
      ],
      [
        "▁बाटो",
        -8.414788262973248
      ],
      [
        "▁नगरपालिका",
        -8.415983979688988
      ],
      [
        "▁यसले",
        -8.416321097946074
      ],
      [
        "हरुलाई",
        -8.416335694745301
      ],
      [
        "▁परेका",
        -8.417070938794541
      ],
      [
        "▁जीवन",
        -8.418119831092062
      ],
      [
        "▁१९",
        -8.418469848300525
      ],
      [
        "▁राखिने",
        -8.420266025485676
      ],
      [
        "▁बढेको",
        -8.420541287780209
      ],
      [
        "▁नम्बर",
        -8.422162780962182
      ],
      [
        "▁गाउँपालिका",
        -8.422417031046566
      ],
      [
        "स्",
        -8.422605260137688
      ],
      [
        "▁आफ्ना",
        -8.423283986590668
      ],
      [
        "▁Di",
        -8.4245494396971
      ],
      [
        "Post",
        -8.425058190443119
      ],
      [
        "▁कपि",
        -8.428690422289609
      ],
      [
        "person",
        -8.431722984223862
      ],
      [
        "▁हुनेछ",
        -8.432213691268709
      ],
      [
        "▁Shrestha",
        -8.433357748488813
      ],
      [
        "▁बढाइनेछ",
        -8.434061781220828
      ],
      [
        "▁क्लिक",
        -8.434390742798413
      ],
      [
        "mesh",
        -8.43573563751766
      ],
      [
        "▁Ri",
        -8.437372738207165
      ],
      [
        "ahilo",
        -8.438106760508223
      ],
      [
        "vision",
        -8.438367736572838
      ],
      [
        "▁टेक्स्ट",
        -8.4384021832971
      ],
      [
        "jal",
        -8.439029842250276
      ],
      [
        "▁गठन",
        -8.439059448119526
      ],
      [
        "▁सक्छ",
        -8.440334619134886
      ],
      [
        "2/07",
        -8.440695497758322
      ],
      [
        "Information",
        -8.441151709164322
      ],
      [
        "Department",
        -8.441622330085432
      ],
      [
        "ditor",
        -8.441745057781208
      ],
      [
        "▁Chair",
        -8.441796956955155
      ],
      [
        "▁Bi",
        -8.441958587608427
      ],
      [
        "egistration",
        -8.442389742982467
      ],
      [
        "▁यस्तै",
        -8.442677299473683
      ],
      [
        "3/74",
        -8.443332470735985
      ],
      [
        "▁कांग्रेस",
        -8.443416018397988
      ],
      [
        "▁बाँकी",
        -8.444164917302935
      ],
      [
        "▁नेपालले",
        -8.444716927813769
      ],
      [
        "▁38",
        -8.446235158924216
      ],
      [
        "▁वर्षको",
        -8.448882486456249
      ],
      [
        "▁उनका",
        -8.453087089351486
      ],
      [
        "बहादुर",
        -8.454136293555626
      ],
      [
        "कृपया",
        -8.454184012239583
      ],
      [
        "▁कम्पनी",
        -8.456510166116267
      ],
      [
        "▁दल",
        -8.459694360900459
      ],
      [
        "▁१८",
        -8.460697498969248
      ],
      [
        "▁चलचित्र",
        -8.461626581531103
      ],
      [
        "▁प्रश्न",
        -8.462636789735221
      ],
      [
        "div",
        -8.462826919848961
      ],
      [
        "▁गरिरहेको",
        -8.464291968887812
      ],
      [
        "▁सपोर्ट",
        -8.467090813606964
      ],
      [
        "▁सांसद",
        -8.467602391800995
      ],
      [
        "</a>",
        -8.469638587391598
      ],
      [
        "▁हात",
        -8.469990709901719
      ],
      [
        "</div>",
        -8.47141166695822
      ],
      [
        "▁बाहिर",
        -8.471515589381566
      ],
      [
        "\"><",
        -8.471544917878505
      ],
      [
        "fa-",
        -8.47409500679725
      ],
      [
        "▁भनेको",
        -8.47492251447328
      ],
      [
        "▁१३",
        -8.474977017656249
      ],
      [
        "\"></i>",
        -8.476120742491132
      ],
      [
        "▁class=\"f",
        -8.47642269336812
      ],
      [
        "▁cld-",
        -8.476571987796868
      ],
      [
        "-wrap\">",
        -8.476613482031228
      ],
      [
        "▁आफू",
        -8.477527288481184
      ],
      [
        "▁गर्छ",
        -8.477905808230274
      ],
      [
        "▁त्यसपछि",
        -8.479126120753373
      ],
      [
        "▁विश्वास",
        -8.47966207112046
      ],
      [
        "▁रिफ्रे",
        -8.479774647496681
      ],
      [
        "▁गरिदै",
        -8.482180463256556
      ],
      [
        "▁विद्यालय",
        -8.482669565631246
      ],
      [
        "▁त्यस्तै",
        -8.482975242560505
      ],
      [
        "साइटमा",
        -8.48449092777658
      ],
      [
        "▁लेख्नुहोस",
        -8.484664566696345
      ],
      [
        "▁गर्नुस",
        -8.488245870771527
      ],
      [
        "▁अस्पताल",
        -8.488768604218683
      ],
      [
        "ML",
        -8.488901532860057
      ],
      [
        "▁१४",
        -8.490810932977336
      ],
      [
        "tag",
        -8.494229800097495
      ],
      [
        "ग",
        -8.494540457230386
      ],
      [
        "▁गाउँ",
        -8.494636108883965
      ],
      [
        "▁ब",
        -8.496088039186098
      ],
      [
        "HT",
        -8.497344587575622
      ],
      [
        "▁निजी",
        -8.502731419877373
      ],
      [
        "च",
        -8.508500628637735
      ],
      [
        "▁ऐन",
        -8.509860836474074
      ],
      [
        "▁टिम",
        -8.511935525653517
      ],
      [
        "▁यसअघि",
        -8.513268277333506
      ],
      [
        "▁लक्ष्य",
        -8.514234217798633
      ],
      [
        "Date",
        -8.51605863213481
      ],
      [
        "type=\"",
        -8.516839362980225
      ],
      [
        "▁सचिव",
        -8.519827724335698
      ],
      [
        "▁सुविधा",
        -8.521894126202419
      ],
      [
        "▁ध्यान",
        -8.523511923726634
      ],
      [
        "▁आगामी",
        -8.526507110154823
      ],
      [
        "▁नेतृत्व",
        -8.528192644214334
      ],
      [
        "▁छ)",
        -8.529165573552868
      ],
      [
        "▁ठाउँमा",
        -8.531831015765794
      ],
      [
        "▁१६",
        -8.531887056356066
      ],
      [
        "▁संघीय",
        -8.53229060588767
      ],
      [
        "ना",
        -8.532418552504803
      ],
      [
        "▁भूमिका",
        -8.53265022940638
      ],
      [
        "▁सेना",
        -8.534986362385155
      ],
      [
        "▁पर्यटन",
        -8.536309079033062
      ],
      [
        "▁फरक",
        -8.536994963215026
      ],
      [
        "▁मुलुक",
        -8.537065458714208
      ],
      [
        "▁कार्यान्वयन",
        -8.53902743974923
      ],
      [
        "▁वितरण",
        -8.54098343547091
      ],
      [
        "▁क्लब",
        -8.542049074140115
      ],
      [
        "न्",
        -8.542230767596164
      ],
      [
        "=\"",
        -8.542808784633218
      ],
      [
        "▁विद्यार्थी",
        -8.545432573800298
      ],
      [
        "▁संख्या",
        -8.548675555738647
      ],
      [
        "mod",
        -8.54872969593643
      ],
      [
        "▁प्रयास",
        -8.54976903461838
      ],
      [
        "ency",
        -8.549839453260166
      ],
      [
        "requ",
        -8.550483768460525
      ],
      [
        "▁नहुने",
        -8.5564126827861
      ],
      [
        "▁नाममा",
        -8.557054719596158
      ],
      [
        "▁व्यक्ति",
        -8.557181029121427
      ],
      [
        "▁बारेमा",
        -8.557553177813837
      ],
      [
        "ules",
        -8.557897012432344
      ],
      [
        "version",
        -8.558267479289293
      ],
      [
        "eriod",
        -8.558796435531253
      ],
      [
        "िक",
        -8.559406911914314
      ],
      [
        "▁गरेपछि",
        -8.559517202681539
      ],
      [
        "channel",
        -8.559561199513329
      ],
      [
        "▁अवसर",
        -8.559657931148248
      ],
      [
        "्ने",
        -8.560481415619622
      ],
      [
        "▁नेकपा",
        -8.561074874096827
      ],
      [
        "▁भवन",
        -8.56159057543014
      ],
      [
        "▁अधिकारी",
        -8.562128604524275
      ],
      [
        "▁आग्रह",
        -8.563039191511283
      ],
      [
        "▁राज्य",
        -8.565839406873515
      ],
      [
        "▁दाबी",
        -8.56629618336357
      ],
      [
        "0/",
        -8.567042900172796
      ],
      [
        "▁हो,",
        -8.567181901453518
      ],
      [
        "▁वृद्धि",
        -8.569018561358055
      ],
      [
        "▁२०७५",
        -8.569503231325614
      ],
      [
        "▁बस",
        -8.570621335330252
      ],
      [
        "▁सुधार",
        -8.573439122509432
      ],
      [
        "▁बिक्री",
        -8.57437297941531
      ],
      [
        "▁प्रकाशित",
        -8.574618339174883
      ],
      [
        "▁रु",
        -8.574770021837383
      ],
      [
        "▁आरोप",
        -8.575153777571433
      ],
      [
        "▁<s",
        -8.575165577767839
      ],
      [
        "▁एमाले",
        -8.575335958347036
      ],
      [
        "िङ",
        -8.576058780525816
      ],
      [
        "▁गरिरहेका",
        -8.576415551487194
      ],
      [
        "▁हत्या",
        -8.576709639905413
      ],
      [
        "▁छैनन्",
        -8.576957898540972
      ],
      [
        "यो",
        -8.577358622676119
      ],
      [
        "िन",
        -8.582036413947398
      ],
      [
        "▁तेस्रो",
        -8.582728818819078
      ],
      [
        "▁अधिकृत",
        -8.583205586846097
      ],
      [
        "▁फेरि",
        -8.584638559322325
      ],
      [
        "▁उहाँले",
        -8.588259760765627
      ],
      [
        "▁निर्देशन",
        -8.589566410260845
      ],
      [
        "▁कतिपय",
        -8.589604816504124
      ],
      [
        "▁बल",
        -8.590681240424233
      ],
      [
        "▁सामान्य",
        -8.596044601636804
      ],
      [
        "▁प्रवेश",
        -8.598563495488454
      ],
      [
        "▁ए",
        -8.600124112719236
      ],
      [
        "▁रोग",
        -8.602213006480323
      ],
      [
        "्न",
        -8.603250119832936
      ],
      [
        "वा",
        -8.603509302455025
      ],
      [
        "▁खरिद",
        -8.606199304924536
      ],
      [
        "▁बिहान",
        -8.606794655395142
      ],
      [
        "▁क्षमता",
        -8.607199530561736
      ],
      [
        "▁सकेको",
        -8.607320136232769
      ],
      [
        "▁सहज",
        -8.607469806872075
      ],
      [
        "▁प्रस्तुत",
        -8.60813734312474
      ],
      [
        "▁लिएको",
        -8.60904929987683
      ],
      [
        "ः",
        -8.612784061719873
      ],
      [
        "सम्बन्धी",
        -8.613049948435838
      ],
      [
        "▁संशोधन",
        -8.613145608792577
      ],
      [
        "▁सुन",
        -8.613233602289451
      ],
      [
        "▁यसरी",
        -8.61340449573965
      ],
      [
        "▁होला",
        -8.613553469998957
      ],
      [
        "▁सम्भावना",
        -8.613878508776477
      ],
      [
        "…",
        -8.618765898152585
      ],
      [
        "▁सम्म",
        -8.620268791169316
      ],
      [
        "तिर",
        -8.620737899408358
      ],
      [
        "ing",
        -8.620818628066823
      ],
      [
        "▁अरु",
        -8.625585313806221
      ],
      [
        "▁विदेशी",
        -8.625835939989429
      ],
      [
        "हरूलाई",
        -8.627889305922627
      ],
      [
        "▁सवारी",
        -8.629328109146748
      ],
      [
        "▁हुँदैन",
        -8.62952327052182
      ],
      [
        "▁बजारमा",
        -8.630605563621852
      ],
      [
        "री",
        -8.631866494609259
      ],
      [
        "▁कायम",
        -8.633532042403838
      ],
      [
        "▁अभियान",
        -8.634282685019437
      ],
      [
        "▁प",
        -8.63436934663562
      ],
      [
        "▁बनाएको",
        -8.63886051030512
      ],
      [
        "कुमार",
        -8.644647138337564
      ],
      [
        "▁लिने",
        -8.646324468107347
      ],
      [
        "▁मत",
        -8.647718089063353
      ],
      [
        "▁वातावरण",
        -8.653379860473027
      ],
      [
        "▁पक्ष",
        -8.65814642332729
      ],
      [
        "ली",
        -8.66043227788337
      ],
      [
        "▁गाडी",
        -8.663189828829676
      ],
      [
        "▁समाज",
        -8.664747543287117
      ],
      [
        "▁नगर",
        -8.665152395568173
      ],
      [
        "▁नेपालका",
        -8.66678897935414
      ],
      [
        "▁घरमा",
        -8.67015046949514
      ],
      [
        "▁थालेको",
        -8.673026160473153
      ],
      [
        "▁बजे",
        -8.674941869340822
      ],
      [
        "▁१७",
        -8.67497471545787
      ],
      [
        "▁पहिले",
        -8.67765884684443
      ],
      [
        "ह",
        -8.677669006033765
      ],
      [
        "▁छु",
        -8.679173396033912
      ],
      [
        "▁शक्ति",
        -8.679746645670832
      ],
      [
        "▁सु",
        -8.679836657523946
      ],
      [
        "▁विस्तार",
        -8.68211615167734
      ],
      [
        "▁राई",
        -8.683109176666827
      ],
      [
        "▁बस्ने",
        -8.68386852619663
      ],
      [
        "द्वारा",
        -8.683943640691414
      ],
      [
        "▁गर्छन्",
        -8.684319979849096
      ],
      [
        "▁अमेरिकी",
        -8.685679895228992
      ],
      [
        "▁सकिने",
        -8.685700432658853
      ],
      [
        "▁प्रणाली",
        -8.686339942442823
      ],
      [
        "▁संरक्षण",
        -8.687185764982596
      ],
      [
        "▁छैन।",
        -8.687296473930209
      ],
      [
        "▁अदालत",
        -8.687715795726467
      ],
      [
        "▁संस्था",
        -8.687807590847719
      ],
      [
        "▁ठाउँ",
        -8.688773552575741
      ],
      [
        ".html\">",
        -8.688787386890105
      ],
      [
        "▁आउन",
        -8.689581658552799
      ],
      [
        "▁जनता",
        -8.690879451099542
      ],
      [
        "▁पुल",
        -8.691592833350574
      ],
      [
        "▁२१",
        -8.692767274658955
      ],
      [
        "ौ",
        -8.695409367420039
      ],
      [
        "▁भ्रमण",
        -8.695432101240295
      ],
      [
        "▁गरि",
        -8.697056145504176
      ],
      [
        "▁यसलाई",
        -8.698201448009975
      ],
      [
        "▁बन्न",
        -8.698670575633354
      ],
      [
        "्स",
        -8.69919593863942
      ],
      [
        "▁छौं",
        -8.702254800456412
      ],
      [
        "▁स्थान",
        -8.702274650431686
      ],
      [
        "▁पोखरा",
        -8.703003715607004
      ],
      [
        "▁शर्मा",
        -8.70332098563445
      ],
      [
        "▁संयुक्त",
        -8.703977129008043
      ],
      [
        "▁राख्ने",
        -8.704311116157978
      ],
      [
        "▁चुनाव",
        -8.705218527097237
      ],
      [
        "▁अर्थ",
        -8.706490240400887
      ],
      [
        "▁होइन,",
        -8.707097294535682
      ],
      [
        "▁हुन्।",
        -8.707146842227324
      ],
      [
        "▁जिल्लामा",
        -8.707765718516548
      ],
      [
        "▁प्रति",
        -8.707880383617306
      ],
      [
        "▁व्यवसायी",
        -8.708322607887066
      ],
      [
        "▁पूर्वाधार",
        -8.709491388286729
      ],
      [
        "th",
        -8.71093201978722
      ],
      [
        "▁आन्दोलन",
        -8.712496678834544
      ],
      [
        "ङ",
        -8.71559253629712
      ],
      [
        "▁सम्बन्धित",
        -8.716005965112577
      ],
      [
        "▁संरचना",
        -8.71756154766283
      ],
      [
        "्दा",
        -8.71862579269831
      ],
      [
        "▁यसै",
        -8.71971466192754
      ],
      [
        "▁संघ",
        -8.719963407270184
      ],
      [
        "▁लाग्ने",
        -8.720236744048682
      ],
      [
        "▁जोड",
        -8.723136488117166
      ],
      [
        "्दै",
        -8.725753118392468
      ],
      [
        "जी",
        -8.726571465062335
      ],
      [
        "▁पर्यटक",
        -8.7274776578932
      ],
      [
        "प्रसाद",
        -8.727508849896239
      ],
      [
        "▁दैनिक",
        -8.729663854647361
      ],
      [
        "▁व्यापार",
        -8.730782573275174
      ],
      [
        "▁जिम्मेवारी",
        -8.73206242366064
      ],
      [
        "दा",
        -8.733037410149567
      ],
      [
        "▁रहने",
        -8.733356231566717
      ],
      [
        "िने",
        -8.734670462355407
      ],
      [
        "▁लिग",
        -8.73467234320233
      ],
      [
        "▁सम्मान",
        -8.735514146059694
      ],
      [
        "▁जस्ता",
        -8.735620018856206
      ],
      [
        "▁आमा",
        -8.736426078951602
      ],
      [
        "▁छ ।",
        -8.736748167332568
      ],
      [
        "▁अमेरिका",
        -8.737973523275208
      ],
      [
        "▁समाचार",
        -8.738880882648862
      ],
      [
        "▁सभा",
        -8.73922538085302
      ],
      [
        "▁पर्छ",
        -8.740580981247028
      ],
      [
        "▁सोमबार",
        -8.742283268847856
      ],
      [
        "▁जनताको",
        -8.742991235657122
      ],
      [
        "▁फुटबल",
        -8.74574647332438
      ],
      [
        "▁आधार",
        -8.745763062373966
      ],
      [
        "▁समितिले",
        -8.74576990688767
      ],
      [
        "इ",
        -8.747343910441973
      ],
      [
        "▁बनाएर",
        -8.747453823824346
      ],
      [
        "विरुद्ध",
        -8.748353657368552
      ],
      [
        "▁!",
        -8.749198784880189
      ],
      [
        "content",
        -8.749439222827105
      ],
      [
        "▁भइसकेको",
        -8.749971473126058
      ],
      [
        "▁भूकम्प",
        -8.751861931075247
      ],
      [
        "▁छोरा",
        -8.754498184495555
      ],
      [
        "▁नियन्त्रण",
        -8.75495108053316
      ],
      [
        "▁the",
        -8.75498620573641
      ],
      [
        "voi",
        -8.75605995648634
      ],
      [
        "जस्तो",
        -8.756611545069171
      ],
      [
        ");",
        -8.75748758066528
      ],
      [
        "▁वि",
        -8.759028430665834
      ],
      [
        "▁पाएको",
        -8.759925528567457
      ],
      [
        "▁यातायात",
        -8.76093955519929
      ],
      [
        "▁अफ",
        -8.762085717752715
      ],
      [
        "(0",
        -8.76286991562062
      ],
      [
        "javascript",
        -8.763078209474324
      ],
      [
        "▁प्रदर्शन",
        -8.763135821126529
      ],
      [
        "▁अधिकांश",
        -8.763373998380917
      ],
      [
        "▁आइतबार",
        -8.763603495528821
      ],
      [
        "▁हुन्छन्",
        -8.764844725382114
      ],
      [
        "L",
        -8.766316419241004
      ],
      [
        "▁क्षेत्रको",
        -8.767662939293997
      ],
      [
        "▁अभाव",
        -8.767918589826362
      ],
      [
        "▁औं",
        -8.76819113349592
      ],
      [
        "▁बुधबार",
        -8.768481375959311
      ],
      [
        "▁जित",
        -8.771004089917579
      ],
      [
        "▁अरू",
        -8.77128395608301
      ],
      [
        "▁कलेज",
        -8.771471314867041
      ],
      [
        "▁निर्देशक",
        -8.772369720568129
      ],
      [
        "▁गराउने",
        -8.772422745573039
      ],
      [
        "▁बताउँछन्",
        -8.77263774256225
      ],
      [
        "▁जति",
        -8.78105367270194
      ],
      [
        "▁प्रतिवेदन",
        -8.781983196821606
      ],
      [
        "▁भाषा",
        -8.782593259568454
      ],
      [
        "▁थिएन",
        -8.782702838219093
      ],
      [
        "▁गराउन",
        -8.783404243737394
      ],
      [
        "▁लगायत",
        -8.78342559090854
      ],
      [
        "▁समाधान",
        -8.783434476382931
      ],
      [
        "▁शुक्रबार",
        -8.785006420429053
      ],
      [
        "▁शिक्षक",
        -8.787000195981227
      ],
      [
        "▁पूर्ण",
        -8.787469816219296
      ],
      [
        "▁पुरुष",
        -8.787896888008992
      ],
      [
        "▁उनीहरू",
        -8.788389137998266
      ],
      [
        "▁विवाद",
        -8.789517208513178
      ],
      [
        "▁दक्षिण",
        -8.791248328587551
      ],
      [
        "▁पराजित",
        -8.791444447794468
      ],
      [
        "▁राजधानी",
        -8.792118234761867
      ],
      [
        "▁थापा",
        -8.792989749953449
      ],
      [
        "▁भाग",
        -8.795971747668657
      ],
      [
        "▁अनुभव",
        -8.797628417011321
      ],
      [
        "▁उत्तर",
        -8.797916748298247
      ],
      [
        "▁वर्षीय",
        -8.79812383467121
      ],
      [
        "▁प्रशासन",
        -8.798421209795633
      ],
      [
        "▁संकलन",
        -8.799421155237791
      ],
      [
        "▁४०",
        -8.799561567602957
      ],
      [
        "▁यसमा",
        -8.79974272659492
      ],
      [
        "▁प्राविधिक",
        -8.80017042054893
      ],
      [
        "▁घाइते",
        -8.803637600335279
      ],
      [
        "बाटै",
        -8.803824733757303
      ],
      [
        "▁विधेयक",
        -8.804555648053547
      ],
      [
        "▁दर",
        -8.807699761063116
      ],
      [
        "▁राख्न",
        -8.807805385732419
      ],
      [
        "▁राजा",
        -8.80961933949256
      ],
      [
        "▁बि",
        -8.81298886476325
      ],
      [
        "मात्र",
        -8.814403886214187
      ],
      [
        "▁प्रभाव",
        -8.81669315360884
      ],
      [
        "▁व्यक्त",
        -8.816991758969301
      ],
      [
        "]]></",
        -8.817296934029732
      ],
      [
        "▁राजनीति",
        -8.818824674010411
      ],
      [
        "link>",
        -8.819487321722766
      ],
      [
        "▁जो",
        -8.819692565799327
      ],
      [
        "▁जे",
        -8.820146979929957
      ],
      [
        "▁ओलीले",
        -8.821140032011545
      ],
      [
        "▁<description>",
        -8.82148062349354
      ],
      [
        "▁<link>",
        -8.821595223983952
      ],
      [
        "▁भन्न",
        -8.821865000088495
      ],
      [
        "▁ठूला",
        -8.821916124558445
      ],
      [
        "▁क्रिकेट",
        -8.822963193301431
      ],
      [
        "▁गर्नुपर्छ",
        -8.823478961761502
      ],
      [
        "▁देशको",
        -8.823923347601694
      ],
      [
        "भ",
        -8.825577497692066
      ],
      [
        "▁शाखा",
        -8.825757825055764
      ],
      [
        "ख",
        -8.827658589606191
      ],
      [
        "▁विदेश",
        -8.828445229969985
      ],
      [
        "▁छ,'",
        -8.828722724733272
      ],
      [
        "▁एकता",
        -8.828785870526307
      ],
      [
        "▁पहिचान",
        -8.82919519827434
      ],
      [
        "▁आदि",
        -8.83077322238283
      ],
      [
        "▁सात",
        -8.830790130993964
      ],
      [
        "▁२०७४",
        -8.832234011078002
      ],
      [
        "▁उत्कृष्ट",
        -8.834428415768445
      ],
      [
        "▁शान्ति",
        -8.835948588102607
      ],
      [
        "पनि",
        -8.83625644819402
      ],
      [
        "▁सहकारी",
        -8.836554159092234
      ],
      [
        "▁उसले",
        -8.837134102299434
      ],
      [
        "▁खान",
        -8.8371760744733
      ],
      [
        "ए",
        -8.837586146889462
      ],
      [
        "▁राखेर",
        -8.838307695251176
      ],
      [
        "▁आवश्यकता",
        -8.839618674119654
      ],
      [
        "▁यात्रा",
        -8.840973998925822
      ],
      [
        "▁विचार",
        -8.841113550329979
      ],
      [
        "ाउने",
        -8.841940641452611
      ],
      [
        "▁कारोबार",
        -8.842972900048713
      ],
      [
        "▁पद",
        -8.845202532388035
      ],
      [
        "▁लगायतका",
        -8.846574660630026
      ],
      [
        "▁प्रत्येक",
        -8.847486226275398
      ],
      [
        "▁२४",
        -8.848051038143648
      ],
      [
        "िएको",
        -8.849195266564221
      ],
      [
        "▁अहिलेसम्म",
        -8.849542085853196
      ],
      [
        "जस्ता",
        -8.850949801081539
      ],
      [
        "▁गरे।",
        -8.85110848625031
      ],
      [
        "उ",
        -8.851438321096381
      ],
      [
        "▁वर्षमा",
        -8.851679365470929
      ],
      [
        "▁प्रेम",
        -8.85314581849139
      ],
      [
        "▁बैठकमा",
        -8.85860200072636
      ],
      [
        "▁मन्त्रालयले",
        -8.858820537360497
      ],
      [
        "▁यति",
        -8.859800237869285
      ],
      [
        "▁आफूलाई",
        -8.860332420810252
      ],
      [
        "ू",
        -8.860468157868677
      ],
      [
        "▁२२",
        -8.860949068195643
      ],
      [
        "▁असार",
        -8.864422289689232
      ],
      [
        "▁सोही",
        -8.864453184762237
      ],
      [
        "▁सुझाव",
        -8.864806419956999
      ],
      [
        "▁नसकेको",
        -8.865590202927779
      ],
      [
        "▁बताउनुभयो",
        -8.866205457002662
      ],
      [
        "▁संगठन",
        -8.867134921159904
      ],
      [
        "▁मानव",
        -8.867647047576927
      ],
      [
        "▁पुग्ने",
        -8.870457929623596
      ],
      [
        "▁भई",
        -8.870807272018908
      ],
      [
        "▁मन्त्रालय",
        -8.872129218607055
      ],
      [
        "▁जसले",
        -8.872269810453151
      ],
      [
        "▁न्याय",
        -8.873032948952424
      ],
      [
        "▁आन्तरिक",
        -8.873266857182253
      ],
      [
        "▁सि",
        -8.873870124046631
      ],
      [
        "description>",
        -8.873962911701668
      ],
      [
        "▁शनिबार",
        -8.874344992509364
      ],
      [
        "▁बैंकले",
        -8.87478023537787
      ],
      [
        "▁ऋण",
        -8.875300767587605
      ],
      [
        "▁शुरु",
        -8.875418221136654
      ],
      [
        "▁पुगेका",
        -8.87625859402104
      ],
      [
        "</s",
        -8.876336030439436
      ],
      [
        "▁भारतको",
        -8.876961898093311
      ],
      [
        "▁तहमा",
        -8.88039264332321
      ],
      [
        "हरुमा",
        -8.882412277337362
      ],
      [
        "▁या",
        -8.882519058282552
      ],
      [
        "नी",
        -8.883139723986247
      ],
      [
        "genera",
        -8.883681494955251
      ],
      [
        "▁सम्बोधन",
        -8.884573445465296
      ],
      [
        "▁अंक",
        -8.885870623853016
      ],
      [
        "▁श्रेष्ठ",
        -8.886414856354216
      ],
      [
        "▁तत्काल",
        -8.88860478471938
      ],
      [
        "▁कम्पनीले",
        -8.888608901443808
      ],
      [
        "▁कुल",
        -8.889024604034828
      ],
      [
        "▁देशमा",
        -8.890026675303359
      ],
      [
        "▁in",
        -8.890637971861784
      ],
      [
        "▁द",
        -8.891078114980496
      ],
      [
        "1/",
        -8.89264246239352
      ],
      [
        "हरूमा",
        -8.892813316152544
      ],
      [
        "गत",
        -8.89311569976222
      ],
      [
        "▁आदेश",
        -8.894349663788939
      ],
      [
        "▁तिन",
        -8.89496812153191
      ],
      [
        "▁गम्भीर",
        -8.89676095614721
      ],
      [
        "ीय",
        -8.897062558528534
      ],
      [
        "▁उपभोक्ता",
        -8.898366252098576
      ],
      [
        "▁कथा",
        -8.898773056721193
      ],
      [
        "ौं",
        -8.89925936538971
      ],
      [
        "▁भित्र",
        -8.903733187171575
      ],
      [
        "/index.html\">",
        -8.904425341035124
      ],
      [
        "या",
        -8.906658097908068
      ],
      [
        "▁त्यसलाई",
        -8.907283372777504
      ],
      [
        "▁वैशाख",
        -8.907543752734579
      ],
      [
        "▁सिर्जना",
        -8.908332337935747
      ],
      [
        "▁...",
        -8.909062927988801
      ],
      [
        "▁मंगलबार",
        -8.9093359085592
      ],
      [
        "सी",
        -8.910087677772049
      ],
      [
        "sy",
        -8.91174413149719
      ],
      [
        "ाउन",
        -8.912815372465356
      ],
      [
        "▁कक्षा",
        -8.91406838658041
      ],
      [
        "▁माघ",
        -8.914207656245623
      ],
      [
        "▁पीडित",
        -8.915454395674935
      ],
      [
        "▁आफैं",
        -8.915830421139724
      ],
      [
        "▁प्रभावित",
        -8.915969332617932
      ],
      [
        "ss",
        -8.91739004848656
      ],
      [
        "▁आफूले",
        -8.918413648954663
      ],
      [
        "▁प्रविधि",
        -8.920204335229117
      ],
      [
        "tor>",
        -8.920889352129358
      ],
      [
        "ाई",
        -8.921418545078113
      ],
      [
        "▁केपी",
        -8.921727377961373
      ],
      [
        "▁मान्छे",
        -8.922529393881588
      ],
      [
        "▁सभापति",
        -8.923344512665883
      ],
      [
        "▁निकाय",
        -8.924736507097093
      ],
      [
        "▁तत्कालीन",
        -8.925491439314566
      ],
      [
        "▁जन",
        -8.92694988090758
      ],
      [
        "▁उ",
        -8.92712340510615
      ],
      [
        "▁कुन",
        -8.928318599221134
      ],
      [
        "ियो",
        -8.928528126445693
      ],
      [
        "ति",
        -8.92949047571188
      ],
      [
        "▁गुनासो",
        -8.930066288500793
      ],
      [
        "▁विवरण",
        -8.930135910477604
      ],
      [
        "थ",
        -8.93075983448161
      ],
      [
        "▁असर",
        -8.93330537409811
      ],
      [
        "▁विरोध",
        -8.93331436451742
      ],
      [
        "▁मिटर",
        -8.936352291511225
      ],
      [
        "▁त्यस्तो",
        -8.937036982829403
      ],
      [
        "▁जेठ",
        -8.937705591355343
      ],
      [
        "▁साता",
        -8.93866614829626
      ],
      [
        "▁समन्वय",
        -8.938746777802212
      ],
      [
        "▁केसी",
        -8.940340978608369
      ],
      [
        "▁1",
        -8.94096575209846
      ],
      [
        "▁भदौ",
        -8.943387868871062
      ],
      [
        "▁छोरी",
        -8.944122888115134
      ],
      [
        "▁जनाको",
        -8.946269644561461
      ],
      [
        "▁परिवार",
        -8.947425104436403
      ],
      [
        "▁प्रतियोगिता",
        -8.948756650805308
      ],
      [
        "▁क्षेत्रका",
        -8.94891814932694
      ],
      [
        "▁खेती",
        -8.950207876245068
      ],
      [
        "▁साधन",
        -8.950246519396035
      ],
      [
        "▁जरुरी",
        -8.951099502131454
      ],
      [
        "▁पदार्थ",
        -8.951350882629063
      ],
      [
        "▁ल्याउन",
        -8.951997826853272
      ],
      [
        "डा",
        -8.952345637925218
      ],
      [
        "▁सोच",
        -8.953535817882686
      ],
      [
        "▁ज्यान",
        -8.953688705110899
      ],
      [
        "▁विद्युत्",
        -8.954122051333451
      ],
      [
        "▁प्र",
        -8.955313651217109
      ],
      [
        "▁हुनुपर्ने",
        -8.955476687761111
      ],
      [
        "▁उम्मेदवार",
        -8.955812381942373
      ],
      [
        "▁धर्म",
        -8.958272676876673
      ],
      [
        "▁राम",
        -8.958640198274788
      ],
      [
        "▁त्यसमा",
        -8.958886893296595
      ],
      [
        "▁बन्ने",
        -8.959387450605961
      ],
      [
        "▁इ",
        -8.963074754481207
      ],
      [
        "▁अझ",
        -8.963183811567204
      ],
      [
        "▁यसका",
        -8.963324955355622
      ],
      [
        "▁and",
        -8.963503731887212
      ],
      [
        "▁हुन्छ।",
        -8.963522574050847
      ],
      [
        "▁कमजोर",
        -8.964367876408158
      ],
      [
        "▁लाग्छ",
        -8.964514559948848
      ],
      [
        "▁स्पष्ट",
        -8.96757358653644
      ],
      [
        "▁क्षति",
        -8.967633096597053
      ],
      [
        "▁भन्छन्,",
        -8.968327767902588
      ],
      [
        "▁राखिएको",
        -8.968719241069731
      ],
      [
        "▁सम्पूर्ण",
        -8.971357758509416
      ],
      [
        "▁कसैले",
        -8.971596840139
      ],
      [
        "▁माथि",
        -8.971652604624255
      ],
      [
        "▁साउन",
        -8.97215652845532
      ],
      [
        "▁असोज",
        -8.974287685255517
      ],
      [
        "▁सीमा",
        -8.974531421714026
      ],
      [
        "▁मन्दिर",
        -8.974597601894587
      ],
      [
        "▁प्रतिनिधि",
        -8.974983936879923
      ],
      [
        "▁अनुगमन",
        -8.977809432898402
      ],
      [
        "▁२३",
        -8.978524181894201
      ],
      [
        "▁कहिले",
        -8.978643869803305
      ],
      [
        "▁त्यति",
        -8.978815121671039
      ],
      [
        "▁भनी",
        -8.981954346244612
      ],
      [
        "लाइ",
        -8.982943535215632
      ],
      [
        "▁जस",
        -8.983635774783295
      ],
      [
        "▁लागू",
        -8.9839133197084
      ],
      [
        "▁नदी",
        -8.985382540988478
      ],
      [
        "▁विकेट",
        -8.98566014618985
      ],
      [
        "ण",
        -8.985713451794384
      ],
      [
        "▁चिनियाँ",
        -8.988684653955739
      ],
      [
        "▁चर्चा",
        -8.98900195151123
      ],
      [
        "▁सम्मेलन",
        -8.98985193243946
      ],
      [
        "▁सर्वोच्च",
        -8.990151650085094
      ],
      [
        "▁बसेको",
        -8.991540856111474
      ],
      [
        "▁श्रेष्ठले",
        -8.991951744481026
      ],
      [
        "▁दुर्घटना",
        -8.995330807369557
      ],
      [
        "▁विवाह",
        -8.99752888549734
      ],
      [
        "▁घण्टा",
        -9.000766094536635
      ],
      [
        "▁२८",
        -9.001353302470951
      ],
      [
        "▁व्यवसाय",
        -9.001885578689075
      ],
      [
        "▁बर्ष",
        -9.004175144621005
      ],
      [
        "▁बिहीबार",
        -9.006279613668562
      ],
      [
        "▁मानिस",
        -9.006359061070029
      ],
      [
        "▁छनोट",
        -9.007978520294367
      ],
      [
        "▁कस्तो",
        -9.010333246851346
      ],
      [
        "▁एउटै",
        -9.011564344313005
      ],
      [
        "▁कोही",
        -9.01239072062299
      ],
      [
        "▁ग",
        -9.0152741293564
      ],
      [
        "▁आयात",
        -9.015322831079482
      ],
      [
        "▁थापाले",
        -9.016072359981257
      ],
      [
        "▁भौतिक",
        -9.016250979956702
      ],
      [
        "▁संयोजक",
        -9.016312143286306
      ],
      [
        "▁महत्वपूर्ण",
        -9.016316180247667
      ],
      [
        "▁जब",
        -9.016780571468004
      ],
      [
        "▁चरणमा",
        -9.018558999485242
      ],
      [
        "▁चरण",
        -9.01993451794065
      ],
      [
        "पुर",
        -9.020430753586202
      ],
      [
        "▁सपना",
        -9.02085675615301
      ],
      [
        "▁सेयर",
        -9.024450711244302
      ],
      [
        "▁अनुमान",
        -9.025277254022832
      ],
      [
        "▁विमानस्थल",
        -9.025508955964074
      ],
      [
        "पूर्ण",
        -9.02557538341912
      ],
      [
        "▁राखेको",
        -9.028583083159962
      ],
      [
        "▁समितिको",
        -9.02976513259826
      ],
      [
        "▁पत्र",
        -9.030036213301878
      ],
      [
        "टी",
        -9.031216792506722
      ],
      [
        "▁छन्,",
        -9.03276548042222
      ],
      [
        "▁S",
        -9.03293413784392
      ],
      [
        "▁अन्त्य",
        -9.03402379710981
      ],
      [
        "छन्",
        -9.03604600265991
      ],
      [
        "e",
        -9.036265795894902
      ],
      [
        "▁बैठकले",
        -9.036487384095391
      ],
      [
        "▁वित्तीय",
        -9.03666566407257
      ],
      [
        "▁बा",
        -9.038702135298958
      ],
      [
        "▁इतिहास",
        -9.039228806412313
      ],
      [
        "▁आए",
        -9.04110933158723
      ],
      [
        "▁सामग्री",
        -9.041265634767024
      ],
      [
        "▁हेर्न",
        -9.04296721373811
      ],
      [
        "▁समितिका",
        -9.043240460135191
      ],
      [
        "▁दिइएको",
        -9.044061850939135
      ],
      [
        "▁बोर्ड",
        -9.044128168382391
      ],
      [
        "▁कोष",
        -9.045489438525038
      ],
      [
        "▁६०",
        -9.045743101096535
      ],
      [
        "▁सालमा",
        -9.04693392904606
      ],
      [
        "▁विभाग",
        -9.047072719493611
      ],
      [
        "▁फागुन",
        -9.048118242289314
      ],
      [
        "▁चितवन",
        -9.04894149464875
      ],
      [
        "▁पुरस्कार",
        -9.048989031340128
      ],
      [
        "▁सहभागिता",
        -9.051529980002
      ],
      [
        "▁भनिएको",
        -9.05189604449832
      ],
      [
        "▁देशका",
        -9.052859900727054
      ],
      [
        "▁२७",
        -9.052945080512115
      ],
      [
        "्यो",
        -9.054212087292797
      ],
      [
        "▁अन्तर्गत",
        -9.054810671179215
      ],
      [
        "लगायतका",
        -9.05586363479598
      ],
      [
        "▁उनीहरूले",
        -9.057040205588596
      ],
      [
        "▁हामीलाई",
        -9.057343271338247
      ],
      [
        "▁सरकारलाई",
        -9.060201885662757
      ],
      [
        "▁संलग्न",
        -9.06024760824416
      ],
      [
        "▁सिफारिस",
        -9.06060675998053
      ],
      [
        "▁रहेछ",
        -9.060788101665691
      ],
      [
        "▁पक्षमा",
        -9.06262385186896
      ],
      [
        "▁मुख्यमन्त्री",
        -9.063141770077328
      ],
      [
        "डी",
        -9.063153884284974
      ],
      [
        "▁नसक्ने",
        -9.064276992887502
      ],
      [
        "▁पार्टीको",
        -9.064985368271818
      ],
      [
        "▁औषधि",
        -9.06620610813833
      ],
      [
        "▁टोलीले",
        -9.067487092425376
      ],
      [
        "िया",
        -9.067667855165542
      ],
      [
        "▁प्रदेशसभा",
        -9.06853368666751
      ],
      [
        "▁होटल",
        -9.069780916473444
      ],
      [
        "▁नियमित",
        -9.070502163123958
      ],
      [
        "▁फिर्ता",
        -9.071250437248317
      ],
      [
        "▁गरिन्छ",
        -9.072187960186444
      ],
      [
        "\">",
        -9.074008724978889
      ],
      [
        "▁लगाउने",
        -9.074387475522704
      ],
      [
        "▁गएका",
        -9.075739844646366
      ],
      [
        "▁आम",
        -9.077231491746357
      ],
      [
        "▁डलर",
        -9.077873176085596
      ],
      [
        "Comments",
        -9.078112949572912
      ],
      [
        "1.0",
        -9.078140665528228
      ],
      [
        "▁पाउन",
        -9.078845530335258
      ],
      [
        "▁नियम",
        -9.079219357919486
      ],
      [
        "▁योगदान",
        -9.07970654714132
      ],
      [
        "जा",
        -9.079774722898694
      ],
      [
        "▁डा",
        -9.080064480920234
      ],
      [
        "▁भेट",
        -9.081714608417352
      ],
      [
        "▁मान्यता",
        -9.08184036763617
      ],
      [
        "▁प्रतिस्पर्धा",
        -9.082203851967048
      ],
      [
        "▁दिनमा",
        -9.082770292037482
      ],
      [
        "▁सञ्चालनमा",
        -9.08349883982334
      ],
      [
        "▁प्रवक्ता",
        -9.084796239326458
      ],
      [
        "▁भ",
        -9.084812784691469
      ],
      [
        "▁ओ",
        -9.08493563224384
      ],
      [
        "▁पाएका",
        -9.0861846212347
      ],
      [
        "अन्तर्गत",
        -9.086332674505927
      ],
      [
        "▁उपाधि",
        -9.08704968255956
      ],
      [
        "▁किसान",
        -9.087551799621654
      ],
      [
        "▁अवसरमा",
        -9.089887698669656
      ],
      [
        "▁दिवस",
        -9.090330316883149
      ],
      [
        "▁निर्वाचित",
        -9.092360538766227
      ],
      [
        "▁जवाफ",
        -9.09240528750092
      ],
      [
        "▁अस्पतालमा",
        -9.09299128878275
      ],
      [
        "▁त्यसै",
        -9.093435853100871
      ],
      [
        "वि",
        -9.094369809683249
      ],
      [
        "▁प्रभावकारी",
        -9.094928542894197
      ],
      [
        "▁कात्तिक",
        -9.095307034035796
      ],
      [
        "▁गुरुङ",
        -9.095353671579154
      ],
      [
        "▁२६",
        -9.095521985534749
      ],
      [
        "▁विगत",
        -9.096940389322564
      ],
      [
        "5.",
        -9.099557786982263
      ],
      [
        "▁नहुँदा",
        -9.10083321196788
      ],
      [
        "▁वैदेशिक",
        -9.100956185777967
      ],
      [
        "▁बढाउन",
        -9.101874052667911
      ],
      [
        "▁सामान",
        -9.101987021302504
      ],
      [
        "▁परीक्षा",
        -9.102158353059146
      ],
      [
        "▁तहको",
        -9.102401378445355
      ],
      [
        "▁2019",
        -9.102748843368309
      ],
      [
        "▁बनेका",
        -9.10275649927094
      ],
      [
        "▁स्थापित",
        -9.103164568526202
      ],
      [
        "▁ख",
        -9.10330054635742
      ],
      [
        "▁मूल",
        -9.106055162117933
      ],
      [
        "▁ज्ञान",
        -9.107221538703758
      ],
      [
        "▁शुल्क",
        -9.107562982179948
      ],
      [
        "▁कार्यकारी",
        -9.108463472446036
      ],
      [
        "▁तालिम",
        -9.109282773819912
      ],
      [
        "?v=",
        -9.110118361603057
      ],
      [
        "on:",
        -9.11047608054865
      ],
      [
        "▁गरेकी",
        -9.110640950765289
      ],
      [
        "ordpress",
        -9.111071372123387
      ],
      [
        "▁ल्याएको",
        -9.111909353962425
      ],
      [
        "https://w",
        -9.11243304431737
      ],
      [
        "▁शाह",
        -9.11316313618609
      ],
      [
        "▁हुनुपर्छ",
        -9.113258815326096
      ],
      [
        "▁सानो",
        -9.113330004598737
      ],
      [
        "ly",
        -9.11353944866248
      ],
      [
        "▁बिरामी",
        -9.113705096904502
      ],
      [
        "▁आम्दानी",
        -9.11404704157283
      ],
      [
        "▁ल्याउने",
        -9.114067954208368
      ],
      [
        "▁खेलकुद",
        -9.114983696994004
      ],
      [
        "▁गरिएका",
        -9.11623321567853
      ],
      [
        "▁२९",
        -9.116708291733936
      ],
      [
        "▁जम्मा",
        -9.116828456490849
      ],
      [
        "ast",
        -9.12027581711253
      ],
      [
        "▁मोदी",
        -9.121617186911603
      ],
      [
        "<span",
        -9.121652213277397
      ],
      [
        "▁रोजगारी",
        -9.122835040453031
      ],
      [
        "▁उमेर",
        -9.122877656666104
      ],
      [
        "▁वस्तु",
        -9.125221356446866
      ],
      [
        "▁उनीहरु",
        -9.127808933766508
      ],
      [
        "०",
        -9.128396369122086
      ],
      [
        "▁पो",
        -9.129006749709768
      ],
      [
        "▁खाना",
        -9.13417833185941
      ],
      [
        "▁पर",
        -9.135154580441183
      ],
      [
        "▁राति",
        -9.135196579993895
      ],
      [
        "।'",
        -9.13522737635974
      ],
      [
        "सहितको",
        -9.136036517866447
      ],
      [
        "▁पौडेल",
        -9.136402851158172
      ],
      [
        "▁कार्यालयले",
        -9.13755180167087
      ],
      [
        "▁एकै",
        -9.141213359659156
      ],
      [
        "▁मंसिर",
        -9.141861897251111
      ],
      [
        "▁भ्रष्टाचार",
        -9.14297554553886
      ],
      [
        "ध",
        -9.143155981596056
      ],
      [
        "▁साल",
        -9.14423426061902
      ],
      [
        "ेको",
        -9.145162656717448
      ],
      [
        "▁थालेका",
        -9.146557187573524
      ],
      [
        "▁अनुदान",
        -9.147410531256629
      ],
      [
        "▁तरकारी",
        -9.14752100950737
      ],
      [
        "▁चैत",
        -9.149355057553704
      ],
      [
        "▁परीक्षण",
        -9.149609462699122
      ],
      [
        "▁चुनौती",
        -9.149843832878608
      ],
      [
        "facebook",
        -9.15023420087199
      ],
      [
        "b",
        -9.150236625501329
      ],
      [
        "▁कर्णाली",
        -9.150891669918364
      ],
      [
        "▁भएन",
        -9.15238861092123
      ],
      [
        "▁नागरिकता",
        -9.152621270583431
      ],
      [
        "twitter",
        -9.15407156044894
      ],
      [
        "▁नजिक",
        -9.154326424656931
      ],
      [
        "▁किलोमिटर",
        -9.154494092668765
      ],
      [
        "8\"",
        -9.15459239086729
      ],
      [
        "▁अधिकारीले",
        -9.154874794066064
      ],
      [
        "▁कृष्ण",
        -9.155021242236462
      ],
      [
        "▁बस्ती",
        -9.15543157083013
      ],
      [
        "▁खुला",
        -9.15640957617155
      ],
      [
        "▁निर्वाचनमा",
        -9.157860428666575
      ],
      [
        "▁।\"",
        -9.157991820950327
      ],
      [
        "▁कहाँ",
        -9.158202019786607
      ],
      [
        "pub",
        -9.15849270842462
      ],
      [
        "▁सम्बन्धमा",
        -9.159752005261703
      ],
      [
        "के",
        -9.159794143701404
      ],
      [
        "▁बलियो",
        -9.160668587918048
      ],
      [
        "0\"",
        -9.160784247131714
      ],
      [
        "फ",
        -9.160806148946124
      ],
      [
        "▁व",
        -9.161727834126422
      ],
      [
        "▁व्यवहार",
        -9.162023999481768
      ],
      [
        "▁दिएर",
        -9.162404605998136
      ],
      [
        "common",
        -9.1627473819309
      ],
      [
        "▁श्रम",
        -9.163885972783984
      ],
      [
        "▁गलत",
        -9.164425929890117
      ],
      [
        "ाइ",
        -9.164516958526326
      ],
      [
        "▁धारणा",
        -9.164573186714716
      ],
      [
        "item",
        -9.164723934465693
      ],
      [
        "guid",
        -9.165195125452763
      ],
      [
        "▁पुन",
        -9.165681666686408
      ],
      [
        "▁प्रहार",
        -9.16624446509284
      ],
      [
        "▁संस्कृति",
        -9.16647421958595
      ],
      [
        "▁हाम्रा",
        -9.1668133439271
      ],
      [
        "▁title=\"",
        -9.168649503727767
      ],
      [
        "्य",
        -9.168658644866506
      ],
      [
        "thumb",
        -9.168825882497687
      ],
      [
        "r",
        -9.169053829001395
      ],
      [
        "-wrap",
        -9.16921203829095
      ],
      [
        "▁सामुदायिक",
        -9.169325437235392
      ],
      [
        "dc:creator>",
        -9.169728212388623
      ],
      [
        "content:encoded>",
        -9.169728212388655
      ],
      [
        "-count-wrap",
        -9.169728217552857
      ],
      [
        "cld-count-wrap\">",
        -9.169728245841226
      ],
      [
        "▁भर्ना",
        -9.169990503089403
      ],
      [
        "ती",
        -9.171591198192278
      ],
      [
        "▁संसदीय",
        -9.172202019737066
      ],
      [
        "▁उपाध्यक्ष",
        -9.173819719386447
      ],
      [
        "▁पुग्न",
        -9.175625454322304
      ],
      [
        "▁खुसी",
        -9.176442104824684
      ],
      [
        "▁अर्थात्",
        -9.177568965600903
      ],
      [
        "▁आठ",
        -9.178721115715692
      ],
      [
        "',",
        -9.179333905677838
      ],
      [
        "▁News",
        -9.18182557559314
      ],
      [
        "वादी",
        -9.182423674719129
      ],
      [
        "▁थियो,",
        -9.184446885788343
      ],
      [
        "▁आयोजित",
        -9.184666914146575
      ],
      [
        "▁गएर",
        -9.18589232400291
      ],
      [
        "▁तस्बिर",
        -9.187251228112276
      ],
      [
        "▁उसको",
        -9.187504406908127
      ],
      [
        "▁पारित",
        -9.18790939286255
      ],
      [
        "▁सदरमुकाम",
        -9.187972386939553
      ],
      [
        "▁सकारात्मक",
        -9.189864944181036
      ],
      [
        "▁कारणले",
        -9.190524191807494
      ],
      [
        "▁अपराध",
        -9.190577200735795
      ],
      [
        "▁दिए।",
        -9.190720125721318
      ],
      [
        "▁बढ्दै",
        -9.19383351084556
      ],
      [
        "▁पुस्तक",
        -9.19386022879879
      ],
      [
        "▁ध",
        -9.19401613505062
      ],
      [
        "▁सत्ता",
        -9.197052562655896
      ],
      [
        "▁फोन",
        -9.200229991731172
      ],
      [
        "▁आयोजक",
        -9.200701857207028
      ],
      [
        "▁जाँदा",
        -9.200707397548204
      ],
      [
        "▁शैक्षिक",
        -9.200890281425185
      ],
      [
        "▁पाए",
        -9.20157435648318
      ],
      [
        "▁चासो",
        -9.201928521693098
      ],
      [
        "▁दलित",
        -9.202337999281946
      ],
      [
        "▁तर्फबाट",
        -9.2024653730566
      ],
      [
        "▁दाहाल",
        -9.20413458047514
      ],
      [
        "▁साँझ",
        -9.20450432351928
      ],
      [
        "▁नं",
        -9.20609261983432
      ],
      [
        "▁बाध्य",
        -9.20627900463765
      ],
      [
        "▁उनीहरूको",
        -9.207646998617086
      ],
      [
        "▁सुरक्षित",
        -9.207707468762916
      ],
      [
        "▁is",
        -9.207769791184912
      ],
      [
        "▁बस्न",
        -9.208256530652884
      ],
      [
        "/feed\"",
        -9.208928859011817
      ],
      [
        "▁आशा",
        -9.2094533776454
      ],
      [
        "राम",
        -9.211636259607856
      ],
      [
        "15",
        -9.212180472262215
      ],
      [
        "▁वर्षअघि",
        -9.212856034686336
      ],
      [
        "▁विकल्प",
        -9.213667872110046
      ],
      [
        "▁पाइन्छ",
        -9.214955509593135
      ],
      [
        "▁बालबालिका",
        -9.215221659812938
      ],
      [
        "▁समृद्धि",
        -9.216136689234771
      ],
      [
        "बी",
        -9.21614837575996
      ],
      [
        "▁बसेर",
        -9.216224011910636
      ],
      [
        "2",
        -9.217060476204097
      ],
      [
        "ठ",
        -9.21767008141674
      ],
      [
        "▁कलाकार",
        -9.218208875316034
      ],
      [
        "▁धार्मिक",
        -9.219633862467376
      ],
      [
        "self",
        -9.219970140294564
      ],
      [
        "▁साना",
        -9.221976242600244
      ],
      [
        "▁मिति",
        -9.223506341079196
      ],
      [
        "नाथ",
        -9.22360883900539
      ],
      [
        "▁पुस",
        -9.22455394860793
      ],
      [
        "▁गाउँमा",
        -9.225057398693613
      ],
      [
        "UT",
        -9.225157665872798
      ],
      [
        "▁पहल",
        -9.225174022301076
      ],
      [
        "लो",
        -9.226191072549833
      ],
      [
        "▁जन्म",
        -9.22671828101772
      ],
      [
        "▁परियोजना",
        -9.227115204591538
      ],
      [
        "6",
        -9.2275000687845
      ],
      [
        "▁खबर",
        -9.22771709764308
      ],
      [
        "▁जमिन",
        -9.227968578677164
      ],
      [
        "▁प्रतियोगितामा",
        -9.228410900142812
      ],
      [
        "link",
        -9.228454186839622
      ],
      [
        "▁लागेका",
        -9.22869930242884
      ],
      [
        "▁शरीर",
        -9.230089115503477
      ],
      [
        "▁समुदाय",
        -9.231989472209104
      ],
      [
        "▁विश्वकप",
        -9.232013503412466
      ],
      [
        "र्",
        -9.232212130926408
      ],
      [
        "▁सम्बन्धी",
        -9.232642933560706
      ],
      [
        "▁आक्रमण",
        -9.233921426950271
      ],
      [
        "▁स्कुल",
        -9.234461888245423
      ],
      [
        "ुवा",
        -9.2347924954478
      ],
      [
        "▁बुद्ध",
        -9.23482727993885
      ],
      [
        "lement",
        -9.235158972094462
      ],
      [
        "▁अभ्यास",
        -9.2353202576042
      ],
      [
        "l\"",
        -9.235614592940244
      ],
      [
        "A",
        -9.235992181994195
      ],
      [
        "▁कार्यालयमा",
        -9.236504005307818
      ],
      [
        "▁लिएका",
        -9.23668195175254
      ],
      [
        "▁खानेपानी",
        -9.2375057191913
      ],
      [
        "▁३५",
        -9.237743161453537
      ],
      [
        "▁थिइन्",
        -9.239164541287357
      ],
      [
        "▁जनताले",
        -9.239231306026037
      ],
      [
        "▁हेर्दा",
        -9.239523357873724
      ],
      [
        "लाल",
        -9.239533614903628
      ],
      [
        "▁वर्षदेखि",
        -9.24099048435814
      ],
      [
        "▁अर्का",
        -9.241752788073429
      ],
      [
        "▁विजेता",
        -9.241889686373952
      ],
      [
        "जस्तै",
        -9.24234598092601
      ],
      [
        "ss+",
        -9.242713429064093
      ],
      [
        "▁बताउँदै",
        -9.243752109593489
      ],
      [
        "dc",
        -9.244210980579478
      ],
      [
        "▁यदि",
        -9.24438445034304
      ],
      [
        "▁गए",
        -9.244563171559516
      ],
      [
        "/e",
        -9.24463288217327
      ],
      [
        "बीचको",
        -9.2450445553655
      ],
      [
        "><",
        -9.245233231269436
      ],
      [
        "▁प्रत्यक्ष",
        -9.245423816662676
      ],
      [
        "▁पुरानो",
        -9.246129784857184
      ],
      [
        "2005",
        -9.246266125268493
      ],
      [
        "/A",
        -9.248477318989464
      ],
      [
        "application",
        -9.249212882225653
      ],
      [
        "▁पहिरो",
        -9.250308467117168
      ],
      [
        "्र",
        -9.250878546479658
      ],
      [
        "संग",
        -9.250910851831806
      ],
      [
        "syndicat",
        -9.25101295706282
      ],
      [
        "▁rel=\"",
        -9.25124835859163
      ],
      [
        "▁आँखा",
        -9.25126560017152
      ],
      [
        "▁शासन",
        -9.25173273639971
      ],
      [
        "▁चालक",
        -9.25208773708072
      ],
      [
        "Build",
        -9.25214945443214
      ],
      [
        "▁निगम",
        -9.25251794372604
      ],
      [
        "▁गौतम",
        -9.252895707174046
      ],
      [
        "www.w",
        -9.253051459431584
      ],
      [
        "/content/",
        -9.253405805901863
      ],
      [
        "ion/",
        -9.2536357737203
      ],
      [
        "545</l",
        -9.253669663946836
      ],
      [
        "encod",
        -9.253839265767306
      ],
      [
        "=\"2",
        -9.254027885953224
      ],
      [
        "▁<lastBuildDate>",
        -9.2540726828971
      ],
      [
        "बि",
        -9.254172242752782
      ],
      [
        "▁अन्तर",
        -9.255162558700915
      ],
      [
        "/dc",
        -9.255440368364091
      ],
      [
        "▁निम्ति",
        -9.255726918031977
      ],
      [
        "▁यौन",
        -9.255883983085392
      ],
      [
        "▁पारेको",
        -9.256308399467152
      ],
      [
        "▁निरन्तर",
        -9.256406901978192
      ],
      [
        "▁तराई",
        -9.256914364646985
      ],
      [
        "F-",
        -9.256997091477563
      ],
      [
        "▁गर्नुभएको",
        -9.258325650329192
      ],
      [
        "▁एसिया",
        -9.261331509577063
      ],
      [
        "▁सं",
        -9.262727663452988
      ],
      [
        "▁जिल्लाका",
        -9.262890248796383
      ],
      [
        "▁पूजा",
        -9.263085015353743
      ],
      [
        "▁पार्टीका",
        -9.263544330485042
      ],
      [
        "▁नभए",
        -9.265483592875276
      ],
      [
        "▁यादव",
        -9.265742400154693
      ],
      [
        "सित",
        -9.265743818376254
      ],
      [
        "▁सञ्चार",
        -9.266062279905803
      ],
      [
        "▁पर्व",
        -9.26828456267553
      ],
      [
        "▁आचार्य",
        -9.269033308240395
      ],
      [
        "▁माया",
        -9.270124336718292
      ],
      [
        "▁उद्घाटन",
        -9.270391503241726
      ],
      [
        "▁सम्पत्ति",
        -9.271122662200057
      ],
      [
        "▁कानुनी",
        -9.271212164170231
      ],
      [
        "▁वरिष्ठ",
        -9.271550242593596
      ],
      [
        "▁सफलता",
        -9.272706836878688
      ],
      [
        "▁शेयर",
        -9.273818790862997
      ],
      [
        "रु",
        -9.276459146226228
      ],
      [
        "▁हालसम्म",
        -9.276832477191384
      ],
      [
        "▁छन",
        -9.278735525619156
      ],
      [
        "▁पश्चिम",
        -9.278853064448375
      ],
      [
        "▁हासिल",
        -9.282575380000866
      ],
      [
        "▁सिंह",
        -9.283086754519037
      ],
      [
        "▁जहाँ",
        -9.283797672502288
      ],
      [
        "र्स",
        -9.28439000210995
      ],
      [
        "▁जिल्लाको",
        -9.284995850443597
      ],
      [
        "▁लगाउन",
        -9.285219438498624
      ],
      [
        "▁निर्धारण",
        -9.285645480449922
      ],
      [
        "▁दिँदै",
        -9.286558899837214
      ],
      [
        "▁वाणिज्य",
        -9.287267401865916
      ],
      [
        "▁प्रशिक्षक",
        -9.288004163686828
      ],
      [
        "▁दबाब",
        -9.288785930570516
      ],
      [
        "▁बाल",
        -9.289501718810488
      ],
      [
        "▁च",
        -9.291336109325036
      ],
      [
        "▁स्थिति",
        -9.291656735982444
      ],
      [
        "▁दलका",
        -9.292651728883602
      ],
      [
        "बाहेक",
        -9.29275769598268
      ],
      [
        "▁प्रकाश",
        -9.293244025382238
      ],
      [
        "▁पौडेलले",
        -9.29332949487075
      ],
      [
        "▁सम्भव",
        -9.293531922357731
      ],
      [
        "▁मिनेटमा",
        -9.294193328647031
      ],
      [
        "▁चिकित्सक",
        -9.296985768023536
      ],
      [
        "अ",
        -9.297164883643472
      ],
      [
        "▁विकासका",
        -9.297703410674716
      ],
      [
        "▁पार्ने",
        -9.297715100009931
      ],
      [
        "▁उनीहरुले",
        -9.297840030140804
      ],
      [
        "ओ",
        -9.298263653563636
      ],
      [
        "▁उद्देश्य",
        -9.298335784978248
      ],
      [
        "▁भनिन्,",
        -9.299080980688665
      ],
      [
        "▁हेर्ने",
        -9.301073540874055
      ],
      [
        "▁यात्रु",
        -9.303361048734873
      ],
      [
        "▁बताइएको",
        -9.304073621439937
      ],
      [
        "▁भयो।",
        -9.304161974441966
      ],
      [
        "▁फाइदा",
        -9.304760346141606
      ],
      [
        "▁विज्ञान",
        -9.305317509423856
      ],
      [
        "▁राजस्व",
        -9.305562522413693
      ],
      [
        "▁कतै",
        -9.306172347288864
      ],
      [
        "▁मेडिकल",
        -9.307159526431548
      ],
      [
        "▁तय",
        -9.308227555283167
      ],
      [
        "▁नभई",
        -9.308478972703147
      ],
      [
        "▁गर",
        -9.308720450074883
      ],
      [
        "▁आएर",
        -9.308788845192018
      ],
      [
        "▁काममा",
        -9.309956982403904
      ],
      [
        "▁लोकतान्त्रिक",
        -9.310039710379604
      ],
      [
        "▁उडान",
        -9.311316884941398
      ],
      [
        "▁बहस",
        -9.311381903241625
      ],
      [
        "0</span>",
        -9.312518006846032
      ],
      [
        "<![CDATA[",
        -9.312591538223735
      ],
      [
        "1",
        -9.31293497782603
      ],
      [
        "(",
        -9.31308582444661
      ],
      [
        "▁सा",
        -9.313814686602724
      ],
      [
        "▁केहि",
        -9.313959324504683
      ],
      [
        "▁प्राथमिकता",
        -9.314064170195918
      ],
      [
        "▁to",
        -9.315643389693191
      ],
      [
        "▁त्यसका",
        -9.316092462338103
      ],
      [
        "▁बढाउने",
        -9.316217935703053
      ],
      [
        "▁नभएका",
        -9.316330893298336
      ],
      [
        "—",
        -9.316668360878904
      ],
      [
        "▁उजुरी",
        -9.316717524855282
      ],
      [
        "▁दर्शक",
        -9.317831433850367
      ],
      [
        "▁नेतृत्वको",
        -9.318297707216516
      ],
      [
        "▁अघिल्लो",
        -9.318447571043173
      ],
      [
        "▁संघीयता",
        -9.318849364404969
      ],
      [
        "हा",
        -9.319142514900207
      ],
      [
        "▁तपाईं",
        -9.319632556154868
      ],
      [
        "ंग",
        -9.32063121514418
      ],
      [
        "▁यता",
        -9.320731952168062
      ],
      [
        "▁पुनः",
        -9.32087693931676
      ],
      [
        "▁खाने",
        -9.321161558602295
      ],
      [
        "▁बताइन्",
        -9.322637227533432
      ],
      [
        "▁छिमेकी",
        -9.32285752702023
      ],
      [
        "▁वार्षिक",
        -9.32295217102562
      ],
      [
        "▁आव",
        -9.323353368494177
      ],
      [
        "▁धान",
        -9.326198972321029
      ],
      [
        "▁प्रावधान",
        -9.326571737414708
      ],
      [
        "▁त्यस्ता",
        -9.32813039904629
      ],
      [
        "▁राहत",
        -9.32821485452363
      ],
      [
        "▁लोकतन्त्र",
        -9.32879199734966
      ],
      [
        "▁गर्ने,",
        -9.329454768189146
      ],
      [
        "▁खोजी",
        -9.331406707270173
      ],
      [
        "नै",
        -9.331542203342412
      ],
      [
        "▁अनुमति",
        -9.332856456531864
      ],
      [
        "▁प्रधान",
        -9.333099255258686
      ],
      [
        "▁संसद्",
        -9.334480555669684
      ],
      [
        "▁गठबन्धन",
        -9.335910000716048
      ],
      [
        "▁लगाएर",
        -9.336092441628178
      ],
      [
        "▁सक्रिय",
        -9.336313367851153
      ],
      [
        "▁कार्यरत",
        -9.336317764350046
      ],
      [
        "▁आवाज",
        -9.3364888181697
      ],
      [
        "▁लगाएको",
        -9.336607732948949
      ],
      [
        "▁देउवा",
        -9.337392443441452
      ],
      [
        "▁७०",
        -9.337952990930816
      ],
      [
        "▁'म",
        -9.338057666024136
      ],
      [
        "▁पुरा",
        -9.33814018989858
      ],
      [
        "▁तथ्यांक",
        -9.33820298473473
      ],
      [
        "▁श्री",
        -9.338308740568811
      ],
      [
        "▁व्यावसायिक",
        -9.33884081247
      ],
      [
        "▁मुलुकमा",
        -9.33890979180351
      ],
      [
        "▁छिन्",
        -9.338940656558018
      ],
      [
        "▁विद्यालयमा",
        -9.339227127389048
      ],
      [
        "▁वर्ग",
        -9.339313736619372
      ],
      [
        "▁कविता",
        -9.33946015439227
      ],
      [
        "▁नगर्ने",
        -9.3395283333481
      ],
      [
        "▁विराटनगर",
        -9.340489392692804
      ],
      [
        "4",
        -9.3405675752007
      ],
      [
        "कि",
        -9.340572672555304
      ],
      [
        "▁८०",
        -9.340993680258746
      ],
      [
        "▁परिणाम",
        -9.341794667992222
      ],
      [
        "▁३१",
        -9.343190610555862
      ],
      [
        "▁रोजगार",
        -9.345471227728916
      ],
      [
        "▁समान",
        -9.346265821573493
      ],
      [
        "▁भन्सार",
        -9.346837547575708
      ],
      [
        "▁छुट",
        -9.346981002455015
      ],
      [
        "नु",
        -9.34705313698418
      ],
      [
        "▁बेलायत",
        -9.348019338468792
      ],
      [
        "▁निर्माणका",
        -9.349201318429309
      ],
      [
        "▁पदाधिकारी",
        -9.350951485593544
      ],
      [
        "▁दिनु",
        -9.3509646663892
      ],
      [
        "सँगको",
        -9.351070408568113
      ],
      [
        "▁स्थायी",
        -9.351444808846294
      ],
      [
        "▁कामदार",
        -9.35292330505681
      ],
      [
        "▁विमान",
        -9.352941414272488
      ],
      [
        "▁मध्ये",
        -9.353047949761114
      ],
      [
        "▁जोखिम",
        -9.353242315274972
      ],
      [
        "▁क्रम",
        -9.353379776198397
      ],
      [
        "मान",
        -9.353469335250264
      ],
      [
        "▁विश्वविद्यालय",
        -9.35418057093962
      ],
      [
        "पा",
        -9.354877224956445
      ],
      [
        "▁निर्माणको",
        -9.355290021296344
      ],
      [
        "ुपर्ने",
        -9.35601063202128
      ],
      [
        "▁निश्चित",
        -9.357122764573097
      ],
      [
        "▁आफु",
        -9.35834250382767
      ],
      [
        "▁नगरी",
        -9.358670321957796
      ],
      [
        "▁झापा",
        -9.359336489030056
      ],
      [
        "▁बढ्ने",
        -9.360617370241496
      ],
      [
        "▁हुन्छ,",
        -9.361615435510531
      ],
      [
        "▁समग्र",
        -9.361661823842814
      ],
      [
        "▁वार्ता",
        -9.361688748421043
      ],
      [
        "▁२०७३",
        -9.36229869219838
      ],
      [
        "▁केन्द्रित",
        -9.36312204369268
      ],
      [
        "▁पार्न",
        -9.364616764626126
      ],
      [
        "्नु",
        -9.364742622244544
      ],
      [
        "▁भक्तपुर",
        -9.36489780746071
      ],
      [
        "▁सडकमा",
        -9.365275412077995
      ],
      [
        "▁वर्षा",
        -9.366625732596365
      ],
      [
        "▁मोबाइल",
        -9.366894639902442
      ],
      [
        "▁कप",
        -9.367367499852062
      ],
      [
        "▁त्यसैगरी",
        -9.368667330290169
      ],
      [
        "▁कोरिया",
        -9.369008003337582
      ],
      [
        "▁नौ",
        -9.369673087205944
      ],
      [
        "▁नेताहरू",
        -9.369827024422706
      ],
      [
        "▁तामाङ",
        -9.369938883726176
      ],
      [
        "▁विधि",
        -9.370390813470742
      ],
      [
        "▁अपेक्षा",
        -9.370748233611025
      ],
      [
        "▁सहर",
        -9.370975228698397
      ],
      [
        "▁प्रतिबद्धता",
        -9.371610992124069
      ],
      [
        "▁आफै",
        -9.371769776166616
      ],
      [
        "▁मुलुकको",
        -9.37207918086957
      ],
      [
        "▁नेतृत्वमा",
        -9.373648354739128
      ],
      [
        "▁संगीत",
        -9.37394045492424
      ],
      [
        "▁ह",
        -9.374509422112244
      ],
      [
        "▁उहाँ",
        -9.375612664557908
      ],
      [
        "▁बढ्न",
        -9.37714568467092
      ],
      [
        "▁प्राकृतिक",
        -9.377576799136246
      ],
      [
        "▁वर्तमान",
        -9.37783341763598
      ],
      [
        "▁for",
        -9.3788894415586
      ],
      [
        "▁साह",
        -9.379402926686668
      ],
      [
        "▁मतदान",
        -9.3809909520007
      ],
      [
        "▁आजको",
        -9.381404378256056
      ],
      [
        "▁समाजमा",
        -9.381637451549336
      ],
      [
        "लि",
        -9.38233834112745
      ],
      [
        "▁बलात्कार",
        -9.382400434495851
      ],
      [
        "▁कार्की",
        -9.382993055077252
      ],
      [
        "▁गर्‍यो",
        -9.383792375342969
      ],
      [
        "▁मिनेट",
        -9.383896277365812
      ],
      [
        "▁बनाएका",
        -9.383933768411827
      ],
      [
        "▁गृह",
        -9.384258534582996
      ],
      [
        "▁लागत",
        -9.384850258879297
      ],
      [
        "▁नियन्त्रणमा",
        -9.3849256086577
      ],
      [
        "▁प्रचण्ड",
        -9.385835106204263
      ],
      [
        "्छ",
        -9.387203553549847
      ],
      [
        "▁महासंघ",
        -9.387286697135751
      ],
      [
        "▁ऊ",
        -9.388584650508053
      ],
      [
        "▁ऊर्जा",
        -9.389525200938836
      ],
      [
        "▁उपयुक्त",
        -9.389555471931123
      ],
      [
        "▁दिनुभयो",
        -9.389665164368315
      ],
      [
        "20",
        -9.391809835837847
      ],
      [
        "▁जिम्मा",
        -9.39189477907815
      ],
      [
        "▁बाढी",
        -9.394751195244387
      ],
      [
        "▁मापदण्ड",
        -9.395016003724315
      ],
      [
        "▁उदाहरण",
        -9.395187087066688
      ],
      [
        "▁ना",
        -9.395671076458036
      ],
      [
        "▁चिन्ता",
        -9.395998515157068
      ],
      [
        "▁सञ्चालक",
        -9.396268255940578
      ],
      [
        "▁आयो",
        -9.396286085213909
      ],
      [
        "▁स्वतन्त्र",
        -9.39698277701134
      ],
      [
        "▁दशक",
        -9.397215357929012
      ],
      [
        "▁गराएको",
        -9.399155055959966
      ],
      [
        "▁मुख",
        -9.400070212621198
      ],
      [
        "▁पहिलोपोस्ट",
        -9.400099894187049
      ],
      [
        "▁डाक्टर",
        -9.40066985451804
      ],
      [
        "▁त्यसले",
        -9.4010925138761
      ],
      [
        "▁सांस्कृतिक",
        -9.401483597441452
      ],
      [
        "▁आधा",
        -9.40177656527536
      ],
      [
        "▁भएपनि",
        -9.402459967357911
      ],
      [
        "▁सही",
        -9.40263274221921
      ],
      [
        "▁घरेलु",
        -9.403549831556951
      ],
      [
        "▁होस्",
        -9.40387609444725
      ],
      [
        "टा",
        -9.405246686059058
      ],
      [
        "▁रूप",
        -9.405981383699748
      ],
      [
        "▁फोरम",
        -9.407070110225265
      ],
      [
        "▁विरुद्ध",
        -9.407706335576014
      ],
      [
        "▁विनियोजन",
        -9.409084795663336
      ],
      [
        "सम्मको",
        -9.410819393748003
      ],
      [
        "▁अभिनय",
        -9.412548222811983
      ],
      [
        "▁मन्त्रालयका",
        -9.412857841603987
      ],
      [
        "▁श्रीमती",
        -9.412863240352172
      ],
      [
        "भर",
        -9.413569176103326
      ],
      [
        "▁अहिलेको",
        -9.415184955113292
      ],
      [
        "▁छानबिन",
        -9.415854369358794
      ],
      [
        "▁रासस",
        -9.416040792569028
      ],
      [
        "▁नारा",
        -9.41954337744112
      ],
      [
        "▁जेल",
        -9.420548864750351
      ],
      [
        "▁2018",
        -9.421039626950822
      ],
      [
        "▁न्यायाधीश",
        -9.422245856611063
      ],
      [
        "▁लिमिटेड",
        -9.422431243463512
      ],
      [
        "▁जापान",
        -9.422979219962864
      ],
      [
        "▁लेखक",
        -9.423093073961356
      ],
      [
        "ाउँदै",
        -9.423207459732067
      ],
      [
        "▁इन्टरनेट",
        -9.423305292409507
      ],
      [
        "▁गाविस",
        -9.423732694780124
      ],
      [
        "▁नगद",
        -9.42397988322918
      ],
      [
        "▁सबैलाई",
        -9.424254238661309
      ],
      [
        "▁?'",
        -9.424550865597084
      ],
      [
        "स्ट",
        -9.425122333533086
      ],
      [
        "▁मध्य",
        -9.425493706646137
      ],
      [
        "▁बनाए",
        -9.425592242620391
      ],
      [
        "▁ज",
        -9.425846084809733
      ],
      [
        "▁साथी",
        -9.427753294483518
      ],
      [
        "▁नाटक",
        -9.428982305366896
      ],
      [
        "▁तर्क",
        -9.429945597821234
      ],
      [
        "▁संघर्ष",
        -9.430804980804924
      ],
      [
        "▁कला",
        -9.430994939283272
      ],
      [
        "सा",
        -9.431255435300658
      ],
      [
        "▁अनेक",
        -9.431536934057574
      ],
      [
        "▁लेख",
        -9.432178356728716
      ],
      [
        "m",
        -9.43267252160781
      ],
      [
        "▁गतिविधि",
        -9.433711670199934
      ],
      [
        "▁बन्दै",
        -9.434194034938791
      ],
      [
        "▁जनकपुर",
        -9.434543205158723
      ],
      [
        "▁कर्जा",
        -9.43547983283644
      ],
      [
        "▁परे",
        -9.43661661061463
      ],
      [
        "▁रेल",
        -9.43669850002796
      ],
      [
        "म्",
        -9.43686686360678
      ],
      [
        "▁पुनर्निर्माण",
        -9.43796119529539
      ],
      [
        "▁सक्दैन",
        -9.438212000944027
      ],
      [
        "▁प्रतिनिधिसभा",
        -9.438249041741225
      ],
      [
        "C",
        -9.438470189151229
      ],
      [
        "▁महिनामा",
        -9.439132502719112
      ],
      [
        "▁अख्तियार",
        -9.440768752679348
      ],
      [
        "▁सन्दर्भमा",
        -9.441915735083429
      ],
      [
        "▁समर्थन",
        -9.44225575901043
      ],
      [
        "c",
        -9.442292509381444
      ],
      [
        "▁स्वागत",
        -9.443671106401618
      ],
      [
        "▁मे",
        -9.4441705200199
      ],
      [
        "▁आधारित",
        -9.444390504671055
      ],
      [
        "▁बसेका",
        -9.444440054553764
      ],
      [
        "▁सिद्धान्त",
        -9.444721815839326
      ],
      [
        "▁बच्चा",
        -9.445331631234868
      ],
      [
        "4.html\">",
        -9.446351262303455
      ],
      [
        "▁अवधिमा",
        -9.446594608981998
      ],
      [
        "▁२०७२",
        -9.44667101164428
      ],
      [
        "▁खोला",
        -9.446994747781464
      ],
      [
        "▁गति",
        -9.447133233285037
      ],
      [
        "▁डि",
        -9.448095113276462
      ],
      [
        "▁सरकारका",
        -9.448220511002594
      ],
      [
        "▁ढकाल",
        -9.448697197845409
      ],
      [
        "▁कडा",
        -9.449651085265735
      ],
      [
        "▁क्षेत्रीय",
        -9.449788599513177
      ],
      [
        "▁मोटरसाइकल",
        -9.449865802532145
      ],
      [
        "▁सजिलो",
        -9.450396575089428
      ],
      [
        "▁जोशी",
        -9.45082416036571
      ],
      [
        "▁गणतन्त्र",
        -9.451899269055044
      ],
      [
        "▁भारतले",
        -9.452132652474749
      ],
      [
        "▁सन्देश",
        -9.452869427842586
      ],
      [
        "ण्ड",
        -9.453465775798634
      ],
      [
        "▁वर्षीया",
        -9.453827196931638
      ],
      [
        "▁ऐतिहासिक",
        -9.453987153815085
      ],
      [
        "▁कम्युनिस्ट",
        -9.454776614243576
      ],
      [
        "n",
        -9.457037904424457
      ],
      [
        "▁अलि",
        -9.457486290158831
      ],
      [
        "▁छैन,",
        -9.45838143826608
      ],
      [
        "▁उपयोग",
        -9.458846221655769
      ],
      [
        "▁साढे",
        -9.459333627700817
      ],
      [
        "▁धन",
        -9.459444166466008
      ],
      [
        "▁प्रहरीको",
        -9.460652338815162
      ],
      [
        "from",
        -9.461154658906567
      ],
      [
        "▁पाकिस्तान",
        -9.461288932933297
      ],
      [
        "▁सक्छन्",
        -9.461503961617693
      ],
      [
        "▁गरिसकेको",
        -9.46288047918895
      ],
      [
        "▁हुन्थ्यो",
        -9.463338064948337
      ],
      [
        "▁हिजो",
        -9.464060679207332
      ],
      [
        "▁प्रवृत्ति",
        -9.466941604530774
      ],
      [
        "▁&#124;",
        -9.46722967840855
      ],
      [
        "नि",
        -9.467299608954622
      ],
      [
        "▁बिमा",
        -9.467564095972977
      ],
      [
        "▁हक",
        -9.467824428166129
      ],
      [
        "▁ललितपुर",
        -9.468156732703797
      ],
      [
        "▁लामा",
        -9.46932717711635
      ],
      [
        "▁कहिल्यै",
        -9.471069048243228
      ],
      [
        "्या",
        -9.471405913407668
      ],
      [
        "▁फेला",
        -9.471492305867034
      ],
      [
        "▁परम्परा",
        -9.471675928040913
      ],
      [
        "▁हस्तान्तरण",
        -9.472576659752947
      ],
      [
        "▁ला",
        -9.472826379535386
      ],
      [
        "▁भनेका",
        -9.473746368002107
      ],
      [
        "▁तलब",
        -9.474475091766944
      ],
      [
        "▁सके",
        -9.4744754258217
      ],
      [
        "ङ्ग",
        -9.47462806876099
      ],
      [
        "▁पछाडि",
        -9.474970448661873
      ],
      [
        "▁उचित",
        -9.475691149897804
      ],
      [
        "▁डर",
        -9.475738421336937
      ],
      [
        "▁व्यक्तिगत",
        -9.475769677860582
      ],
      [
        "▁सकेन",
        -9.476488389720473
      ],
      [
        "▁भुक्तानी",
        -9.47710208186478
      ],
      [
        "▁जल",
        -9.479416238269218
      ],
      [
        "▁उपस्थिति",
        -9.479648337749424
      ],
      [
        "▁बढे",
        -9.479706527258845
      ],
      [
        "नन्",
        -9.47996181751818
      ],
      [
        "▁रोक्न",
        -9.480059366703026
      ],
      [
        "▁सचिवालय",
        -9.480074770816836
      ],
      [
        "hamrokhelkud.com",
        -9.48205535426458
      ],
      [
        "g",
        -9.483073563391496
      ],
      [
        "▁पर्याप्त",
        -9.484331788654364
      ],
      [
        "▁पहुँच",
        -9.48445497432151
      ],
      [
        "▁भावना",
        -9.485337140163324
      ],
      [
        "▁बैंकको",
        -9.48613878706117
      ],
      [
        "▁थुप्रै",
        -9.48615634966822
      ],
      [
        "▁भट्टराई",
        -9.486637963666936
      ],
      [
        "▁मगर",
        -9.487884140397096
      ],
      [
        "▁उनीहरुको",
        -9.48789959261197
      ],
      [
        "÷",
        -9.488163528054542
      ],
      [
        "▁कार्यालयका",
        -9.488180928676524
      ],
      [
        "▁चौथो",
        -9.489489364575991
      ],
      [
        "▁कम्पनीको",
        -9.489499840602845
      ],
      [
        "▁शव",
        -9.489600443421786
      ],
      [
        "▁गोली",
        -9.490284051508556
      ],
      [
        "▁सशस्त्र",
        -9.49220108748919
      ],
      [
        "▁मल",
        -9.492447435789868
      ],
      [
        "▁पास",
        -9.494088152846633
      ],
      [
        "▁मधेस",
        -9.495077210928851
      ],
      [
        "मी",
        -9.49518777411562
      ],
      [
        "▁सहकार्य",
        -9.496052673093423
      ],
      [
        "▁मेयर",
        -9.496374292309312
      ],
      [
        "5",
        -9.49661533093811
      ],
      [
        "▁भारतमा",
        -9.496793410919068
      ],
      [
        "▁विजयी",
        -9.497010370346922
      ],
      [
        "▁आर्मी",
        -9.498408617572109
      ],
      [
        "▁काठमाडौं,",
        -9.498992336673648
      ],
      [
        "▁नगरपालिकाले",
        -9.499205986786135
      ],
      [
        "▁प्रेस",
        -9.49966266541584
      ],
      [
        "▁बाहेक",
        -9.500551653862988
      ],
      [
        "▁गरियो",
        -9.500799362205738
      ],
      [
        "▁दशमलव",
        -9.501883394430306
      ],
      [
        "▁लाग्यो",
        -9.502309377688022
      ],
      [
        "िय",
        -9.502735345540357
      ],
      [
        "▁त्यसो",
        -9.502976171599132
      ],
      [
        "▁मार्ग",
        -9.50466500635726
      ],
      [
        "9/",
        -9.50561421774688
      ],
      [
        "▁संसद",
        -9.505964448512223
      ],
      [
        "▁व्यवस्थित",
        -9.507381610433324
      ],
      [
        "▁सीमित",
        -9.507777732704856
      ],
      [
        "▁रे",
        -9.507914365498612
      ],
      [
        "ाएर",
        -9.50829901747391
      ],
      [
        "▁सञ्जाल",
        -9.509293197461222
      ],
      [
        "▁डिभिजन",
        -9.509502782069974
      ],
      [
        "▁४५",
        -9.509965330058249
      ],
      [
        "▁पाण्डे",
        -9.51009870714507
      ],
      [
        "▁नतिजा",
        -9.510485030220536
      ],
      [
        "▁३२",
        -9.510996710144353
      ],
      [
        "▁आएपछि",
        -9.511094546793007
      ],
      [
        "▁सत्य",
        -9.511600632054956
      ],
      [
        "▁राखेका",
        -9.512015122341207
      ],
      [
        "▁सबैले",
        -9.512386202591662
      ],
      [
        "le",
        -9.512468834609978
      ],
      [
        "जु",
        -9.512831472023205
      ],
      [
        "▁परिचालन",
        -9.513179629895175
      ],
      [
        "▁मु",
        -9.513729950114127
      ],
      [
        "▁अदालतले",
        -9.513825980999956
      ],
      [
        "झ",
        -9.513847717435464
      ],
      [
        "▁कमी",
        -9.514005410626718
      ],
      [
        "▁गर्नुभयो",
        -9.514085898992944
      ],
      [
        "▁कु",
        -9.514655417644407
      ],
      [
        "▁मोर्चा",
        -9.514726245979036
      ],
      [
        "वाद",
        -9.514923822777764
      ],
      [
        "▁पार",
        -9.515105638931244
      ],
      [
        "▁थाले",
        -9.51693876964006
      ],
      [
        "▁प्रदेशको",
        -9.519896449481232
      ],
      [
        "▁गुणस्तर",
        -9.520321306459447
      ],
      [
        "▁लोक",
        -9.520455888499754
      ],
      [
        "▁सजाय",
        -9.520621246629268
      ],
      [
        "▁खेल्न",
        -9.520891737712793
      ],
      [
        "▁जनशक्ति",
        -9.522588715086194
      ],
      [
        "▁अति",
        -9.52400383805866
      ],
      [
        "▁पुगेर",
        -9.52496041643785
      ],
      [
        "कम्तीमा",
        -9.52502977676692
      ],
      [
        "▁तथ्य",
        -9.525712159961422
      ],
      [
        "▁पि",
        -9.52596494694835
      ],
      [
        "p",
        -9.526970887241047
      ],
      [
        "▁आइ",
        -9.527281499058503
      ],
      [
        "▁रहे",
        -9.52811028672174
      ],
      [
        "▁चिया",
        -9.528507157734714
      ],
      [
        "▁साझा",
        -9.528545673133715
      ],
      [
        "▁नं.",
        -9.529216710561172
      ],
      [
        "▁चौधरी",
        -9.52956011758772
      ],
      [
        "▁खेल्ने",
        -9.53034986257948
      ],
      [
        "▁सम्मेलनमा",
        -9.531549447515934
      ],
      [
        "▁अभिभावक",
        -9.5323018761714
      ],
      [
        "▁बुटवल",
        -9.533024989411867
      ],
      [
        "▁प्रचार",
        -9.53326033370771
      ],
      [
        "▁ठेक्का",
        -9.53385708079444
      ],
      [
        "▁बुझ्न",
        -9.533875116227062
      ],
      [
        "▁कोइराला",
        -9.534376623307468
      ],
      [
        "▁फ",
        -9.534470264541962
      ],
      [
        "▁मिलेर",
        -9.534895839723436
      ],
      [
        "▁अनिवार्य",
        -9.535000672654784
      ],
      [
        "सिंह",
        -9.535344791372196
      ],
      [
        "▁पढ्न",
        -9.535966137513018
      ],
      [
        "▁कुराकानी",
        -9.53606232791953
      ],
      [
        "▁निर्यात",
        -9.536097095266904
      ],
      [
        "▁लक्ष्मी",
        -9.536385141780167
      ],
      [
        "एको",
        -9.53673381089887
      ],
      [
        "▁शिव",
        -9.536925510061398
      ],
      [
        "▁सुन्दर",
        -9.537101527142417
      ],
      [
        "▁थिएँ",
        -9.537380179270142
      ],
      [
        "▁उद्धार",
        -9.537683232714276
      ],
      [
        "▁राज्यको",
        -9.538914982295944
      ],
      [
        "▁पहिला",
        -9.53915894850915
      ],
      [
        "▁कानून",
        -9.539565438515323
      ],
      [
        "ुपर्छ",
        -9.539678668230382
      ],
      [
        "▁झन्डै",
        -9.53999769810052
      ],
      [
        "▁हस्ताक्षर",
        -9.540374112210069
      ],
      [
        "▁महिलाको",
        -9.540721208432766
      ],
      [
        "▁चलन",
        -9.541437056027338
      ],
      [
        "पी",
        -9.54169953819834
      ],
      [
        "▁तुलनामा",
        -9.542440591183276
      ],
      [
        "▁मधेसी",
        -9.542450217631478
      ],
      [
        "आ",
        -9.542674219978348
      ],
      [
        "▁नाका",
        -9.544077426420664
      ],
      [
        "▁पेश",
        -9.544119911568233
      ],
      [
        "▁प्रगति",
        -9.544315254594034
      ],
      [
        "▁फैसला",
        -9.54483045325228
      ],
      [
        "▁विभागले",
        -9.54628866703236
      ],
      [
        "▁यादवले",
        -9.546949074189396
      ],
      [
        "▁तहका",
        -9.548498349423484
      ],
      [
        " ",
        -9.548712282901636
      ],
      [
        "▁पा",
        -9.549406304785183
      ],
      [
        "9",
        -9.549641696593971
      ],
      [
        "▁हिंसा",
        -9.550279144165122
      ],
      [
        "▁जनाएका",
        -9.55254309319861
      ],
      [
        "▁महत्त्वपूर्ण",
        -9.552916278497936
      ],
      [
        "▁पर्यटकीय",
        -9.554195418392435
      ],
      [
        "▁सेवन",
        -9.554297453152037
      ],
      [
        "▁बनाइएको",
        -9.554392714193188
      ],
      [
        "▁नियुक्त",
        -9.554907343161176
      ],
      [
        "▁'हामी",
        -9.555250095372497
      ],
      [
        "▁विष्ट",
        -9.555532092383087
      ],
      [
        "िन्",
        -9.556403494110144
      ],
      [
        "▁नियुक्ति",
        -9.556734560858608
      ],
      [
        "▁माध्यमबाट",
        -9.557155507714922
      ],
      [
        "▁संघका",
        -9.558350456902486
      ],
      [
        "काे",
        -9.558777999815078
      ],
      [
        "जन",
        -9.561474479107437
      ],
      [
        "▁त्रिभुवन",
        -9.561863060184296
      ],
      [
        "▁तेल",
        -9.56235235698758
      ],
      [
        "▁लगातार",
        -9.562538159093853
      ],
      [
        "पन",
        -9.562661356750244
      ],
      [
        "▁बाध्यता",
        -9.563350743797724
      ],
      [
        "▁I",
        -9.564216927091216
      ],
      [
        "▁३३",
        -9.564254662017522
      ],
      [
        "▁कुरामा",
        -9.564558080618651
      ],
      [
        "▁दिल्ली",
        -9.566909283124271
      ],
      [
        "▁जनतालाई",
        -9.567002777892336
      ],
      [
        "▁ट्राफिक",
        -9.567840654583977
      ],
      [
        "▁साहित्य",
        -9.5678829519569
      ],
      [
        "▁सम्पर्क",
        -9.568077971755702
      ],
      [
        "▁समावेश",
        -9.568350960097415
      ],
      [
        "▁यसैगरी",
        -9.56864049022646
      ],
      [
        "बा",
        -9.568677991923876
      ],
      [
        "▁हिमाल",
        -9.56919811456668
      ],
      [
        "▁गो",
        -9.56991510528321
      ],
      [
        "▁छन् ।",
        -9.570899811534536
      ],
      [
        "▁उहाँको",
        -9.570973420069578
      ],
      [
        "▁पर्न",
        -9.57180956961047
      ],
      [
        "▁भर",
        -9.571834533993355
      ],
      [
        "▁प्रथम",
        -9.57217125211905
      ],
      [
        "▁प्रदेशमा",
        -9.572605958454073
      ],
      [
        "▁संवैधानिक",
        -9.573022991862072
      ],
      [
        "▁गाह्रो",
        -9.573366214505642
      ],
      [
        "▁'अ",
        -9.57353961841104
      ],
      [
        "▁दलको",
        -9.574212172503456
      ],
      [
        "▁औपचारिक",
        -9.574272280299008
      ],
      [
        "▁कम्युनिष्ट",
        -9.575375567825326
      ],
      [
        "▁मलेसिया",
        -9.575577880606444
      ],
      [
        "▁सर्वसाधारण",
        -9.576531002932455
      ],
      [
        "▁ढंगले",
        -9.57658122011144
      ],
      [
        "▁सुनाए",
        -9.576605643107252
      ],
      [
        "▁गायक",
        -9.576742948499508
      ],
      [
        "▁कुमार",
        -9.576783350584984
      ],
      [
        "▁९०",
        -9.577803681049588
      ],
      [
        "▁अनुरोध",
        -9.578282927153753
      ],
      [
        "िन्छ",
        -9.578784312278044
      ],
      [
        "▁चर्चित",
        -9.578789894170717
      ],
      [
        "▁शर्माले",
        -9.579190226162584
      ],
      [
        "▁खड्का",
        -9.579246452043822
      ],
      [
        "▁जनाए",
        -9.579385358989205
      ],
      [
        "▁पीडा",
        -9.579569040581443
      ],
      [
        "▁आधुनिक",
        -9.579617370236589
      ],
      [
        "▁मतदाता",
        -9.57990386547789
      ],
      [
        "▁हल",
        -9.580499349243096
      ],
      [
        "▁प्रतिष्ठान",
        -9.581351862246756
      ],
      [
        "▁मेगावाट",
        -9.581553098300132
      ],
      [
        "▁प्रवाह",
        -9.582735819018325
      ],
      [
        "▁सिट",
        -9.58295378723356
      ],
      [
        "▁हरि",
        -9.583933529022838
      ],
      [
        "▁लाइन",
        -9.584844118175328
      ],
      [
        "0000",
        -9.585150035256834
      ],
      [
        "▁जहाज",
        -9.585952533208824
      ],
      [
        "▁विजय",
        -9.586557821009222
      ],
      [
        "▁लाग्न",
        -9.589557419019958
      ],
      [
        "▁काँग्रेस",
        -9.589586067281909
      ],
      [
        "▁थोरै",
        -9.590260479012
      ],
      [
        "▁तोकिएको",
        -9.59038610060657
      ],
      [
        "▁देखिएका",
        -9.590501975736847
      ],
      [
        "▁सम",
        -9.590912432124366
      ],
      [
        "▁स्वतन्त्रता",
        -9.590954339287387
      ],
      [
        "▁कांग्रेसले",
        -9.591027007209052
      ],
      [
        "▁धारा",
        -9.59170602133464
      ],
      [
        "▁ठेकेदार",
        -9.592118690954726
      ],
      [
        "त्र",
        -9.592334905276084
      ],
      [
        "▁डे",
        -9.592387434365016
      ],
      [
        "▁आलोचना",
        -9.592891453568352
      ],
      [
        "▁थालेपछि",
        -9.593255371296411
      ],
      [
        "8",
        -9.593600874515468
      ],
      [
        "▁लाभ",
        -9.59401933960657
      ],
      [
        "▁महासचिव",
        -9.594235813982502
      ],
      [
        "▁सकिएको",
        -9.595394418325526
      ],
      [
        "▁सभामुख",
        -9.59542395914322
      ],
      [
        "▁दुःख",
        -9.596154218386948
      ],
      [
        "▁कप्तान",
        -9.596385627252564
      ],
      [
        "▁बम",
        -9.59685402172513
      ],
      [
        "y",
        -9.5977258553789
      ],
      [
        "▁गर्दछ",
        -9.598223483876016
      ],
      [
        "▁नजिकै",
        -9.599391274337137
      ],
      [
        "पि",
        -9.59976960771148
      ],
      [
        "▁अवार्ड",
        -9.599778868671825
      ],
      [
        "▁बासिन्दा",
        -9.59986449158622
      ],
      [
        "▁बंगलादेश",
        -9.59991488511442
      ],
      [
        "▁रुप",
        -9.601123645858948
      ],
      [
        "▁आफन्त",
        -9.601275863932036
      ],
      [
        "▁संविधानसभा",
        -9.601661795110582
      ],
      [
        "ौँ",
        -9.601873308392696
      ],
      [
        "▁सह",
        -9.601933560007742
      ],
      [
        "▁महा",
        -9.602090643589545
      ],
      [
        "▁काठमाडौंमा",
        -9.602639998438882
      ],
      [
        "▁ग्राहक",
        -9.603256026778489
      ],
      [
        "▁मिडिया",
        -9.603471013901068
      ],
      [
        "▁महानगर",
        -9.604111101456636
      ],
      [
        "ही",
        -9.604853956081165
      ],
      [
        "▁माध्यम",
        -9.605261104219084
      ],
      [
        "▁निरन्तरता",
        -9.605466908919157
      ],
      [
        "k",
        -9.605709529985818
      ],
      [
        "▁जसमा",
        -9.607034916135738
      ],
      [
        "▁कांग्रेसका",
        -9.607683837056785
      ],
      [
        "▁व्यक्तिको",
        -9.608400712270647
      ],
      [
        "▁यहाँका",
        -9.60942589092201
      ],
      [
        "▁जाति",
        -9.610029404581187
      ],
      [
        "),",
        -9.610391441033254
      ],
      [
        "▁किनभने",
        -9.61085145119742
      ],
      [
        "▁राजमार्ग",
        -9.610929024391275
      ],
      [
        "▁राजदूत",
        -9.61125887860822
      ],
      [
        "▁छिटो",
        -9.611415596746426
      ],
      [
        "प्र",
        -9.611876715013732
      ],
      [
        "▁कार्यक्रमको",
        -9.612483636085232
      ],
      [
        "▁प्रमाण",
        -9.612776876279938
      ],
      [
        "▁जनसंख्या",
        -9.613563511525273
      ],
      [
        "▁पढाइ",
        -9.613728103605306
      ],
      [
        "▁मैदानमा",
        -9.614278905608767
      ],
      [
        "▁सन्तान",
        -9.61476303704539
      ],
      [
        "▁निर्माणमा",
        -9.615787949195276
      ],
      [
        "▁दिउँसो",
        -9.616018291673791
      ],
      [
        "▁केसीले",
        -9.616272371194128
      ],
      [
        "▁दुबै",
        -9.61663492029669
      ],
      [
        "▁तिहार",
        -9.617073523399574
      ],
      [
        "+%E0%A4%AA%E0%A",
        -9.618619342436109
      ],
      [
        "▁बीचमा",
        -9.619389398572212
      ],
      [
        "▁सबैको",
        -9.6194783840362
      ],
      [
        "▁पेस",
        -9.61958324659822
      ],
      [
        "▁जसरी",
        -9.62000985161735
      ],
      [
        ";",
        -9.62085114719008
      ],
      [
        "दै",
        -9.620877065299002
      ],
      [
        "▁महसुस",
        -9.621465656130905
      ],
      [
        "▁रेडियो",
        -9.623854436970351
      ],
      [
        "▁विकासको",
        -9.624503067393832
      ],
      [
        "▁हुनेछ।",
        -9.625637518656228
      ],
      [
        "▁राज",
        -9.625689739470907
      ],
      [
        "▁केन्द्रमा",
        -9.626224128623544
      ],
      [
        "▁हार",
        -9.626347069413171
      ],
      [
        "▁सर",
        -9.626698751641328
      ],
      [
        "▁कार",
        -9.626830681767323
      ],
      [
        "▁प्रतियोगिताको",
        -9.627624478524034
      ],
      [
        "▁डेढ",
        -9.62786768715866
      ],
      [
        "्छन्",
        -9.629827891179096
      ],
      [
        "▁पाइएको",
        -9.63089948623398
      ],
      [
        "▁७५",
        -9.631223053548537
      ],
      [
        "▁हित",
        -9.633564665693283
      ],
      [
        "o",
        -9.635003964125511
      ],
      [
        "▁उप",
        -9.635335363444248
      ],
      [
        "▁मौका",
        -9.63634242752794
      ],
      [
        "▁नभएर",
        -9.63692043834898
      ],
      [
        "▁सैनिक",
        -9.63752776094107
      ],
      [
        "▁बने",
        -9.637756857225591
      ],
      [
        "▁स्वीकार",
        -9.638148154393418
      ],
      [
        "▁पन्त",
        -9.638424243034576
      ],
      [
        "▁पुगे",
        -9.638557248306746
      ],
      [
        "▁मोरङ",
        -9.638738144032784
      ],
      [
        "▁क्यान्सर",
        -9.638868264474745
      ],
      [
        "▁मेला",
        -9.6401022037987
      ],
      [
        "▁प्रकाशन",
        -9.640548719974973
      ],
      [
        "▁पत्ता",
        -9.64077393645404
      ],
      [
        "▁बहुमत",
        -9.641520738953387
      ],
      [
        "▁राणा",
        -9.643949106522728
      ],
      [
        "▁हालै",
        -9.64526536676812
      ],
      [
        "▁जनालाई",
        -9.646135826868717
      ],
      [
        "▁शीर्ष",
        -9.646272723102154
      ],
      [
        "▁युद्ध",
        -9.646883118863569
      ],
      [
        "▁उपस्थित",
        -9.6470427029331
      ],
      [
        "से",
        -9.647187354182975
      ],
      [
        "No",
        -9.64747475368444
      ],
      [
        "▁बे",
        -9.647544349832732
      ],
      [
        "hour",
        -9.64811498974566
      ],
      [
        "▁भण्डारी",
        -9.648203923145935
      ],
      [
        "ष",
        -9.64828283514582
      ],
      [
        "ाउ",
        -9.648406217742888
      ],
      [
        "▁रोक",
        -9.64863358056632
      ],
      [
        "▁परिषद्",
        -9.649676034191195
      ],
      [
        "▁देख्न",
        -9.649752037592682
      ],
      [
        "घ",
        -9.649785517346295
      ],
      [
        "▁कान्तिपुर",
        -9.64982508830652
      ],
      [
        "▁देखिने",
        -9.649875961676733
      ],
      [
        "▁पाइने",
        -9.650280851111452
      ],
      [
        "▁आउँछ",
        -9.653436832391993
      ],
      [
        "▁कार्यकर्ता",
        -9.653461766663602
      ],
      [
        "▁लिए",
        -9.65352740381852
      ],
      [
        "▁सी",
        -9.653940108628268
      ],
      [
        "▁आयोजनाको",
        -9.654283001424206
      ],
      [
        "▁भेला",
        -9.655208020613848
      ],
      [
        "▁फोहोर",
        -9.655370659211442
      ],
      [
        "▁बोकेर",
        -9.6567344432474
      ],
      [
        "▁संचालन",
        -9.65763561633175
      ],
      [
        "िँदै",
        -9.658318128189135
      ],
      [
        "▁पसल",
        -9.658891143456094
      ],
      [
        "▁मर्मत",
        -9.659377871295527
      ],
      [
        "गरी",
        -9.659677224393397
      ],
      [
        "▁महत्व",
        -9.659793222600836
      ],
      [
        "▁लगानीकर्ता",
        -9.660831736057707
      ],
      [
        "▁सकेका",
        -9.661590196776242
      ],
      [
        "▁टाढा",
        -9.661674651725908
      ],
      [
        "▁महाधिवेशन",
        -9.661750148579417
      ],
      [
        "▁दूध",
        -9.662932113916732
      ],
      [
        "चा",
        -9.665705153152702
      ],
      [
        "▁लुम्बिनी",
        -9.666081158356317
      ],
      [
        "▁चाहिँ",
        -9.666168463834271
      ],
      [
        "▁गुरुङले",
        -9.666629073447144
      ],
      [
        "▁फ्रान्स",
        -9.666779033837598
      ],
      [
        "▁चलाउन",
        -9.66705563686889
      ],
      [
        "7",
        -9.667171034860637
      ],
      [
        "▁निवेदन",
        -9.667579489030864
      ],
      [
        "▁मल्ल",
        -9.667867489518706
      ],
      [
        "िएका",
        -9.669703782773604
      ],
      [
        "▁एकीकृत",
        -9.66990668648117
      ],
      [
        "▁सहायक",
        -9.670905555924117
      ],
      [
        "▁वर्षसम्म",
        -9.67253199617263
      ],
      [
        "▁देखाएको",
        -9.672897706314348
      ],
      [
        "▁भण्डारीले",
        -9.673928257041377
      ],
      [
        "▁चुनावी",
        -9.6743263487693
      ],
      [
        "▁बालिका",
        -9.674869329027771
      ],
      [
        "▁कमल",
        -9.675896557116465
      ],
      [
        "▁गराए",
        -9.676133020039876
      ],
      [
        "▁कमिटी",
        -9.676874298685236
      ],
      [
        "ात्मक",
        -9.67697862903936
      ],
      [
        "िरहेको",
        -9.678229816025103
      ],
      [
        "▁चालु",
        -9.680288561928222
      ],
      [
        "▁आपूर्ति",
        -9.68036423628903
      ],
      [
        "▁फूल",
        -9.680420320647055
      ],
      [
        "युक्त",
        -9.68097470790508
      ],
      [
        "▁पुराना",
        -9.68274150186625
      ],
      [
        "▁संविधानको",
        -9.682891156657972
      ],
      [
        "▁खास",
        -9.683210822022994
      ],
      [
        "िलो",
        -9.683824288643551
      ],
      [
        "▁दुर्घटनामा",
        -9.68453237947688
      ],
      [
        "▁भोलि",
        -9.684799188184034
      ],
      [
        "▁शेर्पा",
        -9.684966920886884
      ],
      [
        "▁आधारभूत",
        -9.685945348839867
      ],
      [
        "▁'यो",
        -9.686135648760338
      ],
      [
        "▁जलविद्युत्",
        -9.686259256303572
      ],
      [
        "▁मामिला",
        -9.687029733217964
      ],
      [
        "▁सुर्खेत",
        -9.687157991139172
      ],
      [
        "▁सिजन",
        -9.687344002625814
      ],
      [
        "▁Nepali",
        -9.688318743970497
      ],
      [
        "▁बराबरको",
        -9.68832295926827
      ],
      [
        "/2018",
        -9.688542386402204
      ],
      [
        "▁झन्",
        -9.68929443129467
      ],
      [
        "▁मौसम",
        -9.68937579150068
      ],
      [
        "▁राज्यले",
        -9.690080719695487
      ],
      [
        "▁बोल",
        -9.690460579993596
      ],
      [
        "▁स्वार्थ",
        -9.691667691837248
      ],
      [
        "ीकरण",
        -9.691905168504713
      ],
      [
        "▁खतरा",
        -9.691969806108611
      ],
      [
        "▁झा",
        -9.693281001534444
      ],
      [
        "▁समितिमा",
        -9.69353982522441
      ],
      [
        "▁संसार",
        -9.693768257558002
      ],
      [
        "▁टु",
        -9.693783796191395
      ],
      [
        "▁नसक्दा",
        -9.695127177930116
      ],
      [
        "▁धनगढी",
        -9.695351651853228
      ],
      [
        "ुभयो",
        -9.69579084191456
      ],
      [
        "▁व्यापारी",
        -9.69649857614611
      ],
      [
        "▁लि",
        -9.6967213788773
      ],
      [
        "▁नगरपालिकाको",
        -9.697378819797208
      ],
      [
        "▁नेपाललाई",
        -9.69840281985754
      ],
      [
        "▁हैन",
        -9.69868920143084
      ],
      [
        "▁मानसिक",
        -9.700298337446696
      ],
      [
        "▁दुरुपयोग",
        -9.700466604011886
      ],
      [
        "मु",
        -9.700636282061645
      ],
      [
        "w",
        -9.701561869670032
      ],
      [
        "▁2017",
        -9.701707951868524
      ],
      [
        "▁संकेत",
        -9.7022487101334
      ],
      [
        "▁समयमै",
        -9.704092264164624
      ],
      [
        "▁दिनुपर्ने",
        -9.7041471115062
      ],
      [
        "▁खासै",
        -9.704464152171084
      ],
      [
        "मन्त्री",
        -9.70449300004822
      ],
      [
        "▁चाहना",
        -9.7051010431906
      ],
      [
        "▁बन",
        -9.705181674042704
      ],
      [
        "▁शेरबहादुर",
        -9.70582594479969
      ],
      [
        "▁बाबु",
        -9.705973766723334
      ],
      [
        "▁उपलब्धि",
        -9.706805977701142
      ],
      [
        "सि",
        -9.70749868800577
      ],
      [
        "▁भट्ट",
        -9.70866103703976
      ],
      [
        "▁सहयोगमा",
        -9.70944365551893
      ],
      [
        "पत्र",
        -9.709617483746984
      ],
      [
        "▁अदालतमा",
        -9.709658345293358
      ],
      [
        "▁गोरखा",
        -9.709839099652893
      ],
      [
        "!",
        -9.70995450558146
      ],
      [
        "▁विगतमा",
        -9.710080548017713
      ],
      [
        "01",
        -9.71144388677665
      ],
      [
        "▁निर्मला",
        -9.711511321084812
      ],
      [
        "▁filename=\"2018/",
        -9.711546208355468
      ],
      [
        "▁बराबरी",
        -9.711752894138195
      ],
      [
        "▁हुँ",
        -9.71226437668103
      ],
      [
        "▁प्रतिनिधित्व",
        -9.712420365558142
      ],
      [
        "▁ड",
        -9.71257379953262
      ],
      [
        "▁खर्ब",
        -9.712670423319008
      ],
      [
        "t",
        -9.713754297774672
      ],
      [
        "▁दर्शन",
        -9.713860791700062
      ],
      [
        "▁मैदान",
        -9.714397940538856
      ],
      [
        "▁भइरहेका",
        -9.714717456046364
      ],
      [
        "ाले",
        -9.715315557359505
      ],
      [
        "▁माटो",
        -9.715500418866224
      ],
      [
        "गा",
        -9.71639208428228
      ],
      [
        "▁बरु",
        -9.716631662154043
      ],
      [
        "▁महानगरपालिका",
        -9.717398248308204
      ],
      [
        "▁अनलाइन",
        -9.71781572379053
      ],
      [
        "कु",
        -9.717878189215504
      ],
      [
        "▁भनाई",
        -9.717878222111215
      ],
      [
        "▁दलहरू",
        -9.71903615361019
      ],
      [
        "▁चयन",
        -9.720548073505464
      ],
      [
        "▁दायित्व",
        -9.720558433920884
      ],
      [
        "मात्रै",
        -9.720826638147289
      ],
      [
        "▁नसके",
        -9.721520186237496
      ],
      [
        "ortal",
        -9.7218862429737
      ],
      [
        "▁पुलिस",
        -9.722053255645152
      ],
      [
        "▁फेसबुक",
        -9.722182770890347
      ],
      [
        "▁नामक",
        -9.72226132207508
      ],
      [
        "▁टिकट",
        -9.72239698689456
      ],
      [
        "▁मह",
        -9.723309243892546
      ],
      [
        "▁दर्जन",
        -9.723563026858924
      ],
      [
        "▁अर्थमन्त्री",
        -9.723698976794598
      ],
      [
        "▁राउत",
        -9.724334791776682
      ],
      [
        "▁विकासमा",
        -9.725829036329172
      ],
      [
        "▁खोजेको",
        -9.726933415390562
      ],
      [
        "ाउँदा",
        -9.72746551674882
      ],
      [
        "▁आय",
        -9.728057974925813
      ],
      [
        "अघि",
        -9.728108475594476
      ],
      [
        "▁जा",
        -9.728429642430294
      ],
      [
        "▁गु",
        -9.72922653661994
      ],
      [
        "▁अवधि",
        -9.72930167371972
      ],
      [
        "▁सधैं",
        -9.730156711720635
      ],
      [
        "ेश्वर",
        -9.730303544794497
      ],
      [
        "▁टिप्पणी",
        -9.730500213817695
      ],
      [
        "▁द्वन्द्व",
        -9.731703673329402
      ],
      [
        "▁राजपा",
        -9.732137835033331
      ],
      [
        "▁भत्ता",
        -9.733119300542894
      ],
      [
        "▁कालो",
        -9.733588227055948
      ],
      [
        "▁संस्थाले",
        -9.734093995937236
      ],
      [
        "1</",
        -9.734380418448966
      ],
      [
        "▁लगाए",
        -9.734420051888709
      ],
      [
        "हो",
        -9.734715871931526
      ],
      [
        "▁प्रशिक्षण",
        -9.734946991626858
      ],
      [
        "▁खाता",
        -9.735245825227045
      ],
      [
        "▁क्याम्पस",
        -9.736289696567283
      ],
      [
        "▁उनीहरूलाई",
        -9.737573724380658
      ],
      [
        "▁जोड्ने",
        -9.737596759859874
      ],
      [
        "▁कदम",
        -9.737621650001664
      ],
      [
        "सन",
        -9.737800450002284
      ],
      [
        "▁महाशाखा",
        -9.737811952313203
      ],
      [
        "रुपमा",
        -9.73873693366955
      ],
      [
        "▁पार्टीले",
        -9.739127192443169
      ],
      [
        "लार्इ",
        -9.740312777305224
      ],
      [
        "▁सीप",
        -9.740561613371348
      ],
      [
        "▁गराएका",
        -9.740768590109084
      ],
      [
        "▁संस्करण",
        -9.740870461109155
      ],
      [
        "▁नगरेको",
        -9.740892695009554
      ],
      [
        "वाट",
        -9.74092588069703
      ],
      [
        "▁प्रवद्र्धन",
        -9.741254125893631
      ],
      [
        "▁यु",
        -9.74225734380916
      ],
      [
        "▁महोत्सव",
        -9.742336959018774
      ],
      [
        "▁केन्द्रका",
        -9.743250001574491
      ],
      [
        "▁संग",
        -9.744212031308129
      ],
      [
        "▁हुनुहुन्छ",
        -9.744577956050149
      ],
      [
        "▁थिए,",
        -9.745079731428929
      ],
      [
        "▁तपाई",
        -9.74537259032226
      ],
      [
        "▁हु",
        -9.745874448234323
      ],
      [
        "▁विष्णु",
        -9.746009601208542
      ],
      [
        "▁अर्थतन्त्र",
        -9.746444998827574
      ],
      [
        "▁जानु",
        -9.74713245036928
      ],
      [
        "▁कञ्चनपुर",
        -9.747394363365837
      ],
      [
        "0.",
        -9.74889062012732
      ],
      [
        "▁अर्थात",
        -9.749750613607151
      ],
      [
        "▁जान्छ",
        -9.749865193493395
      ],
      [
        "▁संस्कार",
        -9.750636038250825
      ],
      [
        "▁उपचारका",
        -9.751919008582512
      ],
      [
        "▁रगत",
        -9.752423260978713
      ],
      [
        "दिन",
        -9.753537124483085
      ],
      [
        "▁देव",
        -9.753630151295106
      ],
      [
        "▁से",
        -9.754277640446965
      ],
      [
        "▁भन्नु",
        -9.754731548422612
      ],
      [
        "▁जाँच",
        -9.754823135921711
      ],
      [
        "▁एकजना",
        -9.754902407968055
      ],
      [
        "enerator",
        -9.756315536280368
      ],
      [
        "▁ग्रामीण",
        -9.75652603136428
      ],
      [
        "▁यसो",
        -9.756549087920714
      ],
      [
        "▁मेरा",
        -9.756772988684853
      ],
      [
        "कर्ता",
        -9.757647310784034
      ],
      [
        "▁एवम",
        -9.75828978304174
      ],
      [
        "i.</",
        -9.758732362947612
      ],
      [
        "▁औद्योगिक",
        -9.75946382973978
      ],
      [
        "▁पहाड",
        -9.759570888381344
      ],
      [
        "▁नाफा",
        -9.759722903099275
      ],
      [
        "▁आयोजनामा",
        -9.760501474684128
      ],
      [
        "▁गोविन्द",
        -9.76237567487517
      ],
      [
        "▁विश्लेषण",
        -9.762496567866233
      ],
      [
        "दी",
        -9.76330811024468
      ],
      [
        "▁गयो",
        -9.763365353162571
      ],
      [
        "यु",
        -9.7648408299788
      ],
      [
        "▁राजनीतिमा",
        -9.76501487995991
      ],
      [
        "▁लागे",
        -9.765366598511187
      ],
      [
        "▁बिदा",
        -9.765963757787931
      ],
      [
        "▁समयदेखि",
        -9.766400094637287
      ],
      [
        "▁जनप्रतिनिधि",
        -9.767098229631411
      ],
      [
        "▁सहयोगी",
        -9.767477822405418
      ],
      [
        "▁निधन",
        -9.76779297793082
      ],
      [
        "▁सचेत",
        -9.7677996699407
      ],
      [
        "▁C",
        -9.767906404980828
      ],
      [
        "▁फल",
        -9.768105411391694
      ],
      [
        "▁प्रसारण",
        -9.768492638508574
      ],
      [
        "कोट",
        -9.768590611174542
      ],
      [
        "▁जात",
        -9.768824732000322
      ],
      [
        "िंग",
        -9.768997429365566
      ],
      [
        "▁गर्छु",
        -9.769168520568089
      ],
      [
        "▁एन",
        -9.769344187097158
      ],
      [
        "▁चुनावमा",
        -9.769434514713788
      ],
      [
        "▁उपत्यका",
        -9.769566564681352
      ],
      [
        "▁पहाडी",
        -9.772325444733749
      ],
      [
        "▁पुस्ता",
        -9.772537251371777
      ],
      [
        "धि",
        -9.77312600925916
      ],
      [
        "▁कार्ड",
        -9.773221230351773
      ],
      [
        "▁सुरुवात",
        -9.774668923185557
      ],
      [
        "औं",
        -9.775567818292451
      ],
      [
        "▁नगरपालिकाका",
        -9.776322203638554
      ],
      [
        "गो",
        -9.776557676000325
      ],
      [
        "▁पदमा",
        -9.7770126531606
      ],
      [
        "▁जोडिएको",
        -9.77792156029832
      ],
      [
        "▁गाउँपालिकाको",
        -9.778436214519248
      ],
      [
        "▁गर्नेछ",
        -9.77925689330518
      ],
      [
        "▁विदेशमा",
        -9.77926237294584
      ],
      [
        "▁2016",
        -9.78004883246824
      ],
      [
        "साथ",
        -9.782137215729476
      ],
      [
        "▁यद्यपि",
        -9.782326941623804
      ],
      [
        "▁बमोजिम",
        -9.782354836460238
      ],
      [
        "▁जि",
        -9.782782887813315
      ],
      [
        "▁मावि",
        -9.78327251501474
      ],
      [
        "▁गैर",
        -9.78361304326908
      ],
      [
        "▁रिलिज",
        -9.784048889852611
      ],
      [
        "▁वर्षपछि",
        -9.784504999023408
      ],
      [
        "▁भट्टराईले",
        -9.784522512226877
      ],
      [
        "ेज",
        -9.78515965131936
      ],
      [
        "▁समायोजन",
        -9.78552058162307
      ],
      [
        "v",
        -9.786557456907282
      ],
      [
        "जन्य",
        -9.78691058082022
      ],
      [
        "share",
        -9.787190078571138
      ],
      [
        "ेका",
        -9.787571941501822
      ],
      [
        "▁बिजुली",
        -9.787667679532152
      ],
      [
        "▁वाम",
        -9.788077747018384
      ],
      [
        "▁उपन्यास",
        -9.788343553959091
      ],
      [
        "सो",
        -9.788412441173897
      ],
      [
        "▁बढ्दो",
        -9.788455504846915
      ],
      [
        "यता",
        -9.789651713571285
      ],
      [
        "▁जितेको",
        -9.789684031480675
      ],
      [
        "▁पठाएको",
        -9.790768931098851
      ],
      [
        "▁मिस",
        -9.79081961095893
      ],
      [
        "▁छुट्टै",
        -9.79139382220096
      ],
      [
        "▁सल्लाह",
        -9.791665823603552
      ],
      [
        "▁कार्यविधि",
        -9.791790169699778
      ],
      [
        "▁आई",
        -9.792118712222711
      ],
      [
        "▁संस्थान",
        -9.793034620665694
      ],
      [
        "▁खुशी",
        -9.79402214298974
      ],
      [
        "▁विभागका",
        -9.794353159028752
      ],
      [
        "▁पुष्पकमल",
        -9.794511429984146
      ],
      [
        "▁भाडा",
        -9.795336155514256
      ],
      [
        "▁महेन्द्र",
        -9.795393812710676
      ],
      [
        "▁झण्डै",
        -9.79545462992736
      ],
      [
        "▁भाइ",
        -9.796010383091083
      ],
      [
        "▁filename=\"201",
        -9.796227476980796
      ],
      [
        "▁प्राधिकरण",
        -9.797792605869606
      ],
      [
        "al",
        -9.79790917360527
      ],
      [
        "भा",
        -9.797974447635848
      ],
      [
        "▁फि",
        -9.79877850768892
      ],
      [
        "▁ठीक",
        -9.79897482123011
      ],
      [
        "▁अवरोध",
        -9.799050623467531
      ],
      [
        "▁अव",
        -9.799715732149568
      ],
      [
        "▁लक्षित",
        -9.800012347352492
      ],
      [
        "शा",
        -9.800324594040523
      ],
      [
        "▁हुनाले",
        -9.800627256073676
      ],
      [
        "▁संस्थागत",
        -9.80067669874583
      ],
      [
        "%E0%A5%8D%E0%A",
        -9.801911875660338
      ],
      [
        "त्",
        -9.802523071340428
      ],
      [
        "▁दृश्य",
        -9.802755128374042
      ],
      [
        "▁निष्कर्ष",
        -9.802978201362654
      ],
      [
        "▁ताल",
        -9.803091391422608
      ],
      [
        "▁हो,'",
        -9.804005281256488
      ],
      [
        "िरहेका",
        -9.804141141644086
      ],
      [
        "▁कठिन",
        -9.804289061889593
      ],
      [
        "▁लागिएको",
        -9.805042177070108
      ],
      [
        "▁सिटी",
        -9.80549088116418
      ],
      [
        "ाएको",
        -9.806673317598976
      ],
      [
        "▁गिरी",
        -9.807066177898548
      ],
      [
        "▁उपमहानगरपालिका",
        -9.8073277333907
      ],
      [
        "▁उठे",
        -9.808052580613582
      ],
      [
        "▁दरबार",
        -9.808641224790124
      ],
      [
        "▁निर्वाह",
        -9.808655905738425
      ],
      [
        "▁मासु",
        -9.808848584906332
      ],
      [
        "▁पठाउने",
        -9.808910606734838
      ],
      [
        "▁५५",
        -9.809010159258715
      ],
      [
        "▁दाहालले",
        -9.809030905033966
      ],
      [
        "▁उद्देश्यले",
        -9.80904771543281
      ],
      [
        "▁उनीहरुलाई",
        -9.80930949730445
      ],
      [
        "▁प्रमाणपत्र",
        -9.809982362386451
      ],
      [
        "▁पुष्टि",
        -9.810949304331215
      ],
      [
        "▁कार्यान्वयनमा",
        -9.811281014042525
      ],
      [
        "▁कृषक",
        -9.811564780551317
      ],
      [
        "▁अग्रता",
        -9.811583349826346
      ],
      [
        "▁कैलाली",
        -9.811652699812845
      ],
      [
        "▁गरिब",
        -9.812345455937145
      ],
      [
        "▁कपडा",
        -9.812946617566336
      ],
      [
        "▁सम्पदा",
        -9.813174336879383
      ],
      [
        "▁समाजवादी",
        -9.813396235285586
      ],
      [
        "िल",
        -9.813545520263606
      ],
      [
        "▁नेताहरु",
        -9.81421317728071
      ],
      [
        "▁बढाएको",
        -9.814488836496832
      ],
      [
        "▁देखिए",
        -9.814640490894844
      ],
      [
        "▁कारवाही",
        -9.815162713868062
      ],
      [
        "▁नदिने",
        -9.81539666963238
      ],
      [
        "▁क्रान्ति",
        -9.81552369566686
      ],
      [
        "▁शैली",
        -9.816231663877126
      ],
      [
        "▁आउँदा",
        -9.816509499439045
      ],
      [
        "▁जनाले",
        -9.817075402930907
      ],
      [
        "▁मौलिक",
        -9.818281764741348
      ],
      [
        "▁मो",
        -9.818672704553144
      ],
      [
        "▁प्रदेशका",
        -9.818784797227067
      ],
      [
        "▁मन्त्रालयको",
        -9.81890655340466
      ],
      [
        "▁मन्त्रिपरिषद्",
        -9.819235288030937
      ],
      [
        "▁खारेज",
        -9.82018223279642
      ],
      [
        "ed",
        -9.821023886039162
      ],
      [
        "▁कवि",
        -9.821693864186589
      ],
      [
        "▁चोरी",
        -9.822898682807892
      ],
      [
        "▁व्यक्तिले",
        -9.823825389906226
      ],
      [
        "▁दूतावास",
        -9.82394082924698
      ],
      [
        "ष्ट",
        -9.824333122250714
      ],
      [
        "▁भइ",
        -9.824653568508444
      ],
      [
        "am",
        -9.824790026611163
      ],
      [
        "▁तीव्र",
        -9.825817151640948
      ],
      [
        "▁भविष्य",
        -9.82595358020202
      ],
      [
        "अथवा",
        -9.825989630127731
      ],
      [
        "▁अल",
        -9.826075477053084
      ],
      [
        "▁माथिल्लो",
        -9.826478893026986
      ],
      [
        "▁उपाय",
        -9.826603019872126
      ],
      [
        "▁व्यस्त",
        -9.82665864648586
      ],
      [
        "▁आगो",
        -9.826888064749143
      ],
      [
        "▁कर्मचारीको",
        -9.828209071742885
      ],
      [
        "▁दि",
        -9.82893006279428
      ],
      [
        "▁पुँजी",
        -9.829365269347653
      ],
      [
        "▁रक्षा",
        -9.83016116357722
      ],
      [
        "▁उत्पन्न",
        -9.831195534956835
      ],
      [
        "▁लु",
        -9.831758970093816
      ],
      [
        "▁चन्द",
        -9.831877471062835
      ],
      [
        "ike",
        -9.83188588630532
      ],
      [
        "▁कल",
        -9.832815509236909
      ],
      [
        "▁बसोबास",
        -9.833573254186978
      ],
      [
        "▁कसैलाई",
        -9.8337208286708
      ],
      [
        "क्स",
        -9.833750046285902
      ],
      [
        "▁गृहमन्त्री",
        -9.83436481747338
      ],
      [
        "▁विधान",
        -9.83442343856571
      ],
      [
        "ठा",
        -9.834485829419966
      ],
      [
        "▁प्रजातन्त्र",
        -9.83455510140993
      ],
      [
        "▁चेतावनी",
        -9.834835923175604
      ],
      [
        "▁पाठक",
        -9.836303963050907
      ],
      [
        "▁लगे",
        -9.83671051508365
      ],
      [
        "▁भोट",
        -9.837193457538277
      ],
      [
        "▁लगाएका",
        -9.837339716825412
      ],
      [
        "</span><",
        -9.837444066835005
      ],
      [
        "▁दोषी",
        -9.83797276142955
      ],
      [
        "▁सूर्य",
        -9.838197994414278
      ],
      [
        "▁ठहर",
        -9.839624613528256
      ],
      [
        "▁M",
        -9.8396732223067
      ],
      [
        "▁गणेश",
        -9.83999849782034
      ],
      [
        "▁परम्परागत",
        -9.840032710762532
      ],
      [
        "▁खण्डमा",
        -9.84010645112622
      ],
      [
        "▁अभिव्यक्ति",
        -9.840232356613754
      ],
      [
        "▁२०१८",
        -9.840514722344478
      ],
      [
        "▁मि",
        -9.840903782901616
      ],
      [
        "▁घिमिरे",
        -9.841600483555158
      ],
      [
        "▁मुक्त",
        -9.841772944594696
      ],
      [
        "▁स्व",
        -9.84220609968256
      ],
      [
        "▁नरहेको",
        -9.84299872784721
      ],
      [
        "▁पर्वत",
        -9.84331973363888
      ],
      [
        "▁शाक्य",
        -9.8440901721265
      ],
      [
        "दार",
        -9.844165003312575
      ],
      [
        "▁बहादुर",
        -9.844951085548422
      ],
      [
        "▁भएकी",
        -9.845046570770847
      ],
      [
        "▁नारायण",
        -9.845288609064996
      ],
      [
        "▁ग्यास",
        -9.845894437270596
      ],
      [
        "▁भूमि",
        -9.846999874517886
      ],
      [
        "▁माछा",
        -9.84718448969935
      ],
      [
        "▁न्यौपाने",
        -9.847808499649089
      ],
      [
        "Dis",
        -9.847892082771445
      ],
      [
        "▁अन",
        -9.84789774869096
      ],
      [
        "+%E0%A4%B8%E0%A",
        -9.847900733573034
      ],
      [
        "▁सगरमाथा",
        -9.848065656904335
      ],
      [
        "▁त्यतिबेला",
        -9.848116048243698
      ],
      [
        "ेन्द्र",
        -9.848499090603616
      ],
      [
        "▁target=\"_blank\"",
        -9.848837495424515
      ],
      [
        "..",
        -9.848896555124917
      ],
      [
        "Share",
        -9.84912248184713
      ],
      [
        "title",
        -9.849200260545947
      ],
      [
        "▁व्यापक",
        -9.849408154621644
      ],
      [
        "▁पारेर",
        -9.850190880975108
      ],
      [
        "▁शहर",
        -9.850513436730674
      ],
      [
        "▁थालिएको",
        -9.85118840324336
      ],
      [
        "▁परि",
        -9.852987528346857
      ],
      [
        "▁अंग",
        -9.85304584949804
      ],
      [
        "10",
        -9.8532029715339
      ],
      [
        "▁समुदायको",
        -9.854159082824948
      ],
      [
        "▁खाद्य",
        -9.854240496853064
      ],
      [
        "▁पानीको",
        -9.854566046733831
      ],
      [
        "माया",
        -9.85654646021916
      ],
      [
        "▁आकर्षण",
        -9.856642813982951
      ],
      [
        "▁मोहन",
        -9.856918134526907
      ],
      [
        "▁स्टार",
        -9.857070594091445
      ],
      [
        "ृ",
        -9.857274495298196
      ],
      [
        "02",
        -9.857580862359626
      ],
      [
        "▁देउवाले",
        -9.857635320408225
      ],
      [
        "▁पशु",
        -9.857658165328214
      ],
      [
        "-up",
        -9.857837922646969
      ],
      [
        "▁href=\"http",
        -9.857864614438098
      ],
      [
        "▁रहन",
        -9.858089387798096
      ],
      [
        "D",
        -9.859109140435608
      ],
      [
        "वार",
        -9.859121360254896
      ],
      [
        "▁आयोगको",
        -9.859234795498503
      ],
      [
        "-down",
        -9.859440945240973
      ],
      [
        "▁महिलाले",
        -9.859991914489845
      ],
      [
        "▁आनन्द",
        -9.86096098139087
      ],
      [
        "ङ्",
        -9.861512596998455
      ],
      [
        "▁विस्तृत",
        -9.861513004854077
      ],
      [
        "▁ओभरमा",
        -9.861731229025816
      ],
      [
        "Perma",
        -9.861884148744258
      ],
      [
        "▁संकट",
        -9.862072391860154
      ],
      [
        "क्ष",
        -9.862433894193542
      ],
      [
        "▁उसलाई",
        -9.862514541680264
      ],
      [
        "▁'स",
        -9.86251939496155
      ],
      [
        "▁वडाध्यक्ष",
        -9.86256182277231
      ],
      [
        "rl=\"https://www.",
        -9.862749037090197
      ],
      [
        "://twitter.com/s",
        -9.862893414402432
      ],
      [
        "ink=\"false\">http",
        -9.862893447726762
      ],
      [
        "share-text=\"",
        -9.86289840814491
      ],
      [
        "▁रि",
        -9.86303775776786
      ],
      [
        "▁data-share-",
        -9.863149392021574
      ],
      [
        "▁विद्युत",
        -9.863184171959771
      ],
      [
        "share-",
        -9.86362658238643
      ],
      [
        "▁प्राधिकरणले",
        -9.864143045816265
      ],
      [
        "▁O",
        -9.864210276578392
      ],
      [
        "▁प्रारम्भिक",
        -9.864595329378975
      ],
      [
        "▁बाबुराम",
        -9.864743655636396
      ],
      [
        "▁रहेर",
        -9.865135654303517
      ],
      [
        "▁मासिक",
        -9.865421401169664
      ],
      [
        "▁तिर",
        -9.8655069672148
      ],
      [
        "▁नियमावली",
        -9.865740108377128
      ],
      [
        "▁किताब",
        -9.86599038518735
      ],
      [
        "▁इच्छा",
        -9.866756827154912
      ],
      [
        "▁चलाउने",
        -9.867286834715843
      ],
      [
        "▁किलो",
        -9.868115282553704
      ],
      [
        "▁रणनीति",
        -9.8691825901919
      ],
      [
        "<![CDATA[<p>",
        -9.86934181089141
      ],
      [
        "▁३६",
        -9.869543138731952
      ],
      [
        "▁व्यक्तिलाई",
        -9.870480424784084
      ],
      [
        "न्ड",
        -9.870924868770755
      ],
      [
        "▁गन्तव्य",
        -9.87113256281618
      ],
      [
        "▁संस्थाको",
        -9.87117407359892
      ],
      [
        "▁हातमा",
        -9.871278353227126
      ],
      [
        "2.html\">",
        -9.87181605424306
      ],
      [
        "▁नव",
        -9.872360852742965
      ],
      [
        "▁स्थल",
        -9.87307884251248
      ],
      [
        "▁देशभर",
        -9.873253370860018
      ],
      [
        "▁एकल",
        -9.873886214906287
      ],
      [
        "▁बिहे",
        -9.87404641191874
      ],
      [
        "▁परराष्ट्र",
        -9.874654025407844
      ],
      [
        "▁पात्र",
        -9.874954911730049
      ],
      [
        "▁किसिमको",
        -9.875142386467925
      ],
      [
        "▁चिकित्सा",
        -9.875335619459346
      ],
      [
        "▁खाली",
        -9.875938590087875
      ],
      [
        "st",
        -9.876004692480944
      ],
      [
        "▁दृष्टिकोण",
        -9.876849062789708
      ],
      [
        "▁लागेर",
        -9.876879619836952
      ],
      [
        "▁गाई",
        -9.877205354908362
      ],
      [
        "▁महिलालाई",
        -9.877443201415424
      ],
      [
        "▁जोडी",
        -9.877561295916127
      ],
      [
        "▁जडान",
        -9.877664244160242
      ],
      [
        "▁उठाए",
        -9.878061510584084
      ],
      [
        "▁फाइनल",
        -9.878165509983836
      ],
      [
        "▁चिसो",
        -9.878291440243617
      ],
      [
        "न्स",
        -9.87852313572106
      ],
      [
        "▁शुभकामना",
        -9.878616562085863
      ],
      [
        "▁कार्कीले",
        -9.878949619457876
      ],
      [
        "▁साधारण",
        -9.879374021193106
      ],
      [
        "an",
        -9.87988467724592
      ],
      [
        "▁मनाङ",
        -9.879901083384144
      ],
      [
        "▁स्थानीयले",
        -9.88027859024476
      ],
      [
        "▁अवधारणा",
        -9.880281731343748
      ],
      [
        "▁हवाई",
        -9.880781936017105
      ],
      [
        "▁हप्ता",
        -9.881231398055135
      ],
      [
        "▁असफल",
        -9.88181798168827
      ],
      [
        "▁क्षेत्रलाई",
        -9.881854450701717
      ],
      [
        "▁सर्वाधिक",
        -9.882016434804209
      ],
      [
        "खा",
        -9.882888267545024
      ],
      [
        "▁चलेको",
        -9.882995359806715
      ],
      [
        "▁काठ",
        -9.883598697338284
      ],
      [
        "▁बालक",
        -9.885179808661318
      ],
      [
        "▁विपक्षी",
        -9.886012742619007
      ],
      [
        "▁छौँ",
        -9.88624513931442
      ],
      [
        "्रा",
        -9.886453113464142
      ],
      [
        "▁स्तर",
        -9.887118079406823
      ],
      [
        "▁महिनाको",
        -9.888691076846982
      ],
      [
        "▁प्रकारको",
        -9.888810653584777
      ],
      [
        "▁बु",
        -9.88938530539864
      ],
      [
        "▁सञ्चालित",
        -9.889855570497144
      ],
      [
        "▁आकार",
        -9.890199862426586
      ],
      [
        "▁उपकरण",
        -9.89042811629208
      ],
      [
        "▁घटनामा",
        -9.890596823393537
      ],
      [
        "▁सेट",
        -9.89229623206942
      ],
      [
        "▁गाउँपालिकाले",
        -9.892740945614998
      ],
      [
        "▁सायद",
        -9.893458589285189
      ],
      [
        "ीले",
        -9.893459856701742
      ],
      [
        "▁रात",
        -9.893473011493082
      ],
      [
        "▁हतियार",
        -9.893905163969237
      ],
      [
        "▁कोठा",
        -9.894537507869172
      ],
      [
        "▁मोडल",
        -9.895074332326194
      ],
      [
        "कारी",
        -9.895310696446716
      ],
      [
        "▁खालको",
        -9.895450689665948
      ],
      [
        "▁सफा",
        -9.895540449131726
      ],
      [
        "▁रमेश",
        -9.896193067626616
      ],
      [
        "▁जग",
        -9.896707984705374
      ],
      [
        "खोला",
        -9.896754121564795
      ],
      [
        "▁रह्यो",
        -9.898005658309852
      ],
      [
        "वी",
        -9.898171740270534
      ],
      [
        "▁६५",
        -9.898736592577364
      ],
      [
        "▁पर्दा",
        -9.899028470031586
      ],
      [
        "▁भन्छन्",
        -9.899468110493222
      ],
      [
        "▁राजीनामा",
        -9.89952455540712
      ],
      [
        "▁गरिन्",
        -9.900628131049771
      ],
      [
        "नगर",
        -9.901023522321218
      ],
      [
        "▁यू",
        -9.901026931245688
      ],
      [
        "▁स्वर्ण",
        -9.902759471878094
      ],
      [
        "▁सिँचाइ",
        -9.903349908855391
      ],
      [
        "टो",
        -9.903723344401254
      ],
      [
        "▁भो",
        -9.903734003592271
      ],
      [
        "▁संसदमा",
        -9.903911964222283
      ],
      [
        "▁म्याद",
        -9.903927535201392
      ],
      [
        "था",
        -9.904472957455372
      ],
      [
        "▁पोखरी",
        -9.904843590191703
      ],
      [
        "▁घाटा",
        -9.905204614361589
      ],
      [
        "▁मानिसको",
        -9.906168028706777
      ],
      [
        "▁चन्द्र",
        -9.90634931063905
      ],
      [
        "▁कसैको",
        -9.906502672632094
      ],
      [
        "▁पोखरेलले",
        -9.906905217212282
      ],
      [
        "▁प्रतिशतले",
        -9.908774022933647
      ],
      [
        "▁इन्जिनियर",
        -9.908870096697164
      ],
      [
        "://www.online",
        -9.909341002730644
      ],
      [
        "▁निर्माता",
        -9.90946308416768
      ],
      [
        "▁पदक",
        -9.909864522781003
      ],
      [
        "▁गुरु",
        -9.910007809355369
      ],
      [
        "▁यथार्थ",
        -9.911012612942466
      ],
      [
        "▁वीरगन्ज",
        -9.911663413851342
      ],
      [
        "्यु",
        -9.912223638272692
      ],
      [
        "▁शारीरिक",
        -9.912339228994531
      ],
      [
        "▁एजेन्सी",
        -9.912839119793285
      ],
      [
        "▁​",
        -9.914226925129867
      ],
      [
        "▁रंग",
        -9.915180429451846
      ],
      [
        "▁अमेरिकाको",
        -9.915520384471147
      ],
      [
        "▁गाउँपालिकाका",
        -9.916066279297022
      ],
      [
        "▁भारतका",
        -9.916530686057545
      ],
      [
        "▁आवास",
        -9.91669173885778
      ],
      [
        "▁कर्मचारीले",
        -9.916790661828111
      ],
      [
        "▁अनुहार",
        -9.917147107488807
      ],
      [
        "▁उत्तिकै",
        -9.917532740799698
      ],
      [
        "▁जुम्ला",
        -9.91781758184745
      ],
      [
        "▁हङकङ",
        -9.91839674908666
      ],
      [
        "रण",
        -9.918512962587345
      ],
      [
        "▁पोखरेल",
        -9.918678079917273
      ],
      [
        "देवी",
        -9.919017862882102
      ],
      [
        "▁परिस्थिति",
        -9.919667146140956
      ],
      [
        "▁हेरेर",
        -9.920899192128816
      ],
      [
        "▁कार्यदल",
        -9.92236151564716
      ],
      [
        "▁<span",
        -9.92334261371937
      ],
      [
        "▁सालको",
        -9.923393838140916
      ],
      [
        "▁झ",
        -9.92343056435856
      ],
      [
        "▁जिम्मेवार",
        -9.923454102432274
      ],
      [
        "▁अवैध",
        -9.92421705213369
      ],
      [
        "▁मिल्ने",
        -9.924278476628686
      ],
      [
        "्ला",
        -9.924479909629524
      ],
      [
        "+%E0%A4%95%E0%A",
        -9.92462272889794
      ],
      [
        "▁भ्रमणमा",
        -9.92506390850192
      ],
      [
        "▁पत्रिका",
        -9.925571897174663
      ],
      [
        "▁स्वीकृत",
        -9.925924298270552
      ],
      [
        "▁समूहले",
        -9.92609884538961
      ],
      [
        "▁राप्रपा",
        -9.926379223729736
      ],
      [
        "▁मानिन्छ",
        -9.926460047539258
      ],
      [
        "▁बोल्दै",
        -9.926884856310965
      ],
      [
        "▁शिविर",
        -9.926946694819817
      ],
      [
        "▁जागिर",
        -9.927228526096204
      ],
      [
        "▁नगरे",
        -9.9272430645877
      ],
      [
        "िका",
        -9.92737397525432
      ],
      [
        "▁पढ",
        -9.927600826960669
      ],
      [
        "जनाइएको",
        -9.928423298027388
      ],
      [
        "▁कमजोरी",
        -9.92874839449348
      ],
      [
        "▁संघले",
        -9.929102354740854
      ],
      [
        "▁रातो",
        -9.929242635654182
      ],
      [
        "▁हिन्दु",
        -9.929985165995188
      ],
      [
        "▁May",
        -9.930219037819889
      ],
      [
        "▁हुँदैछ",
        -9.93028492554877
      ],
      [
        "▁पत्रकारिता",
        -9.930516538704271
      ],
      [
        "▁कार्यकाल",
        -9.930858593264904
      ],
      [
        "▁देवी",
        -9.930932536134623
      ],
      [
        "▁रियल",
        -9.931035284346578
      ],
      [
        "▁फिल्ममा",
        -9.931331911209185
      ],
      [
        "▁मुटु",
        -9.931359638228017
      ],
      [
        "पटक",
        -9.931589507531095
      ],
      [
        "▁रुकुम",
        -9.931887418056672
      ],
      [
        "▁चित्र",
        -9.93212114014596
      ],
      [
        "▁बढिरहेको",
        -9.932159405871346
      ],
      [
        "▁चरित्र",
        -9.932841321537053
      ],
      [
        "गु",
        -9.933754353299054
      ],
      [
        "बल",
        -9.934142702800392
      ],
      [
        "दर",
        -9.934249536380316
      ],
      [
        "डि",
        -9.934371417190944
      ],
      [
        "▁वैज्ञानिक",
        -9.935032022230784
      ],
      [
        "▁ढोका",
        -9.935116796549789
      ],
      [
        "▁आह्वान",
        -9.93567743943411
      ],
      [
        "जे",
        -9.935814104536869
      ],
      [
        "िस",
        -9.935895200588826
      ],
      [
        "▁गरिसकेका",
        -9.936533620958842
      ],
      [
        "▁जीवनमा",
        -9.93670499039026
      ],
      [
        "▁समृद्धिको",
        -9.93731500093906
      ],
      [
        "▁भनिन्छ",
        -9.937700759341348
      ],
      [
        "▁अस्थायी",
        -9.937882687008493
      ],
      [
        "▁परी",
        -9.938720243509213
      ],
      [
        "टि",
        -9.939068270898414
      ],
      [
        "▁मदिरा",
        -9.93918042885528
      ],
      [
        "▁हुनसक्छ",
        -9.940151572956076
      ],
      [
        "▁बीमा",
        -9.940375593803028
      ],
      [
        "▁मुद्दामा",
        -9.940445858105546
      ],
      [
        "▁सडकको",
        -9.940447746968497
      ],
      [
        "▁वर्षका",
        -9.940752409424531
      ],
      [
        "▁सरुवा",
        -9.941281012646598
      ],
      [
        "▁समृद्ध",
        -9.941879932354244
      ],
      [
        "03/",
        -9.942041728531294
      ],
      [
        "▁बेलामा",
        -9.94215084680685
      ],
      [
        "▁जनजाति",
        -9.942249276510587
      ],
      [
        "▁बुझ",
        -9.942338950268612
      ],
      [
        "▁दश",
        -9.942525323742291
      ],
      [
        "▁प्रचण्डले",
        -9.942636080873273
      ],
      [
        "▁तरिकाले",
        -9.94292051949075
      ],
      [
        "▁छोटो",
        -9.943792049681663
      ],
      [
        "▁टाउको",
        -9.94386900385421
      ],
      [
        "▁सुशासन",
        -9.94388730472244
      ],
      [
        "▁मात्रामा",
        -9.943887704965652
      ],
      [
        "▁विज्ञ",
        -9.944069053811116
      ],
      [
        "▁युवती",
        -9.94418719652239
      ],
      [
        "▁दलहरु",
        -9.9442212402259
      ],
      [
        "▁राख्दै",
        -9.945013952210005
      ],
      [
        "▁यसपटक",
        -9.945014812003889
      ],
      [
        "▁यसबारे",
        -9.94520990586451
      ],
      [
        "▁श्रमिक",
        -9.9454220687296
      ],
      [
        "▁देखेर",
        -9.945731172925484
      ],
      [
        "▁कसले",
        -9.94631656778894
      ],
      [
        "टार",
        -9.946410292384169
      ],
      [
        "▁बाटोमा",
        -9.947392782695928
      ],
      [
        "27",
        -9.947966982085587
      ],
      [
        "▁चौकी",
        -9.94809884927018
      ],
      [
        "▁बचत",
        -9.948328303617105
      ],
      [
        "7.html\">",
        -9.948414414958847
      ],
      [
        "म्प",
        -9.9485166647418
      ],
      [
        "▁श्रेष्ठ,",
        -9.948628070472797
      ],
      [
        "▁नरेन्द्र",
        -9.949364777105108
      ],
      [
        "9.html\">",
        -9.949735609023875
      ],
      [
        "▁संयन्त्र",
        -9.95001206669623
      ],
      [
        "देव",
        -9.951195966485727
      ],
      [
        "▁निकुञ्ज",
        -9.951644125978984
      ],
      [
        "नारायण",
        -9.951730793270425
      ],
      [
        "▁साउदी",
        -9.952087355482332
      ],
      [
        "▁नपाउने",
        -9.9526299319087
      ],
      [
        "▁दफा",
        -9.953120764770553
      ],
      [
        "in",
        -9.953121028563755
      ],
      [
        "▁पेट",
        -9.9540617301737
      ],
      [
        "▁विकसित",
        -9.95435098458091
      ],
      [
        "िएर",
        -9.954361802826352
      ],
      [
        "▁राजेन्द्र",
        -9.954533640281795
      ],
      [
        "05/",
        -9.955711777610516
      ],
      [
        "▁उपरीक्षक",
        -9.956713391297006
      ],
      [
        "▁साझेदारी",
        -9.957189169465806
      ],
      [
        "▁मद्दत",
        -9.957427689450055
      ],
      [
        "▁hou",
        -9.95764374151838
      ],
      [
        "▁प्रतिबन्ध",
        -9.957831633488391
      ],
      [
        "▁दावी",
        -9.958467234319336
      ],
      [
        "▁पराजुली",
        -9.958541482533674
      ],
      [
        "▁केवल",
        -9.958763058214688
      ],
      [
        "्ड",
        -9.95933528091344
      ],
      [
        "▁सहायता",
        -9.959576221193108
      ],
      [
        "3.html\">",
        -9.959700408385595
      ],
      [
        "▁प्रधानन्यायाधीश",
        -9.960014891397028
      ],
      [
        "▁गरिनेछ",
        -9.960098266513995
      ],
      [
        "▁मस्यौदा",
        -9.960227814221836
      ],
      [
        "▁टोल",
        -9.960390362861578
      ],
      [
        "▁विभेद",
        -9.960719949800108
      ],
      [
        "▁अतिरिक्त",
        -9.961105734686294
      ],
      [
        "▁देखाउन",
        -9.961523057242314
      ],
      [
        "▁गतेदेखि",
        -9.961714428364788
      ],
      [
        "rly",
        -9.962035267269094
      ],
      [
        "▁गल्ती",
        -9.96205061265064
      ],
      [
        "चाहिँ",
        -9.962080035991631
      ],
      [
        "▁भाषामा",
        -9.962544820640314
      ],
      [
        "▁नोट",
        -9.96261383378681
      ],
      [
        "▁डिजाइन",
        -9.963840192522984
      ],
      [
        "▁रेग्मी",
        -9.96395402119898
      ],
      [
        "▁जरिवाना",
        -9.964437585223951
      ],
      [
        "पानी",
        -9.964491613712262
      ],
      [
        "हि",
        -9.965083203239812
      ],
      [
        "▁स्वदेश",
        -9.96509224987657
      ],
      [
        "▁'यस",
        -9.96521513423348
      ],
      [
        "▁हटाउन",
        -9.96548895823323
      ],
      [
        "▁देखियो",
        -9.965717978968186
      ],
      [
        "▁धनी",
        -9.965951032525949
      ],
      [
        "▁बनाउनु",
        -9.96617216428529
      ],
      [
        "▁मिल",
        -9.966385201872042
      ],
      [
        "▁ज्ञानेन्द्र",
        -9.967123578664918
      ],
      [
        "re",
        -9.967380624186932
      ],
      [
        "▁अत्यन्त",
        -9.967732775405796
      ],
      [
        "▁चल्ने",
        -9.968324872957549
      ],
      [
        "▁इलाम",
        -9.968592941974514
      ],
      [
        "▁रिपोर्ट",
        -9.968682070524313
      ],
      [
        "▁भइसकेका",
        -9.969819658695515
      ],
      [
        "▁खण्ड",
        -9.969997807014336
      ],
      [
        "▁पूर्वी",
        -9.9702729208559
      ],
      [
        "▁ल्याएर",
        -9.970397741623405
      ],
      [
        "▁संख्यामा",
        -9.970607170045923
      ],
      [
        "▁चामल",
        -9.971002334389894
      ],
      [
        "37",
        -9.971944432381722
      ],
      [
        "▁ma",
        -9.972575870396346
      ],
      [
        "ीक",
        -9.973140779984314
      ],
      [
        "▁समाजको",
        -9.97328856727403
      ],
      [
        "▁मान",
        -9.974479625972007
      ],
      [
        "▁कार्यालयको",
        -9.975713136225766
      ],
      [
        "▁भागमा",
        -9.976202012604196
      ],
      [
        "▁प्रक्रियामा",
        -9.976246065131326
      ],
      [
        "▁पहिलोपटक",
        -9.976952350323154
      ],
      [
        "▁सरकारमा",
        -9.97695567547376
      ],
      [
        "त्व",
        -9.977276059114962
      ],
      [
        "▁आउनु",
        -9.977540461337576
      ],
      [
        "▁न्यून",
        -9.97780580161784
      ],
      [
        "▁तनाव",
        -9.977989211613783
      ],
      [
        "▁कांग्रेसको",
        -9.978177974107044
      ],
      [
        "▁वर्षभित्र",
        -9.978664037188132
      ],
      [
        "▁अमेरिकामा",
        -9.978829953657236
      ],
      [
        "▁सेन्टर",
        -9.978924286111532
      ],
      [
        "▁युनियन",
        -9.979337234256125
      ],
      [
        "▁रमाइलो",
        -9.97964890859278
      ],
      [
        "▁देवकोटा",
        -9.979826472563737
      ],
      [
        "ाउनु",
        -9.980458551776872
      ],
      [
        "▁एसियाली",
        -9.981316670285786
      ],
      [
        "▁चिनी",
        -9.981902404469436
      ],
      [
        "▁तयारीमा",
        -9.981955146395084
      ],
      [
        "▁जिते",
        -9.982187116305749
      ],
      [
        "ेट",
        -9.982301685374974
      ],
      [
        "▁हौं",
        -9.982385381583224
      ],
      [
        "▁एस",
        -9.98255643262764
      ],
      [
        "▁सब",
        -9.98262625370456
      ],
      [
        "सु",
        -9.982706381581824
      ],
      [
        "लगभग",
        -9.982832401598085
      ],
      [
        "भित्रै",
        -9.982998777422576
      ],
      [
        "एन",
        -9.983031529530614
      ],
      [
        "▁धरान",
        -9.9837641106709
      ],
      [
        "▁निःशुल्क",
        -9.983810351901225
      ],
      [
        "▁खनाल",
        -9.98402904872153
      ],
      [
        "▁रेकर्ड",
        -9.984277496527412
      ],
      [
        "▁दौड",
        -9.98466044412797
      ],
      [
        "▁आवेदन",
        -9.984736865204152
      ],
      [
        "▁सामना",
        -9.985597901404462
      ],
      [
        "▁उस्तै",
        -9.986045499326591
      ],
      [
        "्थे",
        -9.98687313466119
      ],
      [
        "▁जातीय",
        -9.98714622349394
      ],
      [
        "▁सन्दीप",
        -9.987339207901964
      ],
      [
        "▁देखिन्छ।",
        -9.98735800995397
      ],
      [
        "वाला",
        -9.987526419579083
      ],
      [
        "▁टेलिकम",
        -9.98757424986357
      ],
      [
        "▁कर्मचारीलाई",
        -9.988145820738438
      ],
      [
        "▁३४",
        -9.988239953982626
      ],
      [
        "▁एकीकरण",
        -9.988603726791002
      ],
      [
        "▁हेर",
        -9.988734762847072
      ],
      [
        "▁परिवारका",
        -9.988929852205004
      ],
      [
        "▁शक्तिशाली",
        -9.988995204654636
      ],
      [
        "▁बोल्न",
        -9.98995378764
      ],
      [
        "▁फर्किए",
        -9.990115689016813
      ],
      [
        "▁प्रकारका",
        -9.990770627139645
      ],
      [
        "▁अवरुद्ध",
        -9.991089633253068
      ],
      [
        "▁खोज",
        -9.991646051177591
      ],
      [
        "▁सस्तो",
        -9.99199685625173
      ],
      [
        "▁गुगल",
        -9.992101561885864
      ],
      [
        "2019",
        -9.992794411099725
      ],
      [
        "▁दिनसम्म",
        -9.99369892309317
      ],
      [
        "▁भन्नुभयो",
        -9.993841797299558
      ],
      [
        "चार",
        -9.994424433366186
      ],
      [
        "▁अधिवेशन",
        -9.994461355374344
      ],
      [
        "▁सदस्यीय",
        -9.994525919705817
      ],
      [
        "ra",
        -9.9946264760848
      ],
      [
        "▁अवलोकन",
        -9.994848660273684
      ],
      [
        "ताका",
        -9.995035507208312
      ],
      [
        "ुहुन्छ",
        -9.99551044781993
      ],
      [
        "▁हाफ",
        -9.995685097639171
      ],
      [
        "▁संघको",
        -9.99573828013801
      ],
      [
        "▁लेखिएको",
        -9.996072714401066
      ],
      [
        "▁सूचीमा",
        -9.996119552434012
      ],
      [
        "▁वास्तविक",
        -9.99672557776772
      ],
      [
        "8.html\">",
        -9.997279365927522
      ],
      [
        "▁आन्दोलनमा",
        -9.997355940049856
      ],
      [
        "▁एन्ड",
        -9.997571527576063
      ],
      [
        "▁लैजाने",
        -9.998060227064348
      ],
      [
        "▁भएमा",
        -9.998298017609072
      ],
      [
        "▁गतेसम्म",
        -9.99889359064517
      ],
      [
        "6.html\">",
        -9.999251216076976
      ],
      [
        "कुमारी",
        -9.99941793225834
      ],
      [
        "▁चाहे",
        -9.99967822633294
      ],
      [
        "▁हर",
        -9.99993947218972
      ],
      [
        "▁खत्री",
        -9.999962223769456
      ],
      [
        "▁२०१७",
        -9.999982491368645
      ],
      [
        "ी,",
        -10.000068063170517
      ],
      [
        "▁भयो,",
        -10.000124311935794
      ],
      [
        "▁टुंगो",
        -10.000412655131274
      ],
      [
        "▁भनिन्",
        -10.0010693283173
      ],
      [
        "▁रोपनी",
        -10.00144231198445
      ],
      [
        "▁बस्दै",
        -10.0023925041808
      ],
      [
        "▁मानिसहरू",
        -10.002750015032188
      ],
      [
        "▁घटेको",
        -10.003150026313902
      ],
      [
        "▁दसैं",
        -10.003341176648217
      ],
      [
        "▁उम्मेदवारी",
        -10.004447031223812
      ],
      [
        "%E0%A4%95%E0%A",
        -10.004708721247647
      ],
      [
        "स्थल",
        -10.005228496106676
      ],
      [
        "▁प्रधानमन्त्रीले",
        -10.006038595346224
      ],
      [
        "19",
        -10.00724867670374
      ],
      [
        "▁गरिबी",
        -10.007632154040122
      ],
      [
        "▁४२",
        -10.007933179628166
      ],
      [
        "▁दिनको",
        -10.00824908521354
      ],
      [
        "14",
        -10.010051844791064
      ],
      [
        "▁टेलिभिजन",
        -10.01006699222785
      ],
      [
        "ेश",
        -10.01020813935832
      ],
      [
        "बार",
        -10.010694547895485
      ],
      [
        "▁मधेश",
        -10.010808615485429
      ],
      [
        "▁प्रस्ट",
        -10.011616142625382
      ],
      [
        "▁पुन:",
        -10.01166591140449
      ],
      [
        "▁विक",
        -10.012045180257772
      ],
      [
        "▁रहेकाले",
        -10.01215068981572
      ],
      [
        "▁विशेषज्ञ",
        -10.0122054015546
      ],
      [
        "▁दीपक",
        -10.012934974806791
      ],
      [
        "▁कतार",
        -10.013026978752237
      ],
      [
        "▁अगाडी",
        -10.01306710756739
      ],
      [
        "▁तल्लो",
        -10.013268865372858
      ],
      [
        "▁खोज्ने",
        -10.013872800325704
      ],
      [
        "▁यहाँको",
        -10.014689745435671
      ],
      [
        "भरि",
        -10.014802225688276
      ],
      [
        "▁सरोकारवाला",
        -10.014926901144475
      ],
      [
        "▁पर्दैन",
        -10.015065080101673
      ],
      [
        "▁ल्याइएको",
        -10.01521448750782
      ],
      [
        "द्ध",
        -10.016112250549249
      ],
      [
        "▁मञ्च",
        -10.016588986490431
      ],
      [
        "छु",
        -10.016620546561946
      ],
      [
        "▁न्यूनतम",
        -10.01676659059661
      ],
      [
        "▁प्राथमिकतामा",
        -10.0175810545909
      ],
      [
        "मणि",
        -10.017862693726856
      ],
      [
        "▁भरतपुर",
        -10.01798994828246
      ],
      [
        "▁नाकाबन्दी",
        -10.018799853311306
      ],
      [
        "▁छाडेर",
        -10.019610067942494
      ],
      [
        "▁बागलुङ",
        -10.019712642180725
      ],
      [
        "▁मजदुर",
        -10.020186239147122
      ],
      [
        "▁पर्सा",
        -10.02034137806962
      ],
      [
        "भी",
        -10.020545633136049
      ],
      [
        "▁शिक्षण",
        -10.02248093340682
      ],
      [
        "िनु",
        -10.022487874684916
      ],
      [
        "▁दिशा",
        -10.0228513670928
      ],
      [
        "▁अलग",
        -10.023999538316344
      ],
      [
        "▁पुग्यो",
        -10.024289121039
      ],
      [
        "▁समानुपातिक",
        -10.024531065583307
      ],
      [
        "▁३७",
        -10.025020226859256
      ],
      [
        "कर्मी",
        -10.025403872552312
      ],
      [
        "▁३८",
        -10.026632576253323
      ],
      [
        "▁क्या",
        -10.026756738225927
      ],
      [
        "क्क",
        -10.026808224486611
      ],
      [
        "▁मानिसहरु",
        -10.026926351301071
      ],
      [
        "▁दिगो",
        -10.027270487756498
      ],
      [
        "▁थान",
        -10.027895503064114
      ],
      [
        "▁परिवारको",
        -10.02799953994056
      ],
      [
        "गर",
        -10.028041550143758
      ],
      [
        "▁गौरव",
        -10.028101961600562
      ],
      [
        "▁दूरी",
        -10.02811454372834
      ],
      [
        "▁हो ।",
        -10.02826167546344
      ],
      [
        "▁खडा",
        -10.02878725914352
      ],
      [
        "▁सार",
        -10.02900001010999
      ],
      [
        "▁बैशाख",
        -10.02955187037104
      ],
      [
        "▁जर्मनी",
        -10.029713781460176
      ],
      [
        "▁लेखा",
        -10.030047572530554
      ],
      [
        "▁नागरिकको",
        -10.031655092579848
      ],
      [
        "▁पक्षले",
        -10.032783852032004
      ],
      [
        "▁अत्यधिक",
        -10.033775984721702
      ],
      [
        "▁बिभिन्न",
        -10.033793947015614
      ],
      [
        "▁बो",
        -10.034510918974682
      ],
      [
        "er",
        -10.035035777138896
      ],
      [
        "मुखी",
        -10.035218364587507
      ],
      [
        "पूर्वक",
        -10.035437672434526
      ],
      [
        "▁नमुना",
        -10.035582184843156
      ],
      [
        "ताको",
        -10.03564442198641
      ],
      [
        "▁इन्धन",
        -10.035646374241256
      ],
      [
        "▁पढ्ने",
        -10.036160496123912
      ],
      [
        "▁मदन",
        -10.036876121291955
      ],
      [
        "मन",
        -10.037166881270496
      ],
      [
        "न्छ",
        -10.037242139145562
      ],
      [
        "जि",
        -10.037503681726408
      ],
      [
        "▁नकारात्मक",
        -10.03755296362614
      ],
      [
        "▁कैद",
        -10.03765536759667
      ],
      [
        "ti",
        -10.038281287148662
      ],
      [
        "▁तपाईंको",
        -10.038340846480244
      ],
      [
        "▁गोपाल",
        -10.03853073510568
      ],
      [
        "▁कार्यमा",
        -10.03880109856425
      ],
      [
        "▁प्रिमियर",
        -10.039188387262826
      ],
      [
        "▁बसे",
        -10.040051881896256
      ],
      [
        "▁मेसिन",
        -10.040436733253705
      ],
      [
        "▁चौधरीले",
        -10.040594678345862
      ],
      [
        "▁विज्ञापन",
        -10.041258053533667
      ],
      [
        "▁महर्जन",
        -10.042445402963793
      ],
      [
        "▁कित्ता",
        -10.042509199665338
      ],
      [
        "▁चालू",
        -10.042723095281808
      ],
      [
        "▁बनाई",
        -10.042881878042133
      ],
      [
        "▁मूल्यांकन",
        -10.042962028480456
      ],
      [
        "▁युरोप",
        -10.043010300909089
      ],
      [
        "▁आकर्षित",
        -10.04359136414983
      ],
      [
        "▁टि",
        -10.043708517129597
      ],
      [
        "१",
        -10.043904405453446
      ],
      [
        "▁पद्धति",
        -10.044094554252885
      ],
      [
        "िम",
        -10.044545856447046
      ],
      [
        "▁सरकारसँग",
        -10.044885228864304
      ],
      [
        "िए",
        -10.044958671868724
      ],
      [
        "धन",
        -10.045340132238834
      ],
      [
        "▁गुणस्तरीय",
        -10.04567597071193
      ],
      [
        "▁राखे",
        -10.045733095183053
      ],
      [
        "▁व्यक्तिहरु",
        -10.046242399438707
      ],
      [
        "▁उता",
        -10.0467215777541
      ],
      [
        "02/",
        -10.047210705018554
      ],
      [
        "▁कार्तिक",
        -10.047323663147615
      ],
      [
        "▁टीका",
        -10.047807856045342
      ],
      [
        "▁घरको",
        -10.047993596256168
      ],
      [
        "%",
        -10.048428262338108
      ],
      [
        "▁हस्तक्षेप",
        -10.048794565229764
      ],
      [
        "▁सक्षम",
        -10.04904132775169
      ],
      [
        "▁फाइनलमा",
        -10.04911529575542
      ],
      [
        "▁पर्दछ",
        -10.049550874670071
      ],
      [
        "▁शाही",
        -10.049580910412269
      ],
      [
        "क्",
        -10.049898045998953
      ],
      [
        "▁ठुलो",
        -10.050058291583625
      ],
      [
        "▁आरोपमा",
        -10.05077631589116
      ],
      [
        "▁मकवानपुर",
        -10.050989694476282
      ],
      [
        "▁लेखन",
        -10.051111519758914
      ],
      [
        "▁बढ",
        -10.051298556347868
      ],
      [
        "▁खेत",
        -10.051347728154234
      ],
      [
        "▁आउट",
        -10.051410841816027
      ],
      [
        "▁सप्तरी",
        -10.052080423918069
      ],
      [
        "▁नक्कली",
        -10.052210179921705
      ],
      [
        "िट",
        -10.052261888110095
      ],
      [
        "▁चित्त",
        -10.052369293644748
      ],
      [
        "▁बी",
        -10.05297729743736
      ],
      [
        "डो",
        -10.054006521439073
      ],
      [
        "हरूका",
        -10.054149583703987
      ],
      [
        "▁केन्द्रले",
        -10.05441146055042
      ],
      [
        "दि",
        -10.05455286819688
      ],
      [
        "▁खोल्ने",
        -10.054672395876596
      ],
      [
        "▁चेतना",
        -10.054682568803692
      ],
      [
        "▁दाङ",
        -10.054831136764456
      ],
      [
        "▁निकट",
        -10.055337393897876
      ],
      [
        "▁समुह",
        -10.055509155045083
      ],
      [
        "▁दु",
        -10.055649206927816
      ],
      [
        "▁एमालेका",
        -10.056006291775065
      ],
      [
        "▁५१",
        -10.057517688393627
      ],
      [
        "ro",
        -10.057713159733192
      ],
      [
        "▁बजारको",
        -10.057743797252892
      ],
      [
        "▁बताउँछन्।",
        -10.057802254299878
      ],
      [
        "▁माधव",
        -10.05948973007028
      ],
      [
        "▁ढुंगा",
        -10.059493448021817
      ],
      [
        "▁प्रष्ट",
        -10.059884798939173
      ],
      [
        "04/",
        -10.059949879760548
      ],
      [
        "न्ट",
        -10.060321876326531
      ],
      [
        "▁खुलेको",
        -10.060795174403966
      ],
      [
        "▁नपर्ने",
        -10.061663013833568
      ],
      [
        "▁भु",
        -10.061713270185702
      ],
      [
        "घर",
        -10.062029484882986
      ],
      [
        "किनकि",
        -10.062379392338212
      ],
      [
        "▁आकर्षक",
        -10.062464711846546
      ],
      [
        "▁सुनसरी",
        -10.062713187681402
      ],
      [
        "▁जु",
        -10.062775861928614
      ],
      [
        "▁लगाइएको",
        -10.063128609909423
      ],
      [
        "▁गाउँपालिकामा",
        -10.063213982470812
      ],
      [
        "▁घ",
        -10.063942653600424
      ],
      [
        "▁सिमेन्ट",
        -10.064093881803368
      ],
      [
        "▁विद्यार्थीलाई",
        -10.064203581231844
      ],
      [
        "ember",
        -10.065209266551408
      ],
      [
        "▁सू",
        -10.06533725760457
      ],
      [
        "▁विद्युतीय",
        -10.065895284786096
      ],
      [
        "वे",
        -10.065983258755024
      ],
      [
        "▁परिवारलाई",
        -10.066125467078145
      ],
      [
        "▁कास्की",
        -10.066422809303262
      ],
      [
        "▁है",
        -10.066551765012596
      ],
      [
        "र्न",
        -10.067238048655904
      ],
      [
        "▁पठाउन",
        -10.067958444711644
      ],
      [
[...]
